[PAD]
[UNK]
[START]
[END]
آ
أ
ؤ
إ
ئ
ا
ب
ة
ت
ث
ج
ح
خ
د
ذ
ر
ز
س
ش
ص
ض
ط
ظ
ع
غ
ف
ق
ك
ل
م
ن
ه
و
ى
ي
في
من
على
أن
##ه
إلى
عن
##ا
التي
##ة
ما
##ي
مع
لا
##ها
الله
أو
هذا
الذي
##ت
هذه
##ات
كان
كل
##ين
بعد
هو
##ون
ذلك
ان
بين
##ية
##م
##ك
لم
بن
##وا
فى
##ن
عليه
##نا
الى
خلال
##هم
كما
حيث
##ى
حتى
إن
قد
اليوم
ولا
له
قبل
قال
محمد
أي
وهو
علي
غير
كانت
هي
أنه
ثم
##و
##ر
بعض
العام
به
عام
إلا
بها
فيها
تم
ومن
فيه
عبد
يكون
##ل
يوم
##ان
أكثر
رئيس
العربية
إذا
وقد
وفي
شركة
لها
##ته
مثل
يمكن
##د
العالم
او
الذين
عند
أيضا
هناك
بشكل
##س
العمل
ولكن
جميع
حول
منتدى
وهي
منذ
تلك
عدد
مصر
عليها
منها
لكن
##ب
دون
بل
وذلك
صلى
الناس
تكون
##ني
عبر
فقط
أحد
فإن
المتحدة
الأول
وسلم
قسم
مجلس
بأن
الرئيس
يا
ليس
العامة
موقع
أخرى
يتم
والتي
الدولة
جدا
مدينة
بما
آخر
ابن
فيما
الحكومة
فقد
وما
وكان
##ف
عندما
الشيخ
##كم
يجب
منه
مما
##ع
الوقت
الثاني
خاصة
السعودية
##ق
##تها
تحت
أنها
سنة
عمل
الأولى
وهذا
أبو
عنه
بسبب
لهم
الخاصة
ولم
الأمر
داخل
لأن
السلام
وأن
شي
هنا
أحمد
منطقة
ضد
صور
التى
##يا
برنامج
واحد
أمام
مجموعة
عدم
وقال
جديدة
كبيرة
رقم
لك
نحو
الدين
العربي
وزير
كنت
النظام
أجل
كبير
طريق
الآن
##في
وزارة
الإنسان
عملية
العديد
الكثير
بنا
رسول
مرة
وعلى
الماضي
أول
##ح
أفضل
الدول
نفسه
##يه
تعالى
يقول
##ز
لن
الوطني
هل
مليون
المجتمع
ذات
##ج
جديد
حين
ال
المنطقة
وقت
لما
الحياة
أما
الدولي
##ش
الشركة
الدكتور
##يات
مستوى
ضمن
منهم
##ما
وجود
الجديدة
لو
الشعب
حالة
انه
##تين
شهر
إليه
واحدة
والذي
المدينة
أبي
السياسية
الجديد
مركز
لي
لدى
نظام
العراق
عمر
فقال
الوطنية
لكل
سنوات
إدارة
أم
الأرض
الولايات
إذ
دولة
##وقال
ألف
##تي
عدة
الملك
الخاص
إنه
صيانة
النبي
كتب
موضوع
الدولية
فهو
أهل
تاريخ
يمكنك
أكبر
الجيش
نقل
الثانية
كيف
فريق
الاتحاد
نفس
دولار
البحرين
يكن
الأمن
لنا
تحميل
سوف
هم
المملكة
الإسلامية
عنها
المجلس
المنتدى
العالمية
فلا
مسلسل
العرب
مجال
وليس
الخارجية
أنا
للبيع
سوريا
السيد
تقوم
يعني
الحصول
خدمة
القانون
بكل
كافة
اللغة
المرأة
عاما
##ير
لذلك
التعليم
القرآن
مكان
عشر
السنة
البلاد
دور
وضع
مشروع
بيت
نحن
سوا
استخدام
لكم
الموقع
رمضان
أمس
جا
##من
الأمريكية
بالإضافة
الإسلام
الحديث
حسب
المسلمين
##ور
لقد
الحرب
##وه
أيام
مدير
الجمعة
الوزرا
عليهم
يقوم
كتاب
الفريق
بينما
شخص
وإن
بدون
بالنسبة
وكذلك
برامج
جانب
تقدم
البحث
لبنان
تحقيق
أثنا
اي
الأخرى
حسن
الشباب
الأخيرة
المصري
الثالث
السياسي
اللجنة
##وفي
ثلاثة
إسرائيل
رغم
السودان
الكتاب
العاب
الموسم
التواصل
المالية
نهاية
مختلف
دول
قام
جامعة
الفترة
الأعمال
اكثر
السابق
##رة
الذى
فترة
المصرية
الثلاثا
رد
عليك
التاريخ
لأنه
لهذا
نتيجة
المعلومات
بداية
هؤلا
##ط
حزب
حال
مساعدة
تقديم
وسط
يوجد
الا
كذلك
أمر
الرجل
الكريم
مشاهدة
الخميس
##تك
معه
الشركات
وبعد
طريقة
المركز
تنظيف
##كما
##وي
كثيرا
هاتف
السوري
كانوا
الأربعا
دائما
حق
باسم
الحلقة
##تهم
الاجتماعي
لجنة
صاحب
عالم
ظل
البرنامج
الي
كامل
مباشرة
القدم
ليست
##لا
بهذا
سكس
لمدة
الكويت
الداخلية
اسم
علم
##ال
النسا
صورة
البيت
حقوق
إضافة
مسا
الخدمات
الوطن
مقابل
المياه
الساعة
حركة
فيلم
##ار
##لي
كلمة
##يل
عرض
مواقع
تعمل
القاهرة
آل
الحكم
نسبة
درجة
التربية
العلم
أهم
##لة
تنظيم
خاص
مختلفة
يتعلق
الموضوع
وكانت
زيادة
بأنه
وكل
السبت
##يين
عالية
إلي
السلطة
الما
الصور
قوات
اذا
بذلك
رجل
الاجتماعية
الشعر
السعودي
الأطفال
نوفمبر
بيان
قانون
كثير
لعبة
مباراة
البعض
الجميع
قرار
الدفاع
الكبير
افضل
القوات
شركات
الشرق
البحر
قطاع
الصلاة
محافظة
ريال
اليمن
المغرب
##ول
حد
إليها
السورية
خارج
بي
جنوب
رضي
الفلسطينية
السيارات
##تنا
سبيل
مليار
المرحلة
القدس
المناطق
بك
صحيفة
الحق
##ئه
الاقتصادية
الطريق
وهم
صالح
يعد
الشرطة
خدمات
باب
وجه
الصحة
فوق
الأمم
خالد
قوله
فهي
عبدالله
بد
يعمل
قناة
الواقع
وبين
لله
الأحد
هيئة
وسائل
أنت
أعمال
المزيد
الوصول
إطار
الاول
المختلفة
الرئيسية
وغيرها
الإدارة
ثلاث
عمليات
إبراهيم
النار
##وم
الصورة
جهة
تماما
العملية
النظر
تطبيق
بنات
الهيئة
الجامعة
حل
الوسيط
وفق
قوة
العسكرية
تطوير
السوق
فتح
ذكر
المشروع
التعاون
نوع
حياة
إيران
محمود
كثيرة
##خ
نشر
منتديات
القرار
إنها
دعم
انا
##ص
ساعة
قائمة
طلب
وان
بهذه
الحزب
جهاز
وفقا
العاصمة
##ض
لهذه
الطاقة
##ث
يعرف
شكل
##وس
مكافحة
مباشر
الإمام
حاليا
وحتى
الحركة
بني
المال
مناطق
فلسطين
قالت
ولو
حديث
القرن
سيارات
أشهر
سعر
المواد
مؤسسة
إعادة
المكان
غرفة
حكومة
أسعار
الطفل
علينا
الإعلام
العلاقات
روسيا
##قة
يوسف
والله
تركيا
الآخر
إحدى
أكد
أهمية
معلومات
##ود
الطعام
الأمريكي
التجارية
##يت
تجاهله
شمال
كأس
الجمهورية
أنهم
مصادر
تنفيذ
الجسم
سيكون
الاثنين
الانتخابات
ايضا
الحالي
شيئا
العالمي
فإنه
ترامب
بشأن
##اب
بدأت
المحلية
المشاركة
سوق
قتل
نتائج
غزة
##وأضاف
الرياض
بنسبة
مدى
##نة
##هما
للايجار
أخبار
الشهر
لاين
الدم
الوضع
عقد
وإذا
نقطة
الثورة
الأمور
المواطنين
الجهاز
مصدر
الفلسطيني
حكم
الدنيا
قامت
##بة
##ري
قضية
رفع
بحسب
علما
سوى
نفسها
نادي
الإسلامي
صباح
رسالة
يعتبر
وعدم
أعضا
##قال
##دي
قيمة
مطار
المباراة
##يم
##اني
##إن
ومع
أكتوبر
سعيد
الشعبية
مترجم
منظمة
جز
القطاع
تصميم
عضو
المنتخب
المواقع
زيارة
السلطات
حدث
قطر
العزيز
معظم
##مة
شبكة
المادة
جنيه
##غ
أصبح
الرسول
أقل
أنواع
وهذه
الثالثة
دار
##ئي
دراسة
الدوري
القسم
لكي
الشخصية
الاحتلال
اللهم
بحيث
المؤتمر
الماضية
ربما
غرف
سبتمبر
الأسبوع
وكالة
اون
يوما
السابقة
وبالتالي
##يد
عين
مشيرا
انها
دبي
خير
بلا
رجال
البرامج
الأخير
مرحلة
طويلة
تكن
حوالي
##ام
الثقافة
أعلى
المقبل
المصدر
علاقة
الفرنسية
الأمير
فعل
الطلاب
ألا
سورية
الإمارات
النفط
لمن
التعامل
المنزل
تعد
نائب
مكتب
الرحمن
كم
##عة
يريد
عبارة
الصحية
الغربية
اخبار
العليا
بهدف
قصة
صغيرة
وإنما
الخدمة
قرية
الرغم
لدينا
حسين
##دة
شرا
داعش
ارتفاع
الوزارة
العين
تعتبر
فإذا
تناول
الدور
كرة
يحدث
##وقد
المعرفة
لكنه
قدم
تحديد
فرصة
##أ
حماية
وتم
حرب
المستوى
خصوصا
الأمة
لكرة
المجال
ليلة
الأيام
الاقتصاد
الصفحة
العلمية
مهمة
مثلا
بينهم
أجهزة
بدأ
أرض
دي
سيارة
بطولة
يأتي
الحدود
عامة
تغيير
جميعا
القضا
يبدو
نصف
تحمل
وغير
كبيرا
رأس
اللقا
حي
احد
فيديو
يونيو
عليكم
فما
مجاني
عز
حساب
دمشق
الدراسة
كشف
قصص
توفير
مدرسة
المؤسسات
الخبر
الجمعية
لذا
مارس
تقرير
ضرورة
متر
الحب
مشكلة
فمن
يناير
القلب
وظائف
##وها
##بي
طالب
تصل
جمال
أبنا
الجز
يقدم
المعارضة
المساعدة
بطريقة
الحقيقة
الكمبيوتر
تقول
توفر
عيد
التنمية
كلها
الطرق
الكبرى
بواسطة
القيام
الدعم
معها
الكاتب
بهم
الفيديو
##ئها
##اه
احمد
فضلا
التابعة
عباس
قائلا
للغاية
أوروبا
محاولة
حجم
##أما
يزيد
أعلن
فلم
العلوم
يستطيع
آلاف
أصحاب
##را
اللي
المجموعة
الأكثر
سبب
الإسرائيلي
المدني
تعرف
اختيار
بعدما
البلد
عشرة
سعد
ولد
بتاريخ
##يس
فكرة
الحوار
الخليج
الأسد
وكيل
الجزائر
لماذا
مواجهة
الفنية
مشاركة
الدورة
ساعات
وهناك
أصل
جيدا
الحسن
تريد
يوليو
باستخدام
الصين
النواب
العلاج
المدرسة
النادي
فان
أعلنت
الأستاذ
فهم
سيتم
الاقتصادي
الأمنية
الإرهاب
حلقة
وصل
كلية
لأنها
الان
محام
الحكومية
سلمان
يؤدي
الكلام
الرسمي
شقق
##ومن
مجرد
الرسمية
الحديثة
ونحن
بكر
الإنترنت
الأوسط
بنت
مادة
شارع
الأشخاص
ظهر
تفسير
العمر
أصبحت
النص
لجميع
المحكمة
صحيح
تقريبا
قلت
الحالة
وحدة
الرياضية
العلما
تحتاج
##وية
الاتصال
الرجال
##كان
معرفة
موسى
صوت
ولاية
كاملة
الفصل
معروض
##تان
الشرقية
العراقي
جعل
كيفية
الانترنت
عمان
القوى
قيادة
ابو
دفع
الفني
وخاصة
مجالات
يصل
مؤتمر
الدينية
##اد
العودة
إطلاق
الشمس
إنما
بصورة
القديمة
بيع
قطع
الرابع
سليمان
السياسة
صلاة
مدريد
لقا
العلمي
خلالها
الأساسية
العلاقة
تعرض
شخصية
البيانات
الأميركية
الشخص
فرنسا
بمدينة
الأهلي
حمام
##نى
عربية
سياسية
##وكان
علاج
##وف
جمعية
ام
رؤية
مايو
ممن
النقل
##سي
عثمان
ويمكن
أولا
الهدف
الجانب
الديمقراطية
وعن
الحسين
الطبية
يوميا
كله
كنا
##وت
البنا
بينها
##فة
المسلحة
المدير
مهما
مصطفى
مرات
حصل
القضية
جيد
صلاح
دليل
ورا
البشرية
قول
بالرياض
##وة
يرى
الفرنسي
المستقبل
عقب
##يك
نوم
##يب
العراقية
دقيقة
البنك
مكة
تسجيل
كي
تحرير
وأنا
الجزيرة
##وى
الكبيرة
مؤخرا
##وب
موقف
يد
الكتب
الأردن
طرق
ماذا
الجهات
المدارس
مشاكل
ينبغي
أربعة
إنشا
التعليمية
تظهر
نسخة
جمع
##اته
صناعة
مدة
##لم
اللبنانية
الأوروبي
جيدة
حدود
خمسة
الهاتف
فبراير
حقيقة
الإنسانية
اخرى
تجربة
معا
حاجة
المسجد
عناصر
الليل
والتعليم
الأعضا
##شي
##دا
تجاه
دوري
أننا
##مي
العنف
##يف
الأخبار
الطبيعية
الدخول
الحال
الوزير
خلق
تحدث
النوع
تستطيع
صحة
الحشرات
القوة
##قد
القول
مساحة
سجل
##با
بس
المؤسسة
مؤكدا
السبب
الموت
الموجودة
لان
الأزمة
##حة
الآخرين
جماعة
نعم
يحتاج
المؤمنين
شرق
ستكون
المحافظة
طرف
السنوات
حملة
دعا
السيارة
سلسلة
يجعل
شهادة
بلغ
الشمالية
تشرين
الإلكتروني
لاعب
ملف
المنظمة
الطريقة
القيادة
التفاصيل
تعلم
الفنان
الأجهزة
المدن
بدلا
الخامس
دخول
خطة
##ئية
الفيلم
السادس
##يها
شرح
عروض
يجوز
عهد
يعود
توجد
التركية
هى
السما
لتحقيق
فلما
النفس
أمير
الكرة
##كي
عنوان
نظرا
لديه
واسعة
التجارة
تشكيل
محتوى
سبحانه
الزواج
للعمل
شباب
سي
قوية
اللاعب
جات
الانسان
رائعة
خط
للحصول
##تم
التحالف
وقع
شا
أغسطس
عمرو
العسكري
الإسرائيلية
سبق
إجرا
المواطن
ديسمبر
البرلمان
الاتفاق
الأبيض
معهم
إنتاج
المواضيع
ومنها
المتعلقة
السفر
البريطانية
قدر
الذهب
بأنها
أمن
الرياضة
يظهر
الثقافية
المشكلة
الجاري
العهد
بان
لغة
الباب
التقرير
الشعبي
الصغيرة
دخل
مقارنة
المغربي
##رات
المسيح
كلام
أساس
أدا
عربي
الجنوب
الوحيد
الف
رحمه
ولن
الأحمر
ورد
ليبيا
التعريف
منا
الرئيسي
الرأي
اللازمة
بسرعة
يقع
المغربية
معينة
امرأة
دورة
ولكنه
واشنطن
التالي
تقع
بالله
الضغط
عبدالعزيز
مسلم
ملفات
##ئ
التركي
أدى
المركزي
جودة
##اتها
تعزيز
الأعلى
تفاصيل
أى
يقال
الرابعة
يحمل
البيئة
عادة
المقاومة
حب
بعدها
السعر
كلمات
اخر
اجل
اللوا
المدنية
تستخدم
سورة
بحث
الدراسات
الشرعية
بعضهم
القادمة
كفر
##جي
الأقل
متخصصة
اللاجئين
المشاكل
تجد
سكان
تونس
##هن
عديدة
دينار
الأسرة
الفساد
امام
جزا
##بعد
بلغت
الواحد
##تا
النتائج
خلف
ممكن
مواد
الجنة
القائمة
الإلكترونية
الجوية
بعنوان
مطعم
فندق
سياسة
الاجتماع
النائب
المحلي
اول
أبريل
الشريف
رب
##يته
اجتماع
الأحداث
البيان
قرب
الخارج
اللعبة
حالات
صفحة
موعد
اللون
ولذلك
اما
دائرة
الروسي
نجد
العرض
بعيدا
أمريكا
المهندس
تدخل
##هذا
الروسية
المكتب
حياته
##اة
فهذا
المشاريع
لحقوق
اللاعبين
أنحا
الخير
أهداف
لأي
لديهم
بالفعل
الشاعر
قاعدة
وعندما
نيك
افلام
التسجيل
حدثنا
لكنها
بيانات
##جا
يعلم
ملايين
رفض
السياحة
بغداد
قضايا
##سة
النوم
ذاته
الشمال
وقف
معنى
الاولى
الأمين
محكمة
اتفاق
شك
وجل
هدف
وأنه
طول
الجنوبية
بحق
الحالية
##كس
نور
إعلان
القدرة
فكان
الأميركي
سن
البداية
أفراد
معرض
##به
القانونية
القضايا
ففي
مبارك
يبلغ
غيره
العمليات
##وني
عما
وصلت
الأكبر
الشارع
قلب
يسمى
##وقالت
التحرير
العالي
السودانية
مستشفى
هكذا
والعمل
حفل
ظهور
العدد
التالية
رواية
الفلسطينيين
الوحدة
بنفسك
##على
الفن
##كل
ترى
الحرية
الغذائية
يزال
##له
العدل
تمثل
##آ
أسباب
الزمن
قراة
الإخوان
قائد
قيام
الملكي
المقبلة
الاسلامية
عددا
##هل
اتحاد
القراة
تمت
التنظيم
تأتي
متعددة
سابق
منع
لديها
##وأكد
طوال
الكهربا
لابد
مالك
الدستور
بالمئة
ارقام
الاستثمار
السؤال
تحقق
الثقافي
العصر
تل
الامر
العظيم
بيروت
الطبيعي
##ذ
الأراضي
استمرار
برج
##اس
مدار
عودة
خمس
مجانا
ولي
الإجراات
المنتجات
أحدث
الشاب
الجولة
الظروف
اليهود
الصف
مشاريع
الفوز
فرض
الثانوية
الحرارة
مجلة
واضحة
أخذ
رائع
مياه
الحد
رواه
جميلة
المثال
المنتديات
تبدأ
للتسجيل
مخالف
نقاط
سيما
مقتل
القادم
الفكر
عنهم
البشر
شعر
كون
بث
أبدا
كتابة
لديك
سيد
الخطاب
السيطرة
الفندق
انت
الحل
الطب
فرع
التقنية
ترك
شقة
إمكانية
محل
ملك
بدر
الصناعية
تشغيل
غرب
وتحميل
خيارات
##فر
أنك
##وأشار
الوجه
الألعاب
بمناسبة
اسمه
المناسبة
متوسط
إقامة
سابقا
الدقيقة
جميل
حضور
يمثل
##كا
ضعف
الحاجة
وربما
تصريحات
الحج
##بر
##وأوضح
السكر
تويتر
منتخب
أية
التاريخية
ثورة
المهمة
البطولة
كبار
مراكز
شرطة
البحرية
الحفاظ
وقالت
اجمل
الحقوق
تحتوي
كتابه
الحقيقي
ناحية
بالتعاون
احدث
نص
يحتوي
بعضها
ذو
تأثير
قالوا
##تر
الجنسية
عسكرية
الثلاثة
السيدة
ستة
الإنتاج
وأضاف
الأوروبية
حلول
الإثنين
الجودة
مقر
الملفات
عملا
مرض
الغرب
الفرق
تسبب
خليفة
فرص
بدا
بأي
جائزة
المالي
الرسالة
نظر
أسما
المنورة
الإيراني
اللبناني
المرة
الجماعة
الموقف
نفسي
كمية
##نت
الشي
القومي
الصراع
متابعة
القديم
تزال
الطلب
دعوة
باريس
كريم
مباريات
الوزن
باقي
أبرز
وكيف
العاملين
وبعض
بينهما
أزمة
اتخاذ
ضغط
كلما
مسألة
مرور
خبر
الواسعة
دقائق
رأى
تشكل
أحيانا
زمن
بعيد
الأم
البلدان
التصميم
اليومية
يحصل
##قي
الحبيب
إجراات
جرا
واضح
ثانية
مناسبة
المصادر
يساعد
يصبح
بحضور
تعود
التدريب
##ره
ضو
أيها
الضو
التفكير
اليه
الأشيا
صدر
حتي
أنفسهم
يجري
يذكر
الحالات
الدعوة
قليلا
الحمل
البيضا
المشترك
بوابة
طائرة
أربع
وأيضا
فعلا
وفاة
##كر
المجالات
خرج
مطبخ
الأطراف
المعروف
يسمح
فهل
الحر
بقوة
صندوق
غياب
الهلال
الحمد
الرياضي
أين
مجانية
المشتركة
رحلة
ثاني
اكبر
الملكية
سياسي
تصريح
القنوات
الهوا
كانون
الداخلي
الدولار
خطوة
وجدت
التنفيذي
المسلم
##لك
النجاح
التبليغ
لصالح
تشمل
عشرات
انتها
جلسة
السابع
تساعد
فرق
##إذا
تحسين
بلد
##ئهم
الممارسة
##طة
يبقى
##وات
تبقى
وهل
اليمني
وحده
يؤكد
الصباح
الممكن
بحاجة
سؤال
قليلة
مار
##عي
الكنيسة
يعقوب
فصل
للدعم
منك
وجد
النهاية
واحدا
أحداث
وهى
بفضل
شئ
قدرة
منتصف
نفسك
لعام
شارك
##وكانت
##فا
تجمع
عادل
يبدأ
التحقيق
الخروج
الكلمات
بالمدينة
مستويات
الخامسة
يدخل
بريطانيا
زوجها
ملعب
##يتها
التطبيق
ذهب
وسوف
شخصا
قطعة
مدارس
برئاسة
القوانين
برشلونة
بمعنى
نقدم
السوداني
الغرفة
وفى
الأموال
حدوث
شيخ
فعاليات
تعديل
غدا
الرابط
سينا
الإعلان
مالية
مواقف
##ثم
الإيمان
الأسواق
معنا
ولكنها
المتوسط
حلب
الأمراض
العبد
مهرجان
والسلام
العمال
##اق
##ورة
بلاده
ثقافة
الإدارية
صغير
ورئيس
الموارد
بوك
أراد
الشؤون
##ذا
##مع
ابراهيم
النهائي
البريد
خطر
##اوي
الأسعار
الأسود
الصوت
المهم
##در
يجد
قم
بنك
يهم
غيرها
أمين
الحريري
القصة
النيل
تحويل
ذي
بمنطقة
محطة
الإرهابية
المناسب
ممارسة
##مر
الاهتمام
معين
ويقول
حماس
لحظة
##جة
سعود
نصر
الجهود
المتحدث
نجاح
مسؤول
باللغة
لمعاينة
منصور
الأحزاب
عنده
##جر
أفريقيا
ألمانيا
بلاد
الأطعمة
الصحيح
المشورة
الجامعات
عائلة
##ده
##رت
حرية
وصف
الداخل
الموافق
منزل
توزيع
وايت
الطبيب
##بات
المطلوب
بعدم
شديد
المتوقع
المرض
مفهوم
المسؤولين
بالكامل
الطلبة
إما
مني
قليل
بات
##يون
شبه
الطالب
لندن
الإصابة
الاتصالات
الطيب
عاد
السكان
العقل
الثقة
بقيادة
حمل
طرح
مصلحة
الهند
عمله
جدة
أشخاص
الاثاث
بالقرب
جزيرة
جرى
وعدد
تمكن
الخرطوم
وإلى
تعليم
تضم
حقا
##لقد
##ونه
تحول
التقدم
الشيعة
بلدة
كفار
تتم
قمة
وجهة
##وع
التغيير
كلا
وصول
المقرر
الآية
ادارة
الدراسي
انتخابات
الأفضل
الجمهور
السياحية
تخرج
##لت
عيسى
وهكذا
ويتم
الرسائل
العملات
المقدمة
العائلة
العدالة
درجات
العملا
الطيران
الفرصة
زوجته
جيش
مديرية
##ئة
تغير
##كة
فيهم
حينما
الغير
لون
أولى
طبيعة
القاعدة
انواع
قصيرة
متنوعة
المسؤولية
الصحافة
المائة
مؤسسات
##زي
أبطال
السلاح
يشكل
إني
نقوم
اتفاقية
الخط
##بل
الصحي
اثاث
القيم
السفير
جمهورية
محافظ
مظلات
الصحف
الألوان
نار
##قا
##لى
سلم
##لكن
حاول
متى
##نية
السيسي
تراجع
ظاهرة
الفنانة
الإنجليزية
المريض
روح
اللعب
وهنا
##اف
آخرين
الذكية
ويجب
##ولا
حقيقية
خلفية
يخرج
##بت
##جد
شاهد
إعداد
الهجوم
لبعض
ناصر
الديني
حشرات
واقع
إسماعيل
إلغا
سهل
نطاق
##وق
التعبير
العناصر
سلطة
يمنع
الشهيد
علوم
يستخدم
##تى
الشعوب
الغاز
بقيمة
شاب
الحاكم
الحيوانات
المبارك
ويكون
##فى
الملف
اقرأ
سقوط
وادي
تقنية
##يق
الحماية
الكلمة
درهم
والتى
جبل
طويل
يحيى
يعاني
شهدت
معركة
الرد
تصبح
المركزية
الفضا
تتعلق
المباشر
النصر
سلامة
فيصل
العدو
مكتبة
مواضيع
الحديد
توكيل
عالمية
قصر
التنظيف
الصحيفة
والخبرة
العقارية
تطور
لأول
البلدين
بقية
سرعة
##كو
##نه
العاملة
الأجنبية
مقال
##عد
الطائرة
المستشفى
بسهولة
صار
##لات
الشام
العيد
شروط
مملكة
الروح
الكشف
الهجرة
ذكرت
##وك
المصريين
اجتماعية
الرواية
ظهرت
مميزة
بلدية
##هي
النشاط
##اك
القاضي
الأسباب
جريدة
ذوي
ضبط
السوريين
يعيش
طلاب
يتحدث
القبض
##اج
الرقم
المعنية
السياق
النيابة
##يع
طلبات
أقول
الفعل
المطلوبة
سلام
غاية
الشكل
الكرام
الهواتف
الإيرانية
التخلص
التشغيل
الصينية
الشيطان
قواعد
بسيطة
قنوات
قيل
##يز
مراقبة
مضيفا
##ونا
المساحة
معدل
التجاري
مات
البيع
خبرا
شات
تؤدي
##شر
دولية
ملتقى
ايران
##رس
دونالد
دين
الكتابة
لوحة
المئة
رئاسة
عصر
أنني
طارق
إصدار
وانا
##فع
##مل
المستخدم
بمحافظة
للمرة
مسؤولية
اليمنية
تقارير
تنمية
غالبا
أكدت
جوجل
صنع
وكما
إثر
قرر
##فت
قدمت
موسم
##سم
بتقديم
العقوبات
الكاملة
أنبا
إله
البخاري
السجن
الغربي
تبحث
طبعا
##ينا
التحكم
الشخصيات
جعفر
تزيد
نهائي
ملابس
وقعت
الحملة
كشفت
##رد
المنازل
بكثير
الآثار
بجميع
تبلغ
مدن
الكهربائية
##اع
لسنة
قوي
منتجات
##رى
الفنادق
تحديث
حجر
مر
النور
سنويا
مترجمة
الألمانية
##بين
السادسة
الواقعة
تجعل
حصلت
جملة
رسائل
وأما
المدرب
##انية
أشار
مئات
القرية
نيوز
النسخة
ماستر
القيامة
تشير
منهما
##جل
حفظ
دورا
النقد
##رك
الإعلامي
فاطمة
التقليدية
الحقيقية
سالم
الطبيعة
حمد
بنفس
مؤشر
##اح
النهائية
##حي
يدل
شؤون
التأمين
رسميا
##دى
بخصوص
معالجة
يضم
##وز
أثر
المشاهدات
مدونة
العنوان
الزراعة
النهار
وله
ولما
##اي
أغلب
القومية
النتيجة
بمثابة
مهم
هما
##صر
الشديد
قريبا
نجوم
المؤلف
النمو
الحرة
السلطان
جهود
سو
الساحة
ولهذا
الذهاب
مناسب
الاعضا
القمر
تعتمد
صفوف
مبلغ
وآله
##انا
سلطان
منح
##اتهم
قررت
قريب
ومحمد
الأماكن
الجلد
ساحة
قوى
وسيلة
##سا
##يح
الراحل
أماكن
العقد
الأهداف
الملابس
تسعى
ولقد
الجلسة
دروس
عاصمة
أجزا
الدفع
الرئاسة
ليكون
التراث
الكلية
شعار
مراجعة
سيدنا
الاسم
ألعاب
السن
##ؤه
سطح
جديدا
للأمم
مجتمع
اسرائيل
##دت
الجيل
ظروف
مسجد
نقص
الأساسي
معهد
وقيل
خبرة
لتقديم
وأكثر
مستقبل
مسيرة
نشرت
نقول
الأحيان
التكنولوجيا
فن
خلاله
اهم
ثقة
السمو
بالدمام
تركيب
زايد
##صل
القرارات
نرى
زيد
##رب
الأفكار
البصرة
الشهدا
النفسية
قادة
موجودة
##وش
تهدف
وكذا
##مه
الفرد
القناة
انتشار
##كن
التركيز
لمواجهة
الشبكة
افتتاح
يخص
##وان
بجودة
سمعت
##ونة
تؤكد
مسار
نجم
بطاقة
خطأ
والتنمية
ضمان
البلدية
المستشار
المشهد
رسمية
شأن
إتصل
تعيش
##أكد
أبا
الجميلة
شامل
للجميع
مقدمة
ذا
لدعم
مراحل
وعند
داود
الوعي
فئة
مش
##عه
الأفلام
تحصل
آية
جرائم
لعدم
بجانب
الأسلحة
تبين
رأي
زواج
##زة
يوتيوب
العالية
الفكرة
تواجه
الحي
الزمان
توقف
لمزيد
العدوان
عامل
علاقات
الأدا
الحرمين
زال
قرارات
الجهة
الرب
هنالك
يحاول
عرف
عقود
مصنع
يتطلب
##ضي
أبوظبي
الدرجة
الزراعية
العلامة
القائم
رعاية
نت
المبادرة
المنظمات
نسا
وتعالى
يوفر
الشروط
صرف
يعتمد
النووي
الأوضاع
الجزائري
زيت
صباحا
طيب
مطلوب
الديمقراطي
الصحفي
عرب
للمشاركة
الصيف
حادث
آدم
القدر
علامة
وأكد
أفلام
لفترة
مريم
البريطاني
انشا
عمره
امس
تعاني
ورغم
أطفال
لشركة
الأدب
تسمح
والذين
الارض
ركن
كمال
نموذج
الاطفال
حوار
الحدث
مطلع
التجربة
يلي
المهنية
بالاضافة
المسلسل
بعمل
هشام
الجنس
مدخل
وأنت
الكامل
تدريب
لافتا
يتكون
الإصلاح
بقلم
طفل
القيمة
وخصوصا
يقل
##قل
أقرب
ايام
جابر
التونسي
المتعة
سياق
##ست
##ند
أسبوع
الصناعة
الصغير
مبادرة
اقتصادية
الامن
جانبه
يشعر
الثلاث
حديثة
رحمة
اختر
المنتج
اثنين
الأصل
اضافة
الأصلي
نيويورك
معدات
الأردنية
البنوك
الحجم
الأساس
الزمالك
قبيلة
علمية
التاسع
يحب
المسلمون
سير
وفد
##دية
انخفاض
فإنها
وزرا
المشاركين
المقال
الوسط
جل
لضمان
محددة
تختلف
الالكتروني
##شركة
##وح
اجهزة
الأب
الاستراتيجية
كيلو
والاجتماعية
تاريخية
تواصل
الشهير
فضل
العمومية
الرؤية
القائد
رجلا
يملك
الصحابة
تأسيس
إليك
وقبل
الإعلامية
كوريا
أدوات
فوائد
##عى
الجدد
##وهم
التابع
الموظفين
تقل
مقالات
آثار
انتهى
الحضور
وغيرهم
نشاط
الرأس
عندي
للوصول
وابن
يقف
الجبهة
السينما
الطبي
مساعد
تشطيب
##مان
التخطيط
الشعور
##عا
##فه
الصادق
##يرة
البشرة
الجريمة
المسؤول
الهندسة
خطاب
قمت
بشار
زين
وطنية
الإسباني
سيدي
منكم
لحماية
أمرا
ترتيب
للأطفال
إفريقيا
اسعار
اليد
تتضمن
رابط
قادرة
الأنبا
شعب
##عن
واسع
الأفراد
بعده
وتطوير
##قات
بموجب
انتقل
جريمة
فشل
للإيجار
صحفي
الصحرا
النجم
خارجية
##ظ
الاسلام
فحسب
أنظمة
تعني
مدرب
المقابل
آسيا
اختبار
الاعلام
خطوات
إنسان
الخطوة
يدعو
أحدا
تجاوز
الخبرا
الوفد
رأيت
سبعة
شعبية
شهد
العناية
اللغات
النشر
الرائعة
دخلت
زالت
شاشة
محلية
سان
آلة
أحب
الزيارة
المحافظات
المصرى
تصوير
قوانين
##صور
تتميز
الاستقرار
فلل
يورو
الاستاذ
الجماعات
وجميع
يفعل
الدهون
سليم
عائشة
الحصار
الشخصي
بجامعة
فنحن
مربع
أراضي
بوجود
سر
الإشارة
خالية
المجتمعات
تعريف
منصب
وتقديم
أحكام
أمل
خطيرة
للدولة
نهر
##ارة
إذن
الأسهم
تبدو
##حل
الأطبا
الشهيرة
اليها
أمنية
الجوال
##هر
اللحظة
وظيفة
##ذكر
استعمال
الاستفادة
الليلة
زاد
معاوية
الامارات
##تة
لعب
الخارجي
الشأن
الفقر
انتهت
كبرى
يبحث
أمور
الامام
التنسيق
المرضى
مصالح
أعلم
الشريعة
بالعمل
توقعات
يؤثر
ارض
الزيتون
جون
##جم
الانتها
إليهم
استراتيجية
المستخدمين
بالذكر
الأقصى
المسار
وليد
يسعى
تمر
الكل
ببعض
دير
لدي
الأحوال
طبيعي
أجمل
رئيسا
نمو
المعلم
##رية
أمراض
إرسال
النووية
فكيف
لاحقا
##عب
##يو
السفارة
العثور
الفتاة
بمشاركة
سابقة
طهران
مميز
مجددا
الإقامة
الجماهير
كاميرات
لقب
يومين
السريع
انك
فتاة
موسكو
##مشاهدة
التطور
حصريا
خادم
طبيعية
عظيم
##تو
##هو
بالصور
بقدر
اثنا
قل
الاخرى
التنفيذية
الزوج
الوكالة
نوعية
إشارة
العضو
خلفيات
لأنهم
التيار
الوسائل
جي
التدخل
صحية
أشكال
الحمرا
المفاوضات
المهرجان
الوحيدة
يطلب
الدعا
شديدة
بالرغم
##تكم
خلاف
تطبيقات
##رو
الذاتية
وبنا
الفلسفة
المعنى
التصوير
دوما
اعمال
للعام
المجموعات
ترجمة
القتال
الطرفين
القصص
الرعاية
الصادر
##ئك
أريد
الجزائرية
##لية
بكم
تشهد
يومي
الحاج
توقيع
المتخصصة
ونصف
أعتقد
بالتأكيد
تابعة
لتكون
منازل
الألماني
قضا
##رين
بقوله
مال
ندعوك
يسبب
##قى
التجمع
الجمال
المعرض
وضعت
##قه
الصرف
يعتقد
يكتب
##بى
تحليل
أقوى
ترغب
إصلاح
الأنشطة
رغبة
علامات
اصلاح
السابعة
التحديات
العميل
القتل
كذا
لأجل
##سون
المكرمة
مجموعات
أحسن
الاسلامي
##غير
الفئة
وحدات
المميزة
جدول
ورشة
ويل
##ناه
أدنى
الأسئلة
ذكره
لمكافحة
السلع
انهم
##هذه
الحمام
الخوف
بيد
##شة
##يان
لأحد
اتجاه
الأسنان
الشهادة
##صة
الصهيوني
الموسيقى
##دين
الربيع
تؤثر
تعلن
أني
العيون
اى
##قت
التطبيقات
الحلول
الخبرة
توجه
رأسه
يطلق
إيجاد
الجميل
الشامل
الرحيم
الشاشة
الطرف
باتجاه
معي
منظومة
ابنا
خليل
##كون
الحفل
فيسبوك
لمجلس
لمعرفة
يحقق
يشير
المخدرات
بدل
سيتي
سعادة
هجوم
وجهه
ووضع
بنفسه
مواطن
المصالح
تصدر
سهلة
استطاع
السير
##اها
مسابقة
أطلق
المعروفة
الوظائف
لانه
آذار
ذاتها
ربع
##ئم
اتصال
جبهة
فيلا
حلقات
الصعيد
المقدسة
خيار
ذكرى
ينظر
الانتخابية
الدراسية
الضفة
العروض
المدى
موضحا
##يش
أسرة
الفجر
القران
القهوة
المستمر
الشرقي
المدنيين
اني
تأمين
عامر
##قر
أولئك
خروج
المنافسة
سفر
تكوين
طبية
بوضع
سبع
عبدالرحمن
فور
محاولات
استقبال
توجيه
فورا
الأنظمة
العشرين
تعيين
أعظم
نيسان
##وتابع
العيش
أخي
الالتزام
اللجو
الهوية
بدعم
بيئة
حديثه
نتنياهو
يمر
الشريفين
المهدي
ذاك
عبيد
وقتها
الظهر
يريدون
الأدوية
حينها
الخيرية
الدار
القضائية
##مات
التحتية
المعركة
وليست
أهالي
ميل
الصعب
بنظام
نظم
والمؤسسات
المرور
تقدر
سيطرة
نريد
نكون
الاخبار
القمة
ربيع
الأمني
بسيط
بغير
جزر
صنعا
عالميا
##بس
إضافية
المواقف
معروف
الجهاد
اننا
صفحات
مزيد
المنزلية
إزالة
صل
مرتين
للجنة
رسمي
للمرأة
يقبل
الأخضر
وإلا
التوصل
عدا
مجمع
أصول
الخلق
العقاري
معك
وغيره
##بية
##مية
التداول
ويندوز
المتهم
صعوبة
##فق
الثامن
تقييم
جلب
عكس
نظرة
الثامنة
السودا
راشد
فنية
صديق
عون
وذكر
##لو
الاعتماد
تعرضت
##ئى
الاتجاه
المسيحية
سموه
وزيادة
##ونها
الأمطار
الخيارات
الدخل
تشعر
مقاطعة
يأخذ
المادية
عفش
تبادل
لخدمة
هامة
الفضائية
المحيط
منتدي
ورقة
زوجة
والده
##طر
للناس
##جن
أخيرا
بصفة
تدور
ربه
يقولون
##أن
المر
المقدس
خرجت
مبنى
نعرف
السرعة
المراكز
حرارة
شخصيات
قاله
قبول
سكنية
موضع
اعتماد
الربع
المطبخ
صعيد
ضرب
قوم
يشارك
##لين
سحب
تحاول
عسكري
ميدان
بالقاهرة
بحر
بشدة
يتجاوز
أسلوب
عشان
نزل
الحجر
الخلايا
الغرف
مبدأ
وتحقيق
##ؤها
##قبل
شمس
قيد
لوزارة
أخر
استخدامها
الدراما
الصادرة
الواحدة
ده
صفة
ومنهم
خطوط
مستمرة
يختلف
ألم
الجو
الخطة
##عات
##عت
أوضح
كونه
أداة
الابيض
السنوي
سريع
مناقشة
الإطار
الدكتورة
عموما
بيته
سريعة
الحروب
الخطوط
الناحية
رضا
ابنه
الإقليمية
الترتيب
فاز
منصة
وجا
##عرف
بزيارة
حقق
الأنبيا
الرقابة
الصالح
شاملة
فجر
وتكون
يرد
مصرية
أرى
الاخيرة
الشمالي
المساعدات
الوسطى
تأخذ
صدور
صرح
لبنا
وعليه
مائة
##زم
حزيران
كميات
##يذكر
سامسونج
حديقة
موجود
الفكرية
##ئر
##فل
فكانت
نوعا
والبحث
الحادث
ديوان
كوب
وهما
يتمتع
الشوارع
الوجود
رسم
فني
##سب
البقا
الصدر
جورج
جولة
علا
##عم
التربوية
تعليق
تفعيل
أقصى
التاسعة
الحكومي
للرئيس
##خر
الأردني
الجرائم
البشير
الفور
فرد
مقاومة
الذاكرة
المعلمين
لتلك
تملك
قلبي
الوحدات
الاردن
يسوع
تتجاوز
مينا
ورفع
##وعلى
أسئلة
الامريكية
التعلم
والخدمات
الخيار
العوامل
القبائل
القطاعات
النهضة
أردوغان
المحتلة
يتضمن
##رون
التصويت
الدائرة
تداول
##جب
الذات
بضرورة
فهد
يضع
الرقمية
الموجود
تضمن
ديب
رجب
فريزر
لسان
##جع
##حا
السرطان
السياسات
دارفور
##بع
##وري
توفي
لنقل
يده
الخطأ
النقاش
شكرا
فهناك
##علم
##قدم
النفسي
نظيره
الأربعة
تجارية
خطط
الاعمال
رسوم
سوبر
التعليقات
التوجه
الكلى
تحكم
حوله
ماليزيا
المكونات
تسمى
العالمين
طه
الإنساني
الصندوق
باستمرار
##عين
التجارب
اهل
فارس
منافسات
يتعرض
القارئ
صفقة
عزل
إجمالي
قادر
مجهز
يستحق
طبيب
الأمل
الدائم
المسرح
وتوفير
اطفال
لحل
مقابلة
##جو
##قسم
النصوص
بقي
طويلا
يكفي
البنية
الذكر
المباريات
فعله
##از
الأحكام
التقارير
ست
عرفت
##ثر
الاختيار
الانجليزية
القانوني
بالطبع
تذكر
لحزب
السحر
الغذا
إصابة
الذكرى
تقبل
سلاح
سيدة
آنذاك
إنهم
##تون
للشعب
مشتركة
أقدم
الانتقال
العادية
المسيحيين
جرت
سات
لإعادة
##ئنا
الحرام
الميلاد
حلم
ياسر
أشد
طالما
العملة
تنزيل
والتعاون
يكونوا
##يني
الابتدائية
اهتمام
ثالث
يشمل
##وأضافت
أموال
التاريخي
المذكورة
عوامل
والمجتمع
يمكننا
##زل
دراسات
مسلسلات
اكتشاف
الإنجليزي
الرائع
المعهد
مستمر
أسس
وستنجهاوس
المحدودة
النموذج
عيون
غسيل
فقلت
قلبه
لتنفيذ
محافظات
المتاحة
المخابرات
المسألة
النقاط
يعرض
الحيوية
الفرص
طرابلس
##سر
الحوثي
المشروعات
تكنولوجيا
ديكورات
يجمع
زي
الإطلاق
النجوم
وثيقة
##سل
##مين
أسابيع
دائم
وبذلك
##ولكن
وقوع
يدفع
عقارات
فليس
وجبة
يعانون
السعادة
الشكر
اليابان
بإذن
سمير
تتبع
تتكون
تعبر
تمام
تمكنت
الأشهر
تجارة
كندا
مشترك
البطريرك
جو
لرئيس
والعشرين
##قول
##وبعد
التعرف
##كانت
##ولة
الباحث
الصيني
الطويل
السويس
فوز
مسافة
الالعاب
القليلة
القرى
جهات
عنا
قانونية
اسما
الفنون
القوم
ثمن
أبيه
الحكومات
##بد
الخطوات
الشرعي
النصف
وتعزيز
الاعتراف
صالة
مسعود
الدستورية
المعدة
الأهلية
التلفزيون
المهاجرين
مكونات
الأصول
شأنها
الصديق
القصر
بوتين
صلة
للشباب
وأبو
الاعتبار
الالكترونية
الملعب
للحكومة
سمع
ينتظر
النحو
تسليم
فريقه
الجوي
الحقائق
أيلول
الرئاسية
الشتا
سيف
ضحايا
وكيفية
الإداري
##غا
الإسكندرية
تربية
قيم
الأسما
حرف
وعلي
يعبر
قيادات
يرجى
اغاني
البيوت
تتحدث
شر
صعبة
طاقة
عندنا
وأشار
التوالي
الشوط
أبواب
ثمة
عليا
فكل
كوم
لتطوير
هامش
##حول
آب
المحيطة
جيل
إدلب
الراحة
الفطر
خفض
آله
اعضا
الإيطالي
الاستخدام
بولاية
جسم
خيرا
زانوسى
##طي
الولادة
تمتلك
كنيسة
##تب
##رج
الادارة
شارب
مفتوحة
وأنها
يعطي
##شد
آلية
أغنية
للتنمية
##اية
##حق
المتعددة
يتميز
يتيح
يذهب
يرجع
اعتقال
كتبت
هريرة
الصحيحة
نهائيا
أستاذ
بطل
تقف
القديس
تمويل
##ئل
الإفطار
الاجهزة
البالغ
طن
محرك
يرغب
إيطاليا
الاسبوع
الاستقلال
مستقلة
وصولا
يعملون
تلقى
كافية
##رق
ابتدا
الغد
بعدد
موقعنا
أدوار
المحتوى
يقدر
اختلاف
المطار
الواردة
ثابت
عامين
##كتب
أدت
التمويل
المغاربة
تحالف
التنفيذ
باتت
بجدة
حضر
كاتب
للنظام
لهما
الخبز
العميد
الاربعا
الرسوم
بمختلف
تردد
شخصيا
##ريا
انتظار
أسفل
الشارقة
لحم
لمنع
موافقة
إغلاق
الليبي
المستخدمة
انشئ
بحجم
بمجرد
رؤسا
وإعادة
الفائدة
بأنهم
بلدان
نستطيع
كونها
مدونتك
زعيم
شأنه
فساتين
##ضة
الاحد
الحرس
الطائرات
وبعدها
جنيف
للقوات
الاحتفال
الحساب
الكبار
##أعلنت
استغلال
الظاهرة
تصحيح
شهور
يتمكن
يلعب
الثنائية
بسعر
لست
وقام
أوباما
شرف
مليارات
القلوب
هادي
يهدف
##حيث
إقليم
البد
الطبقة
ثمانية
كسر
التسويق
معايير
أحدهم
الأزهر
الأوراق
الذهبي
الزوجية
دا
ودعم
##جين
اليمين
##مت
الثانى
المذكور
المعدات
تتمتع
لعدد
وكنت
##الة
##حب
طعام
نجح
إعلام
البيض
القوية
بينه
أسهم
اعلانات
سم
واضحا
ولعل
##اش
التأثير
الفتاح
تقدير
تموز
خطورة
##دات
##ضع
أيار
##ظهر
أعوام
الأولية
التوتر
الساحل
مضى
هدفا
##حر
الصيانة
للسيارات
ورحمة
الحاسب
القطع
رابطة
شريك
عملها
فحص
قبيل
ارتفع
المختصة
بدقة
##فات
العسل
تضع
عمال
كثرة
وأصبح
يمكنه
##غي
الحديدة
المخرج
تنتهي
مجموع
وأوضح
العفش
صفر
##اري
الخضرا
سباق
سعودي
##رز
##قام
##يج
اب
الرياضيات
العاشرة
الموصل
بعيدة
تدل
##رف
الصحفيين
بوش
حكومية
نظيفة
والاقتصادية
الأخ
تقنيات
شرط
فيقول
محدودة
مشهد
أعرف
المستثمرين
بفعل
حصة
واذا
##ؤ
##بو
الاحتياجات
منظمات
##أعلن
الامور
البترول
أنتم
الكريمة
ردا
##عرض
الإجابة
تتطلب
تكشف
مخيم
احترام
الشورى
الفنانين
رونالدو
لعلاج
هاشم
بالمنطقة
تجري
تدمير
حمزة
داخلية
صعب
طبقا
دخلي
فرقة
ملعقة
ويعتبر
##هات
##ولم
إنا
احلى
المرتبة
مثال
معدلات
مقاطع
المجاورة
تليفون
يشهد
حامل
كاملا
نسب
##الي
المباشرة
تصنيع
مهارات
ألفا
أمة
أمريكي
شعبنا
عملت
لأكثر
##جه
##وج
أوراق
الدموية
الكود
تجديد
دورات
وبما
يعلن
أهله
الأقسام
الجنوبي
الخلاف
القبول
المهني
يكشف
تستمر
طائرات
مثلما
##حت
المتقدمة
المفتوحة
الساعات
الفقه
رئيسة
قرارا
فهذه
قلة
##سية
أنس
الأحيا
الوقوف
السماح
المؤمن
المبلغ
الهامة
الواضح
تخزين
راح
وزيرة
##خل
أشرف
المرتبطة
حقيقي
رئيسي
مالي
بفتح
فقدان
لتعزيز
للحفاظ
حاكم
##ران
##كية
##نج
البشري
الرغبة
المدة
امر
شريف
يضمن
قاعة
أونلاين
الرسم
السلبية
التونسية
برس
عندها
اذ
المائية
بيننا
ممثل
##بن
القلق
للشركة
لمصر
##امة
##جان
##جز
##نات
الحكمة
المرافق
ليلا
الجنود
المهام
شوارع
فلان
مشاركات
يصدر
##قص
القوي
مشيرة
أسرع
أصلا
الليبية
والسياسية
الأمانة
الجنسي
المدرسية
بمكة
قديمة
ونقل
##هى
الصناعات
العاشر
بحكم
تتعرض
لعمل
##عندما
الايام
العقود
الفضل
حسابات
سهم
طب
غريب
قاسم
##طا
##عية
إنجاز
الآلاف
التلاميذ
العظام
العقار
الغضب
بدور
دقيق
مذكرة
منهج
تكلفة
##دو
عم
الإيطالية
مجالس
##عمل
أسواق
التحقيقات
المنام
شبكات
طيبة
وبشكل
مسرح
الجمعيات
الحضارة
الزعيم
الكون
ويمكنك
##شن
الدقة
بالقول
خاشقجي
رش
عضوا
##زا
الشاملة
انطلاق
قريبة
والثقافة
##حه
إننا
التغذية
ضخمة
اعتبار
الاستمرار
سياسيا
تحب
تدعم
عشرين
الخ
دكتور
##وين
المواجهة
حياتهم
لنفسه
متجر
الأسر
الجليل
المستويات
##سك
الباحثين
الخليل
سجن
سمو
كسارة
وحماية
الموافقة
رام
ستجد
قرابة
أطراف
الحكيم
الطويلة
القطرية
الناتج
رائحة
كبيره
للاتحاد
##ذر
##عيد
الملائكة
بالما
ثبت
العامل
الفئات
ربنا
رياضية
##دد
خزانات
فعلى
مواصلة
اسمها
قلوب
ناس
هوية
وعمل
الاتفاقية
الجائزة
المراد
تأكيد
فيس
وايضا
اكتوبر
المهارات
الولاية
حفظه
قريش
أنشطة
أواخر
استقرار
العقيدة
فؤاد
ممثلة
ندوة
وطني
##حسن
##كشف
الخليجية
السلوك
تصنيف
قاموا
##قع
أعداد
البقرة
الخام
الضرائب
المشكلات
يمتلك
الأصوات
السنوية
العشا
الغذائي
المستشفيات
بمن
حديثا
##شا
الأدوات
الرياح
ثلاجات
روى
زمان
مصري
اونلاين
بنحو
فإننا
معالي
وطلب
أكمل
الأدبية
الربح
بكافة
تابع
دينية
صراع
يثبت
احدى
الابراج
الجامع
بتلك
عدن
##زر
##سى
السنين
هواتف
يديه
الصعبة
الكازينو
الناصر
تتمكن
وزن
الترجمة
الفشل
تستهدف
تسير
سببا
أطلقت
تجارب
زر
كفاة
الباحثون
الزوجة
المعايير
ذهبت
ربط
محطات
نظرية
نعلم
##لد
##ومة
السجاد
محور
##وط
تخصيص
رأسها
وعد
##علي
السكنية
حامد
سريعا
عوض
يشبه
أميركا
اقل
الفتح
المالكي
بطاقات
سفير
فكر
للشخص
نبي
يدعم
يقضي
اعتبر
الجبل
لدرجة
نقابة
آخرون
جبريل
والثاني
وفيه
##جى
أثار
الحاضر
ومطبخ
المخاطر
المساجد
حرام
زراعة
أقسام
استعادة
البرازيل
الزيادة
النبوية
والذى
وحسب
يدي
الطيور
بوزارة
والسنة
يفتح
##ولي
الأكاديمية
البنات
خفيفة
أتى
الآخرة
السلامة
الظلم
ومنذ
اشهر
الخطر
وأحمد
##صف
أفكار
استمرت
الدوحة
سهولة
مخالفة
القاسم
تثبيت
حيدر
مقطع
واي
يترك
##كت
التدريس
الحوثيين
جلالة
الطيبة
العادة
المسابقة
حافظ
سبل
الوثائق
يونس
##كات
الست
السرية
المخصصة
##ضا
تذهب
للفريق
نعمل
أشيا
التطوير
الكيان
تنسيق
##صد
##قالت
اصبح
الضحايا
النبوي
قابلة
الميدان
لوكالة
##فون
احتياجات
الجهد
جعلت
ضربة
الزهرا
السر
المكلف
تعطي
##ضى
آمنة
المنتظر
حقه
سيرفر
ملاحظة
والعالم
يدعى
##لان
القواعد
الكويتية
سيئة
كهربا
للتواصل
يقومون
العكس
شباط
##اتي
أساسية
الطوارئ
النفايات
لتنظيم
مرت
##وعن
الآيات
المحرك
المقدم
الملتقى
عنهما
فلن
لأسباب
يستمر
##جات
اطلاق
الترحيب
المستقلة
ريف
صدام
مخاطر
يفضل
الخليفة
تتوفر
حبيب
درس
##رض
أساسي
الواجب
احتمال
استمر
التدريبية
جهته
حياتك
للجيش
واليوم
##رع
الإقليمي
بمصر
شرعية
قبائل
##وذكر
الأبحاث
البحوث
المجانية
حياتنا
خسائر
أهلها
انظر
للدفاع
التطورات
الشرا
الكويتي
تفعل
عليهما
##قف
الأجانب
الفتيات
المراحل
انتاج
تعبير
للدكتور
مصير
اطلع
الشراكة
المكتبة
باعتبارها
عنصر
واجب
المنهج
حاولت
أجوا
محلات
وخلال
يدور
إمام
تعاون
حولها
دام
فائدة
مانشستر
متطلبات
الزوار
العراقيين
جامع
خسارة
مكانة
يرفع
الرحلة
المفتوح
عماد
فقالت
الأثاث
جمعة
ضيف
##ذة
أخذت
بالتالي
عمران
متاح
مفتوح
يؤمن
يقرأ
##تش
إسلامية
الشيوخ
حجز
رشيد
ضم
طيلة
لإدارة
لاسيما
##حات
تفتح
تكاليف
كريات
كمبيوتر
وتقدم
الأصلية
الجامعي
القصيرة
جوانب
لزيادة
ماي
يعرفون
ربي
طيران
أوضاع
التقى
النارية
بطاقةمحام
تتراوح
قدرات
معروفة
منى
##وما
إسحاق
الفرقة
بشي
خلايا
قيمتها
للقيام
وانما
وضعها
الركن
الشر
اليابانية
حدة
حدثت
رياضة
سائر
عاجل
ميلاد
ومصر
##حين
اعلان
الآلي
البر
المقام
بالمائة
تجنب
للسنة
محاربة
##تني
##ورا
الحليب
بشر
رحلات
عندهم
ورسوله
أحمر
أسلحة
الحجز
بيوت
صدق
##اقة
الاعتدا
الفقرا
باشا
وتعتبر
أمره
الاستثمارات
الحين
تتمثل
سائق
مبيعات
أحدهما
تدعو
ترتيبه
للأسف
يحل
شرب
شعبة
شقه
لى
مراعاة
يحدد
##لق
إيجابية
الروايات
تطلب
لموقع
مستشار
##بط
##فية
الحجاج
الخلافة
الزكاة
الوقود
دردشة
شهرين
قرأت
للبنات
أظهرت
رواد
كلفينيتور
لنظام
##لون
الدوا
المحمول
لتوفير
مفيدة
والأرض
##دون
##وجا
التقنيات
الجيد
المحامي
بعملية
ميزة
وإدارة
الطقس
توحيد
رويترز
طريقه
فنادق
##طل
##لف
##هام
الفردية
شهدا
وأخرى
##صار
##هناك
البرية
حوا
كلهم
يومنا
##هب
التعليمي
القريب
سنتين
عظيمة
للبحث
##شى
إنسانية
السيرة
الصناعي
يتوقف
التمييز
الناطق
تغطية
صارت
فروع
مكاتب
##حد
اتصل
البلدة
الفعاليات
حصول
روما
لولا
والأمن
والعراق
وعبد
وقتل
أوائل
الذاتي
الصوتية
المراقبة
ديكور
قديم
أصدر
الإبداع
التعذيب
الحلم
الدرس
النزاع
زاوية
اقتصاد
الحركات
الغرض
بارك
حميد
والي
يمكنها
صحيحة
عصير
عطر
كأن
ونشر
يصعب
##ئع
أنزل
إعطا
الأبرشيات
الإرهابي
مساحات
يو
يواجه
التحول
الفقرة
تي
الجسد
الكيميائية
بتوقيت
بزيادة
قداسة
كتلة
لأننا
##ظر
##كب
الجنائية
الذهبية
الصغار
برميل
حذف
حياتها
وجعل
يعيشون
##حم
الايجار
العثمانية
غسالات
قياس
##قطع
أسوأ
الاتحادية
الثمن
تحولت
تقدمها
حرص
عبده
لشرا
أسامة
إنك
الانقلاب
التعرض
##صدر
الخبرات
بالعاصمة
تحدد
فك
اثر
الأصدقا
موسيقى
التوحيد
الزائر
القليل
بحلول
والثقافية
اللجان
ثانيا
فيتامين
لعدة
نماذج
##بها
أمه
البرازيلي
الضمان
بطن
مرسي
##هد
##يبة
القطري
ممتازة
الجماعية
رمز
زيارته
غضب
##دم
##عود
##غل
التزام
تركي
عالي
محارم
ود
السياسيين
المحبة
بجوار
رياض
سجلت
سفيان
لانها
نعمة
أساسا
ارتفعت
للقضا
##وبة
استعداد
الأولي
الريف
حرم
عني
قابل
اتباع
الألم
الحاسوب
مؤكدة
##وبحسب
اضغط
الصبر
المعارض
انطلقت
بحرية
بنتيجة
توظيف
مهام
نظافة
##بان
آمن
الزبير
النقابة
بالمغرب
سامي
سرية
شريط
الرجوع
حديد
ردود
ساهم
غد
موت
وبدأ
##ادة
اعادة
الأخطا
الأدنى
النظافة
للمواطنين
يحق
##تل
الزيت
سما
سياسات
مفاوضات
وتقوم
##فقد
##يط
أساليب
اغنية
الاسرائيلي
البديل
الشاي
تسربات
حمص
اطار
الخمس
موجة
افريقيا
العربى
العمالة
النقدية
انهيار
تشارك
حبل
حوادث
لحركة
وبدون
النمل
نمط
ينتج
##عل
##لب
الويب
حمامات
علمي
عمار
للتعليم
##ثل
آليات
الانسانية
الثدي
الجامعية
باعتباره
ينتهي
##شات
إدخال
الجلوس
الشمسية
دم
سلوك
قرى
ممتاز
يتوقع
##بته
الحجة
اليومي
برعاية
تكرار
ثابتة
##ئب
##سه
التجميل
الصيد
اللازم
المعارك
تواجد
لمتابعة
وحدها
##لها
##نو
الاسكندرية
السبع
المتنوعة
المقالة
كن
نسخ
نوعها
##ثة
##سن
آيات
أحيا
جنود
سنين
##عاد
##يقول
السجون
الممثل
جبال
غريبة
لمناقشة
##يري
التربوي
الشعرا
المصلحة
المطاعم
جفعات
دك
##ضم
الرابطة
الفوضى
تلعب
حياتي
لشؤون
لوضع
ودون
ويعمل
##طلب
أنصار
استخدم
البطن
الخصوص
الرائدة
القادر
النقطة
تأليف
تهتم
سويسرا
للاستثمار
وتحسين
العقارات
ديفيد
شهادات
ضباط
فلسطينية
قصيدة
هجمات
##انة
##عبد
أهمها
الهندي
حسني
دورها
غالبية
##قوا
بحجة
رصد
نسمة
يسمع
##دل
الحارة
الفيس
النظم
جده
حرة
طلبت
##اط
العادي
تتيح
منزله
الأسماك
الجمع
الصفحات
المصابين
النسبة
شرقي
ندا
يقارب
الخالية
المباني
الهجمات
بئر
شجرة
للمجلس
ماجد
وحسن
يدرك
أخبرنا
اغتيال
النظرية
بعضا
صادر
الأسبق
ذاكرة
شركه
##سات
أعماله
الكترونية
بدوره
بلادنا
سلطات
لتحديد
معاناة
السريعة
السهل
المساهمة
انطلاقا
تفيد
حسابه
نواب
أسود
المصالحة
جلسات
حسام
مشاعر
هام
وغرفة
ومنع
السعيد
عبادة
فريد
ها
##وأوضحت
تمنع
حققت
##وأشارت
الوكيل
نسبيا
وتحديد
يهتم
أعلاه
الشحن
حجة
##ناها
إخراج
الأزرق
القمح
المتوسطة
بنية
للنسا
##ادي
أبيبيافا
المتظاهرين
تيار
روايات
عندك
غضون
نفسية
إرهابية
الرحمة
المناسبات
جسر
لرفع
معالم
وفتح
##اما
آمنوا
أون
التأكد
بري
بغض
شتى
صادق
طلبة
وتحديدا
البرلمانية
الصدد
العشر
المثل
امتحانات
بأس
بنقل
مبالغ
ياسين
##طار
الأزيا
الضروري
بالضرورة
بعين
متخصص
الأرقام
المديرية
المريخ
تصاميم
ثنائية
ربك
نجيب
وآخر
وأخيرا
الملايين
برصيد
دما
عرضة
وحقوق
أرسل
الأهمية
التفسير
تدفع
رئيسية
كوكب
مروان
مهندس
والى
##نس
أوقات
الناشر
بتهمة
عنك
فتحي
##صب
إيقاف
التحليل
الجوانب
القادة
تحضير
طراز
محسن
مرحبا
الدليل
قصد
نقله
التمثيل
الحظ
النفطية
الوفاق
اولا
تدريبية
استكمال
المادي
حادثة
محدد
##يتي
الحيوان
الضرورية
حظر
خوفا
دولي
فأنا
والصحة
الاختلاف
العظمى
تحديدا
غيرهم
قبله
##حمل
أمريكية
ثقافية
شدة
لغات
وكأن
##بدأ
##شف
ابي
اسحق
الأزمات
التميز
الحوادث
السودانيين
المحاسبة
المشاعر
حارس
متميزة
##أت
الأندية
مبينا
وطن
يسير
البدنية
التحميل
النباتي
فلاش
ليرة
##خيل
آن
الدماغ
الفم
زوج
شعبان
فريدة
كود
ومدير
إعلامية
الصلة
الكثيرين
المشاركات
تثبت
تعليمية
عمرها
كليب
والدولية
##صح
البابا
التجار
ختام
سد
مو
##وذكرت
أردت
الاستخبارات
الدبلوماسية
المسيرة
الوليد
كأنه
مطالب
والنسا
وعشرين
##زال
اتصالات
التأكيد
لجان
والعلوم
##خص
##يقة
الشهري
صيغة
طبقة
نقاش
الكلي
المعدنية
المفوضية
بتنفيذ
نصيب
وسيتم
ويقوم
##إلى
##خا
الفحم
الفريقين
المناخ
متن
والبرامج
##منتدى
التشريعية
الروابط
المسا
الموضوعات
سيرة
قصف
مدني
أرقام
المرشحين
المعادن
غرار
مبادئ
يعنى
الضريبة
بهما
توسيع
فيجب
لمشاهدة
مراد
وفيما
يفكر
الأمان
الجبال
الشيف
جواز
لائحة
موظف
يصلي
يقرب
##عون
التقليدي
المفضلة
بدورها
بنشر
تلقي
للانتخابات
مرتبطة
والشركات
التعاقد
الحرم
الحريات
الخمسة
المعتقلين
تربوية
فجأة
فقه
متوسطة
نقلت
##خي
##كين
أرضية
أكون
السادات
اللذين
المقصود
بقا
بيكو
تمتد
درعا
شرائح
لابن
أعراض
إلينا
المبيدات
المجالس
النحل
تايمز
تسعة
كلمته
##انه
##حضر
اعتبارا
الشبكات
اللقب
شملت
ويقال
##وص
البحرينية
التوظيف
العرش
بقطاع
##طول
الأدلة
السكري
اين
فعالية
كرتون
محيط
مسبقا
##زان
الامم
بيده
جمهور
فأنت
لمجموعة
مفتاح
يفيد
الأحاديث
القرا
باستثنا
غاز
مره
مكتوب
البوابة
بوضوح
فيك
لاعبي
##طف
استهداف
الحسابات
المؤشر
المالك
توافق
صحفية
عطلة
لبنات
##طلق
##ويقول
الحراك
الشيوعي
الفصائل
تسوية
والولايات
##ائر
##حى
اجتماعات
الجانبين
##بح
##جية
البطالة
الثروة
المفترض
صدرت
أصيب
أطول
الاخير
الامتحانات
القيادات
تام
طرد
أفغانستان
الأخلاق
العفو
كرم
لتحسين
لكافة
الاستقبال
الخطيب
السلم
الفكري
الممتاز
بإعادة
توفيق
رفعت
نبيل
يموت
كنتم
متاحة
هدية
ولماذا
##وهذا
العجز
اللسان
المقابلة
تقرر
عصام
لتصبح
##رم
##طالب
التعديل
التهاب
الصيام
المجلة
لعملية
مشروعات
وأعضا
أقيمت
البطل
اليهودية
معتبرا
والاستقرار
أولاد
الثانوي
العضلات
الفتنة
ببساطة
جميعها
واجهة
##رار
##رام
الإماراتي
الثوري
الوظيفة
تتحول
جهد
سقط
شاركت
شركتنا
للشيخ
##صي
أركان
أنفسنا
البسيطة
الطائف
بأسعار
تطلق
قدما
قصير
وجهات
السياحي
العضوية
القارة
تحرك
معلم
يونايتد
##يمكن
الإخبارية
الكثيرة
تخضع
تستحق
تنطلق
سيادة
صاحبه
للعالم
الخليجي
ليصبح
نزلت
ينصح
##ونات
اختار
اعلن
الأسرى
الجماعي
المنبر
فيكون
لوا
هائلة
وافق
##دها
##ذي
##زو
##غر
##فد
##كه
ألوان
أندرويد
التوازن
المساواة
المعاصر
تتوقف
تقليل
ستار
كلامه
للحزب
##نون
اسطنبول
الاسعار
الحية
القدرات
اللحم
المثالية
خصائص
شعور
لعرض
مبوبة
الكبد
بعث
حيفا
رفضت
صحي
فترات
وكالات
##آت
##جار
الأهالي
الرحلات
انتقال
حرق
زينب
ووزير
##طلع
الطلاق
تخفيف
تشبه
تصفح
مرمى
وبدأت
##بك
##محمد
البائع
تحدثت
ظلت
نجحت
الحروف
عاش
لآخر
ازيا
الغنا
المبنى
بابا
بسم
طبق
عقدت
معناه
يثير
##حمد
##يتهم
الاطلاع
بمعدل
عادت
مثله
مواليد
وبركاته
ولها
##يهم
أصحابه
الجيزة
الطائفية
بالمملكة
بشير
وفيها
الجمهوري
المتهمين
عجز
الافلام
البعد
التوقيع
القريبة
المتميزة
المشروبات
تصرف
تقسيم
جنيها
نشره
##ائق
الدروس
عزيز
لزيارة
لكنهم
للقانون
وكانوا
##زع
##عته
##نحن
##ينة
الآبا
الثقيلة
النسائية
اليهودي
تلبية
مشددا
هندسة
وردت
يخدم
الخصوصية
دعوى
عادي
كليا
يمكنهم
##افي
##ستر
إرادة
التفاوض
المسلمة
المشرف
مدبلج
##ئح
##فضل
##وقع
الأوقات
البرتغالي
التصرف
الخبير
تولى
عددهم
مثيرة
ميزانية
هلال
##رته
##مى
محاكمة
والتجارة
أصوات
أيمن
الأهم
الاختبارات
الشقق
الصهيونية
الفوائد
الهندية
الهيئات
بتوفير
نير
الصلب
العشرات
المحروقات
مقدار
##سو
التام
الزراعي
بحثا
تلفزيون
عضوية
لبرنامج
وكتب
أشارت
العذرا
المستدامة
تكريم
جنب
دوت
زادت
مؤشرات
ومنه
##مون
##يلي
الأثرية
الراهن
الهندسية
باللون
مقدم
##أة
الكذب
روابط
سعودية
كاميرا
وثائق
##ولفت
البحري
الندوة
امتداد
شو
قدره
موارد
يسهل
يفترض
اجرا
الجارية
الحزن
الدما
الرضا
المعتمدة
جماهير
مخصصة
مصطلح
وقتا
لازم
لتحرير
وصفه
يتكلم
##دان
##دور
التحكيم
الرئاسي
بطلب
جد
زياد
عقوبات
قمنا
نيابة
والشيخ
##وجه
أبرزها
استخدامه
بمقر
تنتج
سرطان
مصعد
وتعمل
يوضح
##دوا
##هة
إحيا
التحرك
السوبر
المسيحي
المقالات
بموقع
تعكس
ليل
ويبدو
##نين
إسبانيا
الجن
النازحين
كريازى
وتقول
يعادل
##فض
الحبوب
السفينة
الميت
بار
بالعربية
حوالى
##خرج
الابتدائي
الامريكي
الخلفية
الصفات
المبيعات
بمركز
تنقل
خبير
صفات
فينا
قائلة
لمساعدة
وضعه
يتحول
إس
الضرر
العظيمة
تبني
جناح
أيوب
الإسكان
بأعمال
مؤسس
مكانه
ميسي
اجتماعا
اعداد
الاختبار
الجمل
الحكام
الغالب
بعثة
تخصص
طاولة
كتبه
للطلاب
معارك
يعكس
##جون
الممارسات
تقام
جاهزة
دعت
لمنظمة
##جمع
التدخين
المحاكم
امريكا
بذل
المحافظ
اليسار
سنه
ضابط
ضريبة
الدقيق
الذكا
امتحان
بالشكل
تسلم
جدوى
عل
فلسطيني
وكأنه
يقتل
يقيم
##ذل
الناصرة
بأكثر
بلاك
بنيامين
تكمن
صغار
صياغة
عزيزي
للطاقة
منتج
نصائح
نصوص
##ئيل
##دن
أبعد
اختبارات
الإجتماعي
الدورات
العلامات
انتخاب
بأحد
برفع
جنسية
طائفة
ميشال
الاستراتيجي
الساخن
العقلية
الكاميرا
المستقبلية
المطعم
بقيت
تدريجيا
لمدينة
ليفربول
##ائل
##اوى
##ضح
أصدرت
الامنية
التصنيف
الجملة
الحميد
المستمرة
المنظومة
سكن
علمت
فساد
يتسبب
##احة
##فين
##مو
الأدبي
الخالق
انمي
بمجلس
للتخلص
محمدا
##الكاتب
##يلة
أتمنى
الأجوا
الدجاج
الملح
ترفع
شى
عبارات
علاوة
للدراسات
يقود
##قم
##نيا
بمبلغ
تنظم
جلال
داخلي
صاحبة
قرن
مظاهر
الأوقاف
الإيجابية
القذافي
يفهم
##ومع
استعدادا
الأعراض
الأغنية
السلمي
النفوس
تشجيع
صلي
ملامح
هذة
ويوجد
يرفض
##برنامج
آلات
أجد
إزا
الخشب
المشاهد
الموضة
تطالب
سحر
مستوي
ورش
يمكنكم
##مثل
##يوم
البحيرة
السمك
تلقائيا
تنفيذها
عرضه
قدمه
للإنسان
مايكروسوفت
محدود
موظفي
وأصبحت
والآن
الرجا
المنشآت
بعرض
عادية
يلزم
##زن
أيا
الكردية
حماة
خادمة
شهرا
طاقم
قطاعات
مرسى
مشكلات
##ابة
الاخر
البلدي
العبادي
النسخ
تسويق
سرقة
والثانية
##ضمن
أبيض
اعرف
الجدل
الفهم
تساهم
فئات
قانوني
للمجتمع
والكثير
يلتقي
البضائع
الشاطئ
المركبات
خان
سدي
لحظات
ماهو
هاني
##قين
##نك
العلوي
ثلاثين
جوائز
سوري
شكر
عددها
مسقط
ومتابعة
##تد
##زات
##سع
##وته
اصبحت
الإسبانية
الصحفية
الضباط
اللبنانيين
المستعمل
بكلية
جوال
خاصا
لويس
موقعها
والحفاظ
والعربية
##اهم
السامية
المعتمد
بضعة
حدائق
سراح
فضا
##وبين
أثبتت
الأبواب
التعديلات
القلعة
بيري
حيا
##حدث
##صنع
أرشيف
أيدي
الأديان
الإتحاد
الحارس
السينمائي
الفيروسات
الوهاب
عمق
نهج
##بون
##نها
أكل
إسقاط
استقبل
الجواب
الخلفيات
المدرسي
عقده
فضيلة
مغلقة
##ئن
##قب
الأنترنت
التسوق
العائلات
الفوركس
باعتبار
بال
بالسجن
حوض
سلبية
وكم
الاوسط
التحدي
التطرف
بورصة
تبارك
فانه
نتحدث
##تور
##لال
أقيم
الرقمي
العلي
تناسب
عقوبة
لفريق
##اض
##رها
أمانة
اصحاب
التقييم
الدائمة
المسابقات
النجمة
جوية
كسب
لوقف
مخصص
موريتانيا
الأغذية
دفعة
دوره
شغل
وأخذ
وتلك
وتنفيذ
##تن
##ورد
النيابية
بجائزة
تفوق
للشركات
منزلك
الدوائر
الشافعي
بنى
حسبما
قلنا
وبحسب
##شية
اعتقد
التوفيق
الخاتم
العب
العصور
اهمية
اوروبا
تأجيل
غربي
قتلوا
وفاته
ولذا
البورصة
التنظيمات
جثة
ليصل
والرياضة
وظهر
##حية
##ذهب
##وحة
الأرضية
الزجاج
الوقاية
توقع
قضى
منصبه
##تعد
##شل
##ويه
آي
أب
الإعلانات
الاشتراكي
الغريب
تهديد
كتابا
معكم
والإعلام
وجوده
يحكم
يساهم
##وأكدت
أمامه
الحادي
الديكور
تفقد
قلوبهم
لمشروع
مقاعد
ومحاولة
ابنة
بصوت
حيال
متحف
متفق
##بحث
##ظل
الاشتراك
النظرة
بعدة
تصور
مخطط
وأي
السيدات
سقف
لدولة
مسجل
معارضة
التخصصات
السباحة
الكعبة
الوثيقة
قدرها
لاعبين
لوجود
متكاملة
ملكية
وحين
الأغاني
الممثلة
تتخذ
تنظر
جمعت
حبوب
وعبر
##حكم
##دع
##سين
أبل
الأبطال
تأخر
جهازك
حر
دستور
رائد
عالمي
نشرها
والحياة
##دار
أمي
الضعف
الكلب
بدرجة
بديل
بيضا
تحسن
حافلة
مبيدات
مشاركته
مصورة
مفيد
مكون
##حن
##طان
##عز
أفاد
الاصلي
الفرح
المسائل
عميد
متقدمة
يتحمل
##خة
الإصدار
الحربي
المحددة
المناهج
ضيق
نقد
##او
##حال
##يكا
أجنبية
الأثر
الحاكمة
الظاهر
بقرار
حريق
فرعون
فلو
نافذة
##باب
##ثير
الحادثة
بخلاف
ينزل
##ئد
##تعرض
##فهم
اصدار
الإفريقي
لإنشا
للحياة
مترا
وإصابة
والد
وانت
وقدم
##فتح
البيئية
ترتبط
داعيا
صلوات
استثمار
اسماعيل
الابن
التحويل
التعليق
التقني
المجمع
المسلسلات
تكتب
متحرك
محادثات
معسكر
##ليس
استضافة
الاعلانات
الشرف
بشرط
شحن
للتعامل
محبة
ميجا
وتنظيم
يرون
يهدد
الإفريقية
الانتظار
الوفا
ترد
خاصية
خطير
عمارة
لإجرا
وائل
وتنمية
يطالب
##عان
##كى
التوقعات
الثورية
الرصاص
العثماني
الكافي
الكثيرون
المرحوم
مواصفات
وصور
الاستعداد
الثنائي
الرعب
السلطنة
المضادة
جدد
حركات
سكر
فعلت
كس
لإطلاق
متعة
وجهها
أستراليا
المصارف
جنرال
دقة
صح
فاروق
مانع
وطرق
الصواريخ
الطبعة
القصيدة
المعاصرة
بالتنسيق
بانه
قادرا
وجوه
##وهو
أفادت
استهلاك
الارتباط
الجيدة
الفراغ
تخص
توصل
سارة
##وفر
##يرا
الجزا
المحمولة
المقيمين
سبورت
مستخدمي
وانه
ولأن
##أنا
##ئس
##العاب
إغناطيوس
الأجنبي
الماجستير
انقطاع
للأمن
مماثلة
##نعم
الاستمتاع
الحريق
المسافة
بالذات
سنتر
للاستفسار
ودول
يعيد
أشعر
الروس
العبادة
انفجار
تخفيض
دفاع
فعال
##قية
الريال
حاتم
سياحية
لحضور
والدكتور
والدول
ورجال
ومعرفة
يطرح
##يلا
استهدفت
البث
الخلافات
الذكي
الطفولة
العنكبوت
المبكر
المميز
الموازنة
تخدم
تمارس
تنتظر
روحاني
والغاز
يظل
يقتصر
##تس
##زية
ابطال
الليمون
المشي
بالكويت
تهم
شمالي
وسيكون
آرا
الأجيال
الأربع
الأفريقية
التضامن
المساعد
بوصة
راس
عباد
غطا
ليوم
مشرف
##تقي
أسبوعين
التحديث
الزرقا
العروس
بوست
سانت
عامي
لقاات
وعرض
##مس
إثارة
ابدا
البصر
المفاهيم
الوادي
بنجاح
حلا
عميق
عيادة
قائم
مئوية
مراسل
مرضى
##الله
أسفر
الانتباه
الرباط
الروم
فرح
لمعالجة
مغادرة
وروسيا
يتعين
يقصد
يمارس
##شين
##صرف
##كيف
##ويات
إحداث
التحضير
الدوام
الميزان
مرشح
وبرامج
وقالوا
يتحقق
أستطيع
السعوديين
الفيزيا
القيادي
حقل
مرارا
مسؤولين
مول
نادر
##جري
##عها
اختراق
استيراد
الآرا
الإنقاذ
التوقف
العقيد
الميزانية
الزيارات
المسرحية
المطاف
تميز
راحة
زوجي
وسوريا
##دق
أبيب
الآونة
الإقليم
المطران
الملوك
المناصب
بإطلاق
فبعد
لطيف
مايكل
##طات
##طال
الأرباح
السلف
خلقه
دائمة
كانا
واقعة
##ضيف
##طب
أجريت
السيئة
المبادئ
المطالبة
للشؤون
وتاريخ
يوحنا
##عر
##عوا
##غة
أصغر
جعله
لأهل
معاملة
مقام
والقضا
##فعل
##لن
##لوا
##ميل
إشراف
العطا
النضال
بغية
بولس
عذاب
لدول
مشاهد
مميزات
التموين
الخيمة
تترك
طالبا
قويا
لبحث
محاضرة
ورق
##تقل
##جال
##شقة
الامين
الشغل
تمهيدا
زار
سلبا
عطا
غذائية
كرسي
مل
ويعد
يتناول
أخطا
إظهار
الأنواع
تهنئة
مازال
هاي
إنقاذ
الاشخاص
الاميركية
البعث
التراب
السفن
تطورات
تمارين
سعة
للسلطة
يعلمون
##وشدد
اقتصادي
الاستثمارية
التغيرات
المخطط
المهندسين
اليورو
بالغة
تنسى
شهريا
ليسوا
مساهمة
نهيان
ولكنهم
##يث
أوليا
الأميرة
الخفيفة
الزور
صبري
مركزي
مطلقا
ممكنة
وتعد
وقوله
ويأتي
اخي
الأمثل
الحرص
الدمام
بطرق
بمقدار
فتحت
فصائل
أمثال
الجنرال
الستة
المؤشرات
تسيطر
حملات
##ثار
##يعة
اكد
التكوين
الحجاب
بلدي
زكريا
نعيش
يتغير
يرتبط
إلقا
الشيعي
العبور
الماضى
بقتل
طبي
كثر
ولكل
##الى
##جح
##ضر
##لس
##مائة
الأمام
الام
الترفيه
الخيال
برلين
خريطة
رموز
صاله
كلنا
مقالة
يستطع
##عند
##مد
باراك
حذر
والاجتماعي
وصالة
##حظ
##هج
التعادل
الضغوط
الطلبات
حظك
طريقها
لاحق
لدراسة
##زه
##سان
##طه
الارهاب
السلة
العباس
بإمكانك
هيكل
يصلح
##شهد
أعدا
أمني
الأن
الاحمر
الخسائر
السائل
المذهب
تمكين
فسوف
كلم
##صات
أحلام
الباقر
الدعوى
الشعرية
الفارق
المعارف
بالقوة
بخير
تجهيز
عدنان
فمثلا
مستقل
##جت
##موقع
إثبات
الأرشيف
السكن
الصمت
القضاة
زيادات
صناديق
صيف
وتشمل
يضرب
##أس
##صاف
##عام
أعقاب
المجيد
بجروح
بيانا
تزايد
توضح
سودا
غسل
قط
ليتم
##ائي
##ولد
أظهر
الرقة
السابقين
بتنظيم
تركز
ثانوي
حدد
فإنهم
مشبات
مصباح
واستخدام
وصحبه
##جور
##رح
استعراض
السباق
المشتري
تكييف
تمنح
تهدد
دولارا
قيس
للحد
##الا
##عيش
الاستماع
التصريحات
اللوني
المتميز
المجتمعية
الوفاة
بغرض
طال
فاتورة
مسرحية
نفيه
##زيد
##فيما
##وال
أعطى
اعلى
الإرهابيين
الايراني
التصاميم
السرير
العقبة
المعاملات
الياباني
بأمر
بالعديد
حفر
دلالة
دورية
سفينة
وتحت
ووسائل
يتخذ
##حتى
أخرجه
ابني
السياح
اللغوية
المحتمل
المواصفات
حملت
معتمدة
وخدمات
##ارات
##ودة
الزاوية
الفقيه
اللحوم
تتغير
رحيل
لبيع
مرتفعة
##بيل
##ظم
##لهم
أبحاث
الأسلوب
الايرانية
الجلوتين
العنصرية
تعليقات
حمدان
والصور
يتوفر
ينتمي
يومية
##زين
آيفون
الحربية
المراهقة
بنهاية
زيدان
سماع
فعالة
وشركة
وصيانة
##شاهد
##مير
##نغ
إياه
اسلاميه
الآداب
المنصورة
باكستان
تفرض
لطيفة
لكننا
هذين
يسجل
##زج
##وإذا
##واضاف
أشبه
استطاعت
الحافظ
المعالم
دنيا
فريجيدير
للدول
نارية
وبهذا
الأبعاد
الجدار
القتلى
المحطة
المخ
الناتجة
بالخبر
فشلت
نادرة
هزيمة
يتمثل
يجعلها
##ؤهم
##روا
التعبئة
الخطط
السليم
المتقدم
المحدد
المفروض
النباتات
تسمية
عقل
لفظ
والحمد
وحل
##ثا
##يمة
أكن
الاسرة
الحرارية
السجل
اله
تركية
جسد
فائقة
مريض
أليس
الاعلان
المصرفية
النهر
الوزارات
بضع
حكما
دينه
ذكرنا
ساهمت
طبخ
مونديال
نبيه
نوعه
##حث
البرد
الفحص
ايديال
صورا
للتعاون
الانتاج
الرائد
العادات
بالغ
بقايا
تحديات
ضربات
ضعيف
ضيوف
كربلا
لإنتاج
لتنظيف
مستقبلا
نظيف
وترك
##بق
##بيان
الطبخ
المتابعة
المطالب
الموجهة
تأهيل
ذكرها
سبحان
كارثة
ممثلي
السويد
المطر
المطلق
الملكة
بحقوق
بشرية
للخروج
للمنتدى
ميديا
وأحيانا
وارتفاع
ومجموعة
أنقرة
اجتماعي
الأكل
التكلفة
التوبة
حلف
صواريخ
نصب
وأهل
##ئا
أخضر
الامير
الفنى
المستهلك
ايبرنا
تطل
عشاق
يجعله
##ترك
أخيه
اريد
التبادل
الظهور
النحاس
بمساعدة
بواقع
فإنك
مسلحة
مهاجم
نسمع
##اعة
##قوم
إسرائيلية
الأشجار
الحديدية
الهادي
تعامل
للخدمات
نقلا
ودعا
وقامت
يضاف
أسرار
التحقق
التقدير
الراهنة
الشريط
الغنية
المتوفرة
المرشح
ايجاد
بست
تسهيل
خميس
سرعان
قولهم
ليلى
يورك
##ريد
##غو
##ورغم
الشفا
الصوتيات
الكمية
عسير
لأنك
والتكنولوجيا
##اث
##تف
##طور
##فور
الاستعمار
البطاقة
الشروق
المتحف
النصائح
تزداد
تقريرا
دايو
قدمها
مسئولية
وطريقة
##وث
##وقف
الآلات
الجنين
الحرف
اللطيف
المتحركة
تظل
تقدمت
زوار
واجبات
##انت
البصل
الزفاف
السادة
الغاية
اليونان
بحيرة
بلغة
تجاري
تحظى
لاستقبال
نشرته
نظمت
وأفضل
وصفات
##أي
##اللهم
##ستان
##ضل
##فرد
##ونقلت
##يدي
أطبا
الأشكال
الإذاعة
الديوان
المري
تدفق
قوائم
نادى
##شكل
احداث
الحسيني
الحشد
بإنشا
بحوث
تأجير
تحية
دوليا
قصائد
كردستان
نايف
والدفاع
وقطع
يراه
##شارك
##فن
أحزاب
التصنيع
السيف
تقدمه
جديده
خطرا
والسعودية
والشعب
ومدى
##ندي
أرباح
الآسيوية
النيران
امكانية
تغريدة
فتنة
فهمي
مخرج
وقوة
وكأنها
ولبنان
الأنصار
البعثة
التقديم
العمارة
طفلك
لإسرائيل
يدعون
##طين
اكتشف
الإجتماعية
الذكور
القصف
المئات
حكاية
فوزه
قومه
مهنة
##دف
##زق
الرحم
طباعة
عقيدة
فلاديمير
نعيم
والاتحاد
يقلل
يوفنتوس
أجمع
أدلة
أغاني
الائتلاف
الاستجابة
التفاعل
النبوة
بلاغ
تصنع
تميم
عرضها
كيان
مذهب
مواطنين
وأجهزة
وشمال
ووتش
##اره
##زار
##مار
إقرار
الأمازيغية
الخطيرة
تحفة
تركت
شاشات
عربى
قلعة
مجانيا
والمواد
يسيطر
##ابي
##تار
إلكترونية
الافضل
البول
الحضاري
المنتجة
اموال
ملكة
ووزارة
يمتد
التصدي
الخليط
العبارة
شن
قتال
ووفقا
يغير
##حيا
المختار
المشركين
بصدد
جوهر
ديني
سكانها
للثقافة
للطيران
مبكرا
مكتبه
يسقط
##عقد
##ولات
اتخذ
اقوى
الطباعة
العامه
الوجبات
بمثل
خوف
مشروعا
منخفضة
ومما
##حصل
##خلص
ألقى
إلخ
الإماراتية
المسؤولة
المهاجم
باقة
حقيبة
نجاحا
يسأل
يعزز
أميركي
أوجه
التسليم
التمارين
السعي
الطابق
العابدين
الموسيقية
انقلاب
شعرت
كاليفورنيا
لإقامة
والآخر
وضمان
أدناه
اس
الحديقة
السويسري
الشرع
الفقها
المثيرة
المفهوم
بأسلوب
بالضبط
دعما
قومي
معاني
منافسة
نية
##ئات
##وار
##يدة
أكاديمية
الشك
الكفر
المشرق
المصنع
النسائي
بالنظر
بركة
حيوانات
سقطت
لتصل
للاطفال
ماكس
والمالية
وتابع
وجودها
وعي
ينطبق
##سار
استجابة
التقويم
التنظيمية
الدولى
الكفاة
تعقد
توصيل
عملي
للرجال
مؤمن
مساعدات
وصفة
ويقدم
##ارية
##جيل
أخري
اسباب
الأركان
البرمجة
الشقة
العبرية
المنطق
جدار
جذب
حرج
سلطنة
شعرا
شكلت
صدى
قتله
لتعليم
والرئيس
وتبادل
##لام
أربعين
أصدقا
ابراج
الأهل
الحارث
القطار
النطاق
بأفضل
رخصة
شروحات
وإيران
يقدمها
الاقسام
الزهور
القطيف
الناشئة
برفقة
دورين
ضده
فنون
قديما
مئة
مسمى
والمسلمين
وعلا
ولادة
يحضر
اخذ
الأغلبية
السلمية
الصوم
الغني
المتعلق
تجار
شاطئ
شديدا
للكتاب
##افة
##بار
##خذ
##شق
##فصل
##واصل
إل
الكورية
بول
توضيح
حقائق
خمسين
ضخم
قرأ
قيمته
وقفة
##اتك
##ثانيا
##شم
الإمارة
الترفيهية
تشكيلة
لوحات
ومعه
ومكافحة
احتلال
اسلامية
الادارية
الحادية
السماوات
الصادرات
الفرعية
المعاني
المولد
تقرأ
تمثيل
توشيبا
جان
جماعات
صعوبات
عائلته
لحد
للعلوم
والحكومة
وفرنسا
وماذا
أوسع
الاجراات
بتكلفة
تعليمات
فقدت
والعالمية
##جرة
استنادا
الأحمد
انتقلت
تفجير
للحركة
محرم
نزول
نوح
ويا
التسوية
الثوم
الشيعية
تناولت
زمنية
لنشر
مريحة
مهدي
##بال
إجازة
إيمان
استهدف
الطابع
القطن
المتجددة
المخصص
باي
بوجه
تحل
ضحية
للسياحة
لمثل
مادية
محركات
يتناسب
يتولى
يخضع
##رئيس
##سير
الحبل
الخيل
السائق
العقوبة
المحادثات
المطلقة
الهرم
فيروس
لعل
لمجرد
مكانا
والمعلومات
وحيد
يجتمع
يميز
##خت
تلبيس
حاله
حسابك
خلفه
فقام
وخدمة
يتقدم
##روس
##سهم
أخرج
الأرجنتيني
التوجيه
المقررة
سماحة
طيز
عرضا
نضع
وجهت
##طبق
أبى
اتفق
الاحتفاظ
الوجوه
الوصف
تبعا
قلق
للتدريب
ليك
ماهر
متصفح
مدنية
نسوانجي
والتطوير
إعلانات
الجدول
السلبي
الضحية
بريف
روي
فيهما
محفوظة
مكونة
موقعه
هادئة
والناس
##لته
إسطنبول
اعترف
اقتراح
الإسلاميين
الامة
القصير
المخططات
بايت
حسنا
رؤوس
عنيفة
مبروك
متوفرة
يعقد
##فيد
أعرب
السموم
الكتلة
انعقاد
بلس
طابع
علق
فقالوا
قدرته
والمتوسطة
##السلام
##حاول
##حرك
التجديد
الصالحة
المواطنة
انتشرت
بكلمة
جازان
جدية
جماعية
صلاحيات
ضعيفة
ميزان
ناهيك
هديه
وأضافت
والشباب
ولدت
أخطر
الاسد
البنت
التنموية
السد
الشديدة
الفرس
المصاب
المصير
تأكد
كتير
للتأكد
للمنتخب
متحركة
مركزا
مرورا
مسابقات
مصانع
والعدالة
##ايات
##شه
أنور
إليكم
ارسال
اصابة
الرسل
الفراش
المعطيات
بإجرا
بمرض
خلل
عمليا
والصناعة
والعديد
والنصف
يصح
الأعظم
الانتصار
البالغة
البطولات
الخضر
الطاولة
المقاطعة
تامة
تجاوزت
تنشر
أضرار
التراجع
التفاح
الخصم
السيسى
المؤتمرات
بحري
تامر
شريحة
عناوين
فرج
قلبك
للسلام
مديرة
والحصول
##سوق
##عمان
##مها
آبل
أدري
التعليمات
الجوائز
العزل
القابضة
بمديرية
تدهور
تضمنت
تفكر
خضرية
سيراميك
غربية
فرانس
فلسفة
فلماذا
للصف
هارون
وبكل
وزيرا
يحفظ
يكاد
يمنح
##أولا
أود
ابنها
التكاليف
السبيل
بالحق
بشركة
سرير
فعندما
كهربائية
متكامل
وتنظيف
وطنه
##أكل
##ضت
##عظم
##يوس
الاخوان
انتصار
بلقب
تخفيضات
ترفض
يشا
##الرئيسية
##وفى
الإحساس
الإيجابي
الركاب
الكهربائي
المنصب
النصرة
بشرا
بفارق
تيمية
جنوبي
حصيلة
حنا
خام
دفعت
رأيه
عال
والمنظمات
يكمن
##دير
الأربعين
الترمذي
الموظف
اندلاع
ثنائي
جعلها
دياب
عسكريا
للولايات
مازالت
متصل
معارض
موسوعة
هدم
والفنون
يستهدف
يفرض
إدريس
القروض
اللقاات
المفضل
الورد
رسوله
ظاهر
لكى
لمصلحة
مزيدا
مليئة
وتحدث
يضيف
##خير
##صم
اتخذت
استثنا
اقول
الأفريقي
الاسرائيلية
الخسارة
المنكر
الورق
انني
سمح
لغير
محطم
مواجهات
والدراسات
وبخاصة
يستقبل
##تحدث
##دخل
إضاة
إم
الأئمة
الاستعانة
التحدث
الردود
الصعود
الموبايل
اليدوية
اليمنى
بالمعروف
تعويض
حسم
شعارات
شهود
غالب
لقوات
محليا
نخبة
يزداد
##سلم
الخمر
الصداقة
العصبية
الفرع
بالضغط
تعز
سليمة
شاعر
صالحة
للدخول
للعديد
مفاجأة
ممثلا
مواعيد
ناجحة
وبلغ
ودور
ونظام
التوافق
الضخمة
انو
تكاد
توب
حدا
ظبي
مسح
وحزب
وضعية
ومجلس
يجلس
##اتنا
##هان
##ورات
افتتح
الجزر
السريانية
الفئران
الفيسبوك
المبادرات
المصانع
بكثرة
بلادهم
تلقت
جبران
فنان
##بول
##بيا
##طى
أضاف
اربع
الإجمالي
الجهوية
العربيه
تعطيل
خسر
ربح
رمات
شاكر
لبد
ليه
وتركيا
وكشف
ومركز
يمين
##اده
##ثني
##موضوع
##يار
أمنا
الزوجين
السنية
المحلات
بالبحث
برمجة
جنس
ستي
للبلاد
للعلاج
نافع
نشأت
وإما
والتواصل
يواصل
##آن
##سبب
##عهد
الخلف
توضع
دينا
رزق
صديقي
لفت
متفرقة
مزيج
ميلان
والرسوم
##تمر
##عرب
##كز
الإيجار
الاب
الفاضل
القياس
المؤكد
بحوالي
تدعى
تزويد
تسمع
تولي
حتما
عودته
للمملكة
مثالية
مكتوم
هدى
##ووفقا
الأمريكيين
الجدران
الخزانات
الراغبين
الصفقة
اللبن
المبالغ
المبيت
الوزاري
انطلق
بالأمر
تعيد
كاس
كريستيانو
للمسلمين
محاور
والأطفال
وعلم
##تقدم
أرجا
الأبنا
الاحتجاجات
الانسحاب
التربة
التوسع
الموعد
النت
تاريخه
دوا
ضرورية
فاي
لادن
وعمر
ولكني
##ضرب
##وفا
آفاق
استخدمت
المنزلي
بريد
تفضل
حدثني
مد
نحتاج
##جس
##رن
##شط
##ضطر
الاجنبية
القاهره
انما
ديلوكس
طبقات
يسبق
ينص
الارتفاع
الدولارات
الكرامة
المنتفق
اليوتيوب
تاريخها
ستقوم
شعبي
عدو
عرفات
عمري
كمان
لسنوات
وخلق
##اص
##تية
##فذ
احسن
الرشيد
الشهرية
المدونة
تنتشر
رايتس
رصيد
للأنبا
مثبت
مكياج
نهى
وصاحب
وصار
##ايا
##شار
##غى
##مرة
أنهما
الاساسية
التهديد
الرمال
اللواتي
المشروعة
انحا
تارة
داعي
رامي
عقبة
غنية
موقعك
واسعا
والقانون
##ريك
##غم
أحاديث
الإلهية
الفعلي
الهدايا
ايجار
ايه
تدريس
جنبا
طفلا
لتناول
والتدريب
يدرس
##يجب
اكسسوارات
الأعدا
الامتحان
التعاونية
الشابة
الشهور
الصيفية
اللحظات
الهيكل
تقتصر
ديمقراطية
سار
عارف
لشهر
هاتفك
هجوما
والأعمال
وعا
##تري
أنمي
المؤرخ
المرجعية
المعاملة
المكون
المنصوص
تأسست
تخطيط
تنص
حاجز
رجا
صناعية
طلال
لكني
نشطا
يتوجب
يخالف
##حرف
##غني
احتجاجا
اسهم
الأجزا
الأخذ
الجانبية
الكنائس
باربي
تربط
جندي
صاحبها
عرضت
قائما
للحوار
والمشاركة
ومؤسسات
يتبع
##ريس
##عش
##غان
أثبت
إمارة
الإنتاجية
الاتهامات
الاجتماعى
التلفزيونية
الصلبة
العملاقة
المنتشرة
بالخارج
بحد
تقضي
عيني
كثيرون
ماكرون
مستخدم
##ئيات
##قون
الباطل
المسجلين
المعالجة
النهوض
بالمحافظة
تدبير
تسع
طلحة
مثيل
مذهلة
موحد
والعلم
وبقية
##حس
##سكي
##يلات
الفوتوشوب
بديلا
سرا
عثر
عينيه
غان
قادمة
كده
مسؤولة
مي
ينقل
##بني
##حام
أحلى
أقام
إستخدام
الإفراج
السطح
العشرة
اليرموك
بتشكيل
بطرس
تصلح
حادة
شراكة
شعوب
فأن
للاجئين
مطالبة
معتصمون
مكانها
نموذجا
يحملون
##طرة
##فيه
##قرر
##كذلك
##وبي
ارتكاب
الروضة
العباد
المواهب
اهتماما
عينه
لتغيير
لمركز
متميز
نفوس
واصل
والجمال
##زور
##قط
##نان
الإنفاق
الانضمام
الدراجات
العنصر
المعالج
المهنة
زفاف
سمي
لرئاسة
متعدد
وذكرت
##ثي
##مم
الاسباني
سلمة
صراحة
ضرر
عبدالفتاح
كعب
مسؤولون
مصرف
##خن
##دام
##ظة
السيادة
الصوفية
الضارة
العميق
باك
تتحرك
خارجي
خصيصا
ديل
صافي
عاجلة
فضائية
فهى
كورة
لأنني
منطق
هدفه
ورفض
وكلما
يشغل
##رنا
##ظف
أزرق
ارتفاعا
اعلم
افراد
الإرادة
الانتما
البسيط
الجهل
القبر
المصنعة
بالطريقة
جراحة
حية
وأصحاب
وذات
ومراكز
##تعتبر
استقلال
السحب
الكفار
اليقين
برقم
تعلق
رجع
صف
غرفه
فعليا
والصلاة
ولكننا
ويب
يقرر
يوجه
##بعة
##تدى
##قلت
إيه
الاكشن
البوست
الفرات
المحامين
المسمى
الورقة
انسان
ساحل
شهري
صوته
قضائية
مبكر
مدينتي
والدته
وجب
ووقف
##بلغ
##حيل
##ذه
أعلام
الأضرار
التهاني
الجمارك
العصبي
المبعوث
المجد
الوحي
الوطنى
بأهمية
بنو
تجميع
تعتقد
تقيم
سلة
صينية
قبر
والإسلامية
يشترط
##رفع
##مكن
الريح
الشجرة
بمساحة
تركيز
تعليميه
تمديد
سجون
سداد
عملهم
قبلها
لقائه
مفاتيح
يدعي
##أخذ
##شير
##ويل
الإستراتيجية
الانتفاضة
الانتهاكات
الجاهلية
القصور
ايجي
شخصي
علمه
علية
مغربي
والمياه
واليمن
##أخبار
##يئة
اروع
الاحداث
الاردنية
الاكثر
البصري
التخرج
الحامل
الديون
الضيوف
المرمى
المكسيك
الهزيمة
الولد
قاضي
لصحيفة
نتمنى
يزور
يستفيد
##طهر
##عدد
##كمل
ادميرال
الأساليب
الأضحى
الاحتياطي
البحريني
البرمجيات
الرأسمالية
الشرب
المحور
المطلب
جانبها
حيز
درويش
رضوان
ضروري
والاقتصاد
والسبب
وتقع
وصوله
يتعامل
##ئين
استثنائية
الأفعال
الأمامية
الحملات
الصعوبات
العقاب
القائمين
اللائحة
الليزك
امين
ترخيص
ثروة
محلي
مظهر
نفذت
يصيب
يظن
##بث
##شاب
##لعبة
##هار
أزيا
استئناف
استخراج
استشهاد
الأرواح
الاخرين
التوقيت
الغوطة
القاتل
المعلومة
اية
تتعامل
تختار
تصدير
تصفية
تعديلات
جرام
خطبة
ضمنها
غادر
لأماكن
لتر
مطاعم
نهار
يتحرك
##بنا
##غلق
##ليا
الأوامر
التضخم
التنفس
الحلويات
الزائد
الظلام
القصيم
النهج
بمنبر
تؤمن
ثلث
عله
مغربية
هولندا
##ذج
##صق
##ضوا
##عني
أسر
الطائفة
العطر
الفك
المرصد
المسافرين
النخيل
تثير
جدران
دوائر
عقار
فاذا
نال
يبين
##فير
إسلام
ارتباط
الإنجاز
الاخ
الشريك
بالفيديو
تعادل
رفيع
صمت
مفاهيم
وقلت
ومخرج
يصنع
##تحميل
##تقبل
##عادة
أقوال
الامراض
الجغرافية
الشياطين
الطبقات
الفائز
الفروع
الميدانية
ثقافيه
جاهز
ذاتية
صفا
لقوله
للإسلام
مولود
نائبا
وأصيب
والسياحة
يستطيعون
##أل
##بقى
##يمكنك
أسفرت
أعمالها
الأهلى
الثابتة
العماني
الفائزين
المقارنة
النخبة
تقوية
خصم
دراسته
راجع
صعد
غنى
وأبي
##قتل
##يفة
أميركية
الأكراد
الاحلام
البحار
التغييرات
الستائر
الفوري
المقاتلين
جسده
سعيدة
لصناعة
وأكدت
وال
##طن
ادا
التفتيش
الحدائق
الدولتين
تغطي
خارطة
سودانيزأونلاين
غيار
ككل
لأني
لقطاع
لهؤلا
ملكا
والمناطق
وجنوب
##سد
##قن
##ومات
أدخل
الازمة
الاسود
الطالبات
العذاب
المعني
بهدفين
زرع
عجلة
مخاوف
نوفر
وجوب
##رتها
##سوف
اشخاص
الاحترام
الاهلي
التصعيد
التنقل
الجوار
الشقيقة
المخيم
المنتدي
ترجع
ثلاثية
طحن
وشارك
وعضو
ويرى
يأكل
##حرص
استبدال
الإجرا
الاقتراع
القبيلة
بلال
تراه
صحيحا
عنف
كريمة
والاتصالات
والتاريخ
وجمع
##جمل
الاوروبي
القلم
الليزر
المباركة
بنادي
تحريك
توصيات
جاك
حائل
سعادته
شهرة
صغيرا
لؤي
واقعية
والسياسي
وسجل
يختار
يعتقدون
ينجح
##ادى
##حذر
الاقل
البعيد
التخلي
الجوع
الشهادات
بيتك
حسنة
خصوصية
رأت
ساخن
كاف
لتسهيل
مقدمتها
وأحد
وجبات
وحمام
##اكم
أساسيا
البروتين
المرات
المعسكر
انجاز
دمج
روعة
ساعتين
شاطر
عموم
عهده
قداسته
نسبته
يبق
##ؤول
##جيب
##دعا
##عبر
##ومي
##يض
إيجابي
اجتمع
استلام
الأساتذة
البكالوريوس
السبعة
المعيشة
المقطع
المنعم
الهجري
امن
بورسعيد
للحديث
معبر
والنقل
ويعود
##نوع
إضغط
الجالية
الراوي
العقول
الفواكه
الكليات
الورشة
انترنت
حسابها
خاتم
عظيما
لإنها
وتوزيع
##عتبر
##وعة
أوامر
ابنته
الانتقالية
الذنوب
الشعار
العاطفية
الموحد
اليونانية
بتغيير
شهيد
مساحتها
مصمم
مضمون
موجهة
ودفع
وشرا
##شع
##طيب
أذكر
أظن
ارتدا
الاميركي
السلسلة
العملي
الم
المسئولين
بدولة
تاريخيا
حقوقهم
للتعرف
موبايل
والإفطار
وخرج
##تمع
##شعر
##لله
آلام
الإشراف
التغير
الجريدة
جماعي
حصر
حضوركسجلي
رحم
صعود
قاتل
قطب
معاليه
والمعرفة
يصف
##جميع
##خوض
##شك
إلكتروني
الاعتقاد
البرتغال
البق
التنوع
العفيف
الكلاب
النشاطات
بالمشاركة
ثالثة
جانبا
خفيف
خوض
لتجنب
ننسى
يحظى
##ئق
##ظاهر
الترويج
الجد
الجلالة
السليمة
القرآنية
القنصلية
المحليين
المركبة
المعدل
ترتفع
جدي
شركا
مرتبط
والصين
وظل
##تعرف
##داد
اخري
الأرز
الحزبية
السواحل
الشاهد
الشركا
الفعالة
الفلك
الميليشيات
بالقطيف
ببنا
دل
قاد
لفتح
مرتبة
مسؤولي
والتعامل
وكلا
يولد
##دنا
##زون
##يتين
الأيمن
البصرية
الحوض
الراعي
الطفلة
الفتن
الفيوم
تنجح
جولات
سلوى
شيئ
صدقة
لأدا
لتتمكن
لجهة
للغة
مباحث
محاسبة
نجمة
وبالفعل
وفا
يقام
يملكون
##وره
##يكي
أرجو
أسهل
اشتباكات
اقتصاديا
اكتب
الخصائص
العسكريين
العطور
بمستوى
زعما
شباك
فذلك
والبيئة
والقيام
يسلم
##طع
##قدر
##نوا
الاحزاب
الاردني
التهديدات
الديموقراطية
الصلح
المؤقتة
بإدارة
بثلاثة
تسببت
زهرة
لمنطقة
هدا
وأنهم
##زف
##غن
اتهام
الأكاديمي
الاراضي
البري
الحذر
الموحدة
بعناية
رضى
ساعد
سواتر
فيديوهات
كازينو
والأجهزة
##شو
إشارات
الباردة
الروحي
الصفوف
القصوى
الكنيست
المجاهدين
الناخبين
النسيج
الواجهة
حبة
مسائل
والحديث
وصناعة
##سام
##شيد
الدستوري
الفاكهة
الفعلية
الواجبات
انتهاكات
بت
بلجيكا
تطرح
ثنا
حان
حكمه
ذمة
رائعا
قدموا
منازلهم
يتصل
يهود
##امي
##ختار
أوساط
البغدادي
الداعية
خلية
صالون
عراقي
للخطر
للرجل
ماله
مزايا
وأول
يؤدى
##راد
إدراك
التسامح
الثابت
الدكتوراه
الروحاني
تتحمل
تجميل
تداعيات
تغذية
حروف
سكاي
طالبت
كأنها
والبعض
وغالبا
وها
يحاولون
يفسر
##يتش
آخرها
أدب
الأجر
الاعلامي
المحترفين
الهدو
تغييرات
تفاهم
عراقية
عمه
لحين
للتجارة
مالا
والطاقة
وعاد
##كشفت
##وحسب
اعتمد
الأتراك
الاغاني
البيتزا
الدبلوماسي
الرزق
المعاناة
المميزات
تشخيص
تعدد
تعنى
خدماتها
صفحته
كيلومترا
للاتصالات
##بانا
##بنى
##صير
اثنان
الأولاد
الجمركية
العملاق
النفوذ
ترسل
حكيم
رأينا
عباده
كيم
للتربية
للطفل
للقا
والخاصة
وحركة
يستعمل
يعترف
##كار
##لقى
أجرى
أشعة
الإبل
الباطن
التقاط
المرسوم
الوسيلة
بتحقيق
بتطوير
تراجعت
تمييز
جيجا
رحب
صبغة
صلاحية
##صال
##غب
##فك
##فيل
##وفة
اغلب
اقامة
الأعوام
الانفجار
التشريع
العبارات
الكندي
المخالفة
المولى
بالحياة
تتسبب
تدرس
تدشين
تساعدك
تسهم
توقفت
فوري
مقبرة
موقفه
نذكر
والتكوين
وجهك
وشركات
##قوله
##نع
اعلنت
الثورات
الغالي
المفروضة
انضم
تبديل
تتناول
تكلم
رفيق
روسية
طلبا
مبادرات
موضة
وأمر
واضاف
والفنية
يربط
يسهم
##اوية
##تيك
##عار
استثمارات
البلاستيك
الرومانسية
السبل
الكوفة
المنصة
اليك
بالتزامن
بالمركز
جهاد
حماد
دى
طور
للفوز
معالج
##تعمل
##منذ
الجاد
الربط
الشريفة
القيود
تجاهل
تعالي
جاد
حزمة
طلعت
للمشروع
والما
يحول
أصاب
اتهامات
الجنسيات
الصداع
بحياة
ثانوية
كرامة
للوطن
وصفها
ومنطقة
يليق
ينطلق
إتمام
اتفاقيات
اشكال
الأرصاد
الزمنية
الصفة
المائدة
بأقل
بتطبيق
بحالة
سنوي
طاهر
فلقد
للمساعدة
ملوك
مندوب
نبينا
والعلاقات
##باد
##تخرج
##حور
##سخ
##شح
##هين
الجناح
الشرح
المثالي
بروح
بضم
بنود
لأغراض
لطلاب
مذكرات
وزوجته
وكافة
##وجة
أحدكم
أحوال
الإله
الحدودية
الصحافي
المؤقت
المتطورة
المكاتب
المولود
المينا
تتابع
ومدينة
يهودا
##حنا
##حو
##فو
الاجتماعات
البارد
الخلل
المزايا
الملاحظات
بارتفاع
بالنفس
خاطئة
لشخص
لغاية
معمر
منصات
نزع
يفقد
##أضاف
##ربة
##واعتبر
أنظر
الثلاثي
العطلات
العماد
العمانية
المطروحة
الوزارية
فخر
كلينتون
لاستخدام
لطلب
للكبار
منزلية
هاما
##ثبت
##حقق
##صاب
أدرك
ادوات
الآخرون
الأخوة
الإعدام
البلديات
الروحية
السياسى
الغدا
المراجعة
بحي
جهل
لقضا
متتالية
معاهدة
والمساواة
يطلع
##ذيب
##قود
##نب
النوعية
تذكرة
تقطيع
شكوى
صوب
قرون
كيلومتر
لبس
لرؤية
لليوم
ليموزين
نسعى
وافقت
والمرأة
والنظام
يفوق
##تاج
##كير
احتمالات
اقتراب
الإخوة
العاص
الكائنات
المجاني
بأول
بوكس
جذور
حضارة
ظلم
عربيا
فرضت
للاعبين
لوس
والإمارات
وجات
##خلال
##زيا
##شغل
##ضعف
##فوا
##لاند
##ندا
##ودي
##وله
أعمالهم
اسبوع
السمنة
النقص
بايرن
تستعد
جلد
ختم
دليلا
عرفة
قيود
للكمبيوتر
مستشفيات
يلجأ
##تاح
##ثال
##طق
##لل
##هية
##يما
اربعة
اقسام
الأنصاري
الاستفتا
الشائعة
العزة
بالكثير
بلدنا
ثماني
حروب
شرم
عميقة
فتاوى
للتحقيق
والشرطة
وصلوا
يتفق
##خفض
##دس
##سرة
##فرة
##وض
الرئيسة
الضرورة
المشاركون
بعقد
تاج
تاريخي
حاد
مجموعه
مركب
وحصل
وحيث
وش
##تخدم
أجر
اختفا
الإعاقة
التمر
التنافس
الكاتبة
المبكرة
تصيب
حكام
روضة
سيقوم
قصور
لدخول
وتركيب
وين
يتواجد
يخلق
يشعرون
يعالج
##فاق
##لع
##هرة
##ينه
أثارت
التدريبات
الخلفي
الفراعنة
الكافية
المتطرف
المرجع
الواسع
اليسرى
بتصميم
تشبع
توصلت
ثقيلة
جاني
خلافا
رأسهم
ركلة
صحافي
قوته
نشاطات
وإنشا
يديك
##ؤنا
##وجات
أهلا
إصابات
ابحث
اقتحام
الاشيا
التخصص
الحجاز
الكراهية
النجف
الوظيفي
بمجموعة
بوقف
تراث
توليد
حاصل
سافر
صحرا
طالت
والنزل
وباقي
وقوات
ويؤكد
##لنا
##ودعا
##ونية
##يتم
ارجو
الآلية
الأطلسي
الأنف
السينمائية
الفرن
النية
اليدين
بتسجيل
جزئيا
حلوة
علميا
لقي
لهيئة
مثلها
مزرعة
ممثلين
##تبع
##عث
##كتشف
##ليت
أبلغ
التعدين
الطراز
الكلوي
المتعلم
المصنف
المكلفة
بتحديد
بصيغة
بطول
تنتقل
جهنم
حساسية
سلك
سينما
لتطبيق
نبات
وتيرة
ودود
ولله
##غيب
أخبر
الألباني
الابتكار
الحسنة
الزملا
العائلية
المتطرفة
المشهورة
بدفع
بيني
تحد
سفارة
سنا
شهدتها
كذب
لقانون
لكان
يونيفرسال
##طرح
##وحول
##يحة
أحادية
اساس
اعتراف
الاصلاح
التخزين
الحلال
الرؤيه
الصراعات
المأكولات
المؤهلة
النزاعات
تقويم
قرض
للمستخدمين
للمنطقة
لنادي
مشابهة
معادلة
منهن
والدولة
وتحمل
وجرح
ومثل
يوضع
##أحمد
اعتدا
الأدوار
الأقدام
السهم
الوالدين
تفهم
تقود
ذكي
زب
سميت
سنترال
طاعة
لعقد
مرافق
مسيرته
ميت
والدي
وقفت
يصدق
##انى
##بري
##حسب
##صالح
##وخلال
##ونج
إنجلترا
الأرجنتين
الساخنة
تسجل
توافر
شدد
صلب
غوغل
لبنانية
موديلات
يحتمل
ينفع
##مسلسل
الإعدادية
الباقي
الجدير
السعرات
الصليب
العريضة
الفيديوهات
الكالسيوم
النمسا
الهوائية
برغم
بعمليات
تتجه
رواتب
لأبي
لافتة
منفذ
والعشرون
وتشغيل
##أول
##بينما
##قرب
أكتب
أمان
اجراات
السموات
العلمانية
العينين
الفلسفي
الكتل
الكمال
المساحات
تبعد
تذاكر
تعزز
خلدون
راية
سأل
للسيطرة
معتمد
والتقدير
والدعم
يعرفه
##تعلم
##جتمع
##نز
الجغرافيا
الحساسية
الحليم
المتبقية
بإضافة
تأشيرة
تتناسب
تحافظ
تنفذ
رائدة
صعبا
عناية
فضيحة
لخوض
للمؤسسات
مثالا
مركبات
والسياسة
والمعدات
وبارك
يترتب
يمثلون
ينتقل
يوافق
##اغ
##بتها
##تات
##جاب
##جعل
##حصر
##دك
##يال
الحزام
السويدا
المتخصصين
بصحة
ثلاثا
راديو
فيكم
لاحظ
نهائيات
واحترام
وسلامة
وقلة
يساعدك
##تهما
##زيل
أذن
أغلبية
الإصلاحات
الاستهلاك
الدمار
الظن
المسلح
المصرفي
المظاهرات
الميزة
بالدخول
بالمجان
بى
بيتا
جامعات
جانبية
خانة
شفيق
صوتية
مسئول
والتنسيق
والجيش
والدها
وبيان
ودية
##رور
أجمعين
التشريعي
الرمل
الصواب
المصرف
المفاصل
النصارى
الوقائع
اليكتريك
تعبئة
سلبي
سمك
فإني
قادرين
لاحظت
لجعل
لجمع
لغرض
للعب
مرسيدس
منظر
وبسبب
##غرب
##قان
أصحابها
إسم
اسبانيا
الاندرويد
الحاصل
الدخان
اللوحة
المهن
تعرضه
توبيكات
رياضي
شعرية
شفا
عسل
فصول
فماذا
قتيلا
للنفط
مثير
مفصلة
مقعد
وأهم
وإسرائيل
واتس
واحة
والبنا
والتغليف
والمنطقة
ويظهر
يقدمه
ينبع
ينشر
##برة
##صت
##صون
##يص
اسود
الطرقات
الكربون
المسئولية
المفاتيح
الولا
بالعودة
خلفا
صدارة
لهن
ماكينة
مدافع
مركبة
واستمر
وبالطبع
وحول
وقائع
يفعله
##قار
##نقل
إدارية
استشهد
الباشا
الحظر
المرورية
المستعملة
النقابات
تحصيل
سباحة
فون
مصرع
واتخاذ
والحرية
وتدمير
وصلنا
ويرلبول
ينظم
##وتم
##ويد
أسرته
أعمارهم
إبان
اكتشفت
الاتحادي
التصفيات
الغريبة
المتمثلة
بفوز
تقليص
حسان
حيوية
شئون
غني
للعبة
محضر
مضت
منوعات
والا
وبه
وجدوا
وضرورة
##تقد
اسرع
الاموال
الزيوت
السني
بالسعودية
بتناول
بدت
بر
تتردد
حضرة
رابعة
سور
للخبر
معقولة
مكافأة
مناسبات
نقلها
ويبلغ
يحسن
##تع
##قق
الآليات
الإسرائيليين
الاسواق
العموم
القرض
المهتمين
المواجهات
بيوم
حمرا
دمياط
قاسية
للنظر
والنشر
وبها
وسرعة
يرتفع
الأسابيع
الأقتصادي
الأندلس
التوعية
الجنسين
الحضارات
الخاصه
الضمير
الفاخرة
الفاعل
توجيهات
حكومي
طيور
عدمه
لكنني
محبي
مطالبا
موديل
والاستثمار
ويوم
يرسل
##زاد
أوضحت
الانفصال
التلوث
المسلحين
المناعة
بانوراما
توقيف
ذر
ذنب
شخصيته
شقيق
غينيا
لقناة
مصطفي
نزار
والإدارة
والحكم
يام
يومها
##إلا
##سق
##فس
##هه
الأجل
الأطباق
الاتهام
الحائط
العلاجات
الفلل
تعاملات
ثالثا
دعوات
قتلى
لمختلف
مقبول
وبحضور
ولابد
يصير
##اذا
##حان
##رر
##روب
##يبي
##يشار
الإدارات
الجنيه
الزميل
الكوميديا
المقيم
اهداف
بركات
تنتمي
جادة
جمعيات
شابة
شهاب
غارات
فكرية
للجمعية
نظري
والتخطيط
والزراعة
وتصميم
ودخل
##تناول
##درس
##ذب
##زول
##محام
الاستئناف
الاماكن
الاولي
الترجي
التركيب
الجولان
الفلسطينيون
بأنك
سلمية
سيدات
للبيئة
مزارع
مولاي
نقدية
وإقامة
##ليات
##وهي
أقر
اتمنى
استقالة
الأشعة
التدابير
التشريعات
الدعاية
المستجدات
النبى
ايفون
باسمه
بدعوة
بكرة
تحرص
تسقط
زكاة
ضيفه
عدل
فرنسية
قطار
لأجهزة
لتشغيل
لسنا
للوقوف
مجرى
مقربة
وعنوان
ويصبح
##أكدت
##عاش
##منتديات
احتفال
الأولمبية
الاتفاقيات
الاطراف
الطائفي
الطلق
الكأس
المثير
اليمنيين
تطبيقها
خليجية
ذهاب
شعبه
فجا
قضت
لأصحاب
لتشكيل
والدين
والعودة
يتضح
##برامج
##بور
##ركز
##كرة
##واب
##يتك
##يره
إنني
ابريل
التوزيع
الشرك
الفرج
المرجح
المشتبه
انتهاك
تشهدها
توقيت
خادمه
شمل
طقس
عملك
كبر
لبطولة
لنيل
مسبوقة
هدفها
هيومن
واعتبر
يتردد
يستغرق
##آية
##ضه
##فرق
أبنائها
البطارية
الكائن
النسب
النماذج
انسحاب
تتحقق
شرع
عبرت
كجز
لتحميل
لدفع
للتعبير
للصحافة
مجمل
نفهم
وإنها
واختيار
والإبداع
وذهب
وضوح
##أم
##دود
##ركة
##غنى
أرسلت
التأهل
الصراصير
القمع
المرشد
المصطفى
بطبيعة
بلده
تأثيرا
تستعمل
تنفيذه
توفل
عملة
ممارسات
هائل
هرمون
يحافظ
ينال
##ديا
##سمع
##طعم
##وير
الأحلام
الاسهم
الصدق
العلاجية
الفيفا
المثقفين
الهائل
انخفض
بالقرآن
بدراسة
بقانون
تراكم
جرير
حنان
دفن
ربيعة
غرفتين
نيجيريا
يتابع
##بلة
##لول
##وسة
##ويا
الأحذية
الأمهات
التراثية
التفاهم
السعوديه
الظواهر
المخالفات
الملاك
الويندوز
امتلاك
براة
بلوغ
تحيط
تدريبات
حصرية
طيار
عملنا
للمحافظة
للهيئة
مراكش
معقدة
والقدرة
والكهربا
##ائب
##ثلة
##حكي
##حوا
الدهنية
الشفافية
الضحك
الكتروني
المشار
الندا
الهوى
الودية
اليكم
انقر
تأخير
جيمس
فرحة
للعودة
مجتمعنا
معظمها
والأردن
ومواقع
##ثق
##وخ
أبعاد
أتت
الجندي
المدافع
المشاهدة
المغتربين
الناجحة
الناقلة
باختيار
بالإنجليزية
تسريع
تسليك
حكمة
شئت
شنو
صحف
صوتا
عصابة
كليات
للاتصال
مضادة
هالة
هبوط
والشرق
والقوانين
##ؤكد
##رغم
##سال
##قش
الأصغر
الأوعية
الاتجاهات
الرخام
العامين
المقاعد
الناجمة
الهضم
اولى
تحوي
صاروخ
صديقه
فوتوشوب
قلوبنا
ليال
معلومة
مكاسب
نأمل
##افر
##اهد
##صى
##وصل
##يعتبر
##يي
أوكرانيا
أينما
البلاغ
المتكررة
المعادلة
الهدى
حجمها
شرعي
عيش
لكأس
متطورة
مختار
مقومات
منفصلة
نفط
هوا
وغيرهما
##ثمر
##ضات
##ضخ
##فها
اختلف
استطلاع
الاطلاق
الجنائي
الدوليين
العمرية
الفرسان
الكرسي
المبدأ
المعرفي
بالعالم
تصويره
تنشيط
خديجة
رفضه
سألت
مراسم
وأنتم
وبينما
وفرض
##ائم
##اخ
##عطي
##مور
أئمة
إسلامي
الإضاة
الثمانية
الدرجات
الفاعلة
الهبوط
بأننا
تلف
تلو
جواد
حمض
سويا
لخدمات
للثورة
لممارسة
ليبرمان
نفذ
وأم
ومعلومات
ويبقى
يصب
##بالنسبة
##جني
##ريب
##كال
الإرشاد
التطبيقية
الثلاثين
الطوائف
المضافة
المقامة
بالأمس
تسريحات
جاسم
عاليا
عملائنا
قانونا
لتلبية
للموقع
وبالنسبة
وطالب
يضر
##جلة
##قاد
##كنت
استقالته
الأحرار
الأخلاقية
الألف
الطاهر
العجوز
الغزو
المحطات
بالجامعة
تحدي
جوزيف
حلو
زائر
صورته
طفلة
لاختيار
للنادي
مارك
ماهي
محاضرات
ملاك
وبقي
وضبط
يرغبون
يناسب
##اوة
أصعب
أعد
إسرائيلي
الأخر
القياسية
اندرويد
حكايات
ذهبية
ساخنة
طعم
لإزالة
ماجستير
مصممة
معظمهم
ممتعة
نراه
هبة
هطول
والعرب
والمغرب
ولكي
##بعث
##ترى
##قضي
الترشح
السائدة
القومى
المستحيل
النقدي
ببرنامج
تحتل
تدرك
ثلاجة
حفلات
رسالته
سند
صيام
غسالة
فارق
قالب
موجه
وضعف
يسكن
ينيك
##ايل
##بيه
##تاب
أكواد
أمم
استيعاب
الأنظار
الاف
البيانية
التصريح
التقاعد
الحساسة
الرحاب
السورة
الضابط
الفاتح
الفيتامينات
الماضيين
بشارع
توثيق
حضرموت
ذالك
رومانسية
شاحنة
طالبان
قهوة
مصدرا
مقهى
نووية
والاهتمام
يقطع
يلا
يمشي
##أو
##اخبار
##تابع
##فته
##مركز
##ورية
إي
البند
المبيع
المتواصل
المحاور
المعنيين
بو
تأويل
تتقدم
تتواجد
تدليك
تصاعد
جى
عبوة
كيس
لتأمين
للفنان
مقاول
ملحوظ
وسو
ونحو
##تيه
##حفظ
##سجل
##طير
##كبر
##كور
ألبوم
اضرار
الألياف
الترخيص
اللغوي
الممتدة
بتنظيف
بكري
تتوقع
تحفيز
حبيبي
خرائط
دراما
ذكية
عاصم
قدرتها
للجدل
للشعر
متعلقة
مناهج
وأشارت
والحوار
##برج
##فرج
أرضه
أشاد
أندية
الاعتقال
البطاطس
العدوى
المكتبات
النبات
اليأس
بأسما
باليوم
بقسم
بكين
توازن
خطب
خليط
صيد
طنجة
عطية
لإنقاذ
وتأتي
يمكنني
##ئلة
##اليوم
##ذى
##رث
##صلاح
##فجر
##فلت
أدبية
إياها
التوراة
الجلدية
الزائدة
الكيميا
الموالية
انعدام
بكتابة
رؤيته
سيؤدي
نوبل
والجهات
وشكرا
ويذكر
يتراوح
يحرم
يلتزم
##امل
##سوا
##وغ
##ولى
اتهم
السيناريو
المتصفح
المتقدمين
المصريون
المعارضين
المونديال
النافذة
بكامل
تحفظ
تهريب
تويوتا
جوي
غادة
فقر
لإيجاد
لاند
محامي
مصور
معطيات
والاستفادة
والتخلص
والعمرة
والمحافظة
وتشجيع
##جود
##حتاج
##ريه
##صمت
##ونهم
##ويأتي
أفعال
أناس
إعمار
احتفالات
اضطرابات
الأعشاب
الإعداد
البيئي
التواجد
الصغرى
العادل
الفورية
الكونغرس
المتخصص
المحاكمة
الملاعب
ترسيخ
ترشيح
حاج
حالته
حكومته
رفقة
زكي
عشية
قمر
للمؤتمر
موحدة
والخوف
وتطبيق
ونتيجة
يستخدمون
##سؤال
##شأ
##وند
أمية
إف
الأسير
الاستشارات
الانجليزي
الحزم
الخاطئة
الرامية
العون
الهام
بإرسال
بعضنا
تتولى
تطبق
حزم
غرام
لاستكمال
لجامعة
ورؤسا
##رش
##طريقة
##قلب
##ونيا
أمثلة
الأجسام
البكتيريا
الصنع
المحتل
اولاد
زينة
سيرا
طرحها
لحكومة
لدور
للأشخاص
للجسم
للسفر
مسلمة
معجم
مكتوبة
موضوعات
هاتين
والخروج
يؤمنون
##جوا
##شكرا
##ضيق
##فيلم
اتش
الثوار
الدفعة
الشموع
القوائم
بالجبيل
تفكير
حلت
عمالة
لمحمد
محفوظ
مصنوعة
مصوره
ملح
نقيب
والوصول
وصفت
يفوز
يقوله
##صيانة
##لح
##نشر
إذاعة
الإلهي
التهم
بارد
بمتابعة
تحقيقه
غازي
كتبها
للعراق
مستلزمات
والآخرة
والثالث
وكنا
##تمد
##رفة
##صيب
##عدم
أوروبية
ابادة
الانتخابي
التلميذ
الرقص
الشبابية
العمرانية
الفاتحة
القضائي
المفيدة
بيل
تصب
تهمة
شاهين
شهيدا
طرحت
عاصفة
ملاحظات
هاجر
هجرة
وجها
وحب
وعادة
يارب
##ثنى
##سوس
##قرأ
##كوم
##ناك
الفتاوى
الورقية
امهات
بذور
ترميم
تغيرت
حربا
حقهم
خلافات
درب
رخيصة
شكري
قنبلة
لفترات
للإصابة
مسجلة
مطحنة
والمال
يحتوى
##بوا
##تأمل
##رحلة
##سط
##عكس
##ولوجية
أقوم
أهدافها
إيرادات
الروائي
القيادية
المتوقعة
المجلات
انتشر
بالرباط
بمشروع
تساقط
تناولها
رصيده
علبة
للهجرة
مابين
مضيفة
موجات
موجودا
واحده
والفساد
يأمر
##ؤوا
الإبداعية
الاعلى
الانتشار
الانقسام
التحرر
الرمضانية
الشكاوى
القابلة
القادمين
ترم
تفاعل
ثان
حبه
حقيقيا
حلويات
حى
شارون
عاليه
فاعلية
مؤلف
مديرا
مضاد
نصرة
وأعلن
وألا
وسام
ومناطق
##أثر
##ائن
##بهم
##سلام
##صدق
##صية
##عمر
##غال
##وضع
أسد
أيديهم
الأجور
الدورية
الصفر
اللاتينية
المدخل
المسئول
النامية
الواقعية
بجد
تصفيات
حبا
حنيفة
دعمها
سري
سيناريو
صيدا
غريبا
لاتخاذ
لمباراة
متوفر
مصاب
##باع
##تلك
##جاز
##جرى
إقليمية
اعتبرت
التغلب
التكنولوجية
العولمة
الفارسية
الفعالية
المحاولات
الوسطا
بإمكان
تكفي
ثقافي
دعوته
سنن
شد
صقر
فعليك
كلاهما
لتلقي
لمحاربة
مثالي
منير
ناسا
ناشطون
نسائية
والاقتصادي
والسيطرة
والقرى
والقوات
ولك
ومعدات
ونظرا
ويضيف
##ئته
##صعب
##قطاع
##موت
أسلم
الأسري
الثقافات
الذرية
الكهف
المدربين
المسجلة
امور
انتفاضة
بالخير
بالشعر
بدخول
تحذير
تحريم
تعترف
حازم
حداد
حزام
صناع
فراغ
فرسان
لاعبا
للاستفادة
للمياه
لمراقبة
نتاج
نفى
نوكيا
واللجان
وستكون
##تحضر
##خب
##علا
##فيا
##لذلك
##وفيما
الإنجازات
التمتع
الرؤيا
الرهان
العقبات
المستفيدين
المستهلكين
برابط
بقصد
بمنع
خضر
سهلا
شوقي
عائلات
عشرية
فاعل
لأعضا
لكثير
ملم
والسيد
وحلول
يجيب
يحبون
يستعد
##اقب
##بعض
##طأ
##موا
##وأعلن
أولها
الاساسي
الثور
الخطورة
الشائعات
الطماطم
الكوادر
المغامرة
النقاب
اندلعت
انفصال
جنبلاط
حمدي
خروجه
دراسية
روبرت
زوجتي
سئل
شعره
قلم
لقرار
لقيادة
للدين
مؤقتا
نسأل
يخفى
##آخر
##ئكم
##بير
##جسد
##دب
##عاب
##علق
##ففي
##مته
أولوية
ادم
الأشغال
الأصفر
الحلقات
الصفقات
الضرب
العزا
المستندات
ايلتس
باسيل
برد
ترمب
تسيير
جبس
جدلا
صحافة
عاملا
فاخرة
مبرر
مجاهد
والسلامة
ويضم
##بب
##شت
##قاف
##وسي
استاد
الأمثلة
الأونروا
الاشتراكات
التجسس
التمرين
الحالى
الطعن
العم
المدعي
المسايل
المنتخبات
الموريتانية
بوب
تنبيه
خبز
ذكا
شكره
لبن
لجلب
للكشف
للمطالبة
مؤقتة
مكثفة
والشعر
ومهما
يحتل
##إنه
##ادات
##حافظ
##خدم
##شرح
##صوم
##ميم
##نهم
أوبك
إدراج
الأرجح
الرحيل
الستار
الفقير
بيتزا
تحركات
تلتزم
حاسمة
دامت
روسي
صديقة
عريضة
فله
للإعلان
مطلقة
وبالرغم
وتضم
وحرية
وحفظ
ينتمون
##انتقل
##تلف
##عاني
##عقل
##يزة
أسيوط
التميمي
الحاضرين
الغابات
الفنيطيس
ردة
غسان
فيفا
لتغطية
لتنمية
للتنس
منوعة
والهيئات
وسواتر
وفريق
يكلف
##بيت
##حدد
##سيا
##عمال
##كره
استدعا
التحديد
الجغرافي
الحواجز
بإلغا
تلاميذ
حرصا
خواطر
ركوب
روحه
زعم
سنوية
صوره
كرواتيا
كروم
مسلمين
مشاركتها
وزاد
وسائر
يعرفها
##ؤدي
##زت
##ضحك
##عتها
##لغ
##واني
##ودا
التعويض
الجيوش
الحلقه
الذرة
السوائل
الشبان
الكوري
المكالمات
بالمعنى
خشية
شابا
قراه
لأبنا
لحفظ
لوزير
ليالي
مرتفع
مقرا
والعسكرية
ورجل
يلاحظ
يميل
##أهل
##ترا
##توقف
##حلة
##ساعة
##سها
##فكر
##لوك
أنواعها
إكس
الأممي
الأوائل
الابتعاد
الاسئلة
الحفر
الخريطة
الداعمة
الطاعة
القرون
المشاهير
تقديمها
حافة
خضرا
راتب
سوفت
لجهاز
للطباعة
مقاتلي
نواكشوط
والحب
وبريطانيا
وجدنا
وصاله
##جلس
أقبل
الديار
الري
السكانية
الطيار
الفتوى
القدير
المؤمنون
المانيا
بطارية
دورته
سبعين
سلف
فوزي
قادم
لإعداد
لإيران
للحكم
لنفس
مادي
مفوضية
منسق
يبحثون
يستخدمها
ينعكس
##باس
##تقال
##تهن
##حفل
##شيا
##ظار
##لز
أبدى
أكرم
ادى
استماع
البعيدة
البكا
التشكيلة
التلفاز
التناقض
الجري
الجزائريين
الحقل
الحقوقية
الرموز
السائد
الفعال
المتكاملة
المضي
المعتاد
المكياج
النوبة
الواردات
بأمراض
باطل
جنة
داخلها
ضع
ظن
عدي
عظم
علاقته
فاضل
للشرطة
لينا
موسيقية
نينوى
والشرا
والوطن
وكثير
وممارسة
##صه
##ياتها
##ينغ
أجيال
أمطار
ابتدائي
الأبريا
الأولوية
الاحمد
الانتقادات
الانقاذ
الخزانة
الخضار
الشرط
المراة
المزارع
النمط
برسم
بقليل
تقدما
تكليف
ثمرة
حصان
حقول
خبرات
ربهم
ستائر
عينة
لخلق
للتحميل
مجدي
مجهول
نتج
والخاص
والسفر
وحاول
يتعرضون
##طلاق
##عامل
##قته
##قرة
أدوية
الإمكانيات
الارتقا
الدردشة
السرقة
الشهية
الهاشمي
الوالد
بإسم
بالبخار
بالمرحلة
تأييد
تبرز
جارية
جسمك
جلس
حرس
زهير
عادات
موقفا
نسيت
والقيم
والمعادن
وخارج
يكمل
##أتي
##رهم
##قوى
##وهذه
##يمي
الأمد
الاشتراكية
الحرير
الرزاق
العمود
الكابتن
المليون
المنيا
النطق
الهائلة
بذكر
بيتر
تتسم
تسرب
تقديرا
حضرت
ديلي
زراعية
سناب
عنصرا
قرص
نجران
وتظهر
وفدا
وكتاب
##ئط
##خلط
##فراد
##وبات
أنبوب
الأرضي
الإضافية
الإنجيل
الجدي
المرتفعة
الميزات
تجده
تضرب
جواب
سمحت
سيارته
صانع
صيغ
كتابات
كلف
لاي
لحساب
للعربية
مرتضى
منفصل
موقعا
نبحث
والحد
والديمقراطية
ولاة
يتحدثون
##ئمة
##اول
##وسط
أعمل
البقع
الجذور
السلفية
الصخور
الكارثة
بصراحة
خالص
سياحة
عضلات
كوبا
مارتن
مازن
مشاهده
مطروح
معاذ
مناصب
مهنية
نعود
هدايا
ويزيد
يدافع
##أى
##اله
##رجع
##فخر
##فورد
اسحاق
الافتراضي
الطرح
العميقة
المزارعين
المقربين
المنصرم
الوان
امير
تشغل
تعتزم
حث
حفاظا
دو
عفيف
فيمن
كروت
لأحكام
لبيوت
لجماعة
للأعمال
للمدينة
للمركز
والعنف
وامام
وتكنولوجيا
وصلة
يتعلم
يحتفل
يوقع
##ائه
##عيا
##غه
##فار
ادوار
الاخوة
التمسك
السور
الصالحين
الكلاسيكية
المحتملة
المقاوم
المقترح
الممكنة
بأكمله
باستعمال
بالقدس
تزوج
تهيئة
توماس
حكومات
زميله
شيوعا
لسبب
ليد
مقاتل
موازنة
نظير
هيتاشي
وآل
يختص
##إضافة
##تواصل
##ثالثا
##زوج
##شان
##عليه
##ولين
آر
أضعاف
إجابة
اعطال
الدعوات
الصلوات
القراات
المربع
المقر
المنظم
النقيب
بالاحسا
بسمة
تقديمه
حقها
خاض
شق
طنطا
غاب
كيري
لحق
للحرب
للعاملين
مريح
مضاعفة
مطلعة
منخفض
موقفها
نتائجها
والإرهاب
والطفل
يستند
##بيع
##تيل
##خول
##صحيح
##قض
##مني
اعتمدت
الأعصاب
الأمعا
الاكتئاب
التابعين
التعب
السري
السوفيتي
بالصورة
بانيت
ببطولة
بمستشفى
بيتها
حقن
خاصه
رجيم
زملائه
عاشورا
للفنون
لمحافظة
مسحوق
مطلق
مظلة
مناسبا
والروايات
وخارجها
##ؤمن
##انين
##حالة
##فان
##كلمات
##لقي
##يكية
الاوضاع
الترابي
الشعارات
الطائر
العروبة
العود
الهضمي
بالدرجة
بطولات
بقطع
تحقيقا
حار
صادرات
صلاته
عامه
للإعلام
للقطاع
مصداقية
منظور
مين
نصل
والتقدم
والمنتجات
وتعرف
ودراسة
ورود
يغفر
##ابه
##جأ
##خلاص
##مح
##وتأتي
اجنبية
الإيرادات
الاقتراحات
الشفاه
الصوتي
الظل
العاجل
الغموض
الكوارث
المحافظين
باتخاذ
باختصار
تفكيك
خلاص
دينهم
شاغرة
شوي
عيار
قنديل
كائن
لتسجيل
مستقرة
مقرها
مليونا
مودرن
نظرت
وأعتقد
والبحر
والثقافي
ومواد
يلقي
##آب
##اا
##حفر
##خيم
##راك
##ريق
إيصال
احب
اكل
الخضروات
السمع
القتالية
القمامة
الميداني
تتأثر
تمس
دعاة
رغبته
عالمنا
فازت
لعبت
للمواطن
للموسم
ماركة
نموا
وأوضحت
وإنه
واتساب
يجعلك
##آل
##باح
##تحول
##توفر
##ربما
##مام
أعماق
الألومنيوم
الإجماع
البرج
السيول
الفيصل
القاعة
القرص
الكردي
الكندية
المحاضرات
المذاهب
المسح
المشاهدين
الوقوع
بأكملها
برجك
بفرض
سمعة
عروس
علشان
فنيا
مركزية
مصرى
مقيم
مون
نبض
نشرة
واد
يروي
##اجي
##بدأت
##برا
##قيد
##ياته
أجاب
إبراز
الحلو
الدموع
العديدة
العشق
الغيب
الكم
المدعو
المشهور
المصورة
بالطائف
تاجر
تقلل
ذكريات
سمارت
عزم
فأما
فقيل
فندقية
كاد
للمزيد
للملك
لمؤسسة
مراقبه
منطلق
نونبر
ون
ويقع
يؤخذ
##أمل
##ابع
##اسي
##عمق
##كسي
أروع
ألقاها
أنكم
أولي
الائتمان
الباحة
السطور
المخاوف
المعلمة
المعمارية
الوالي
انتشارا
بنفسها
بينا
ثوب
حلال
قتلت
كلب
للسعودية
مشددة
مقعدا
موضحة
والعلاج
ومسلم
ويستمر
##ئيا
##جاه
##جول
##حار
##ضباط
##قرا
##قصف
##وتقول
##ويمكن
أفق
إقناع
اختارت
استفتا
اضطر
الإسعاف
السويسرية
الفقيرة
اللاتي
اللى
المكونة
الناتو
الوصية
انخفضت
بإحدى
بجنوب
برا
تستغرق
داخليا
شعرك
صريح
صوتي
مخيمات
مهارة
والتصميم
والجماعة
والكتاب
وتبين
يتجه
##افق
##امه
##خطط
##ذلك
##ربية
##طون
##فوق
##لاك
أهلية
إستراتيجية
اكس
الاضطرابات
التشخيص
الشرايين
العائلي
العرق
الموسيقي
النادرة
تأمل
تخطط
تزوير
تطورا
جهدا
حلها
ضربت
عاملة
عربة
للرياضة
مؤقت
مسبوق
مناخ
منهجية
نابلس
نفي
وإزالة
والتربية
وتغيير
وثلاثة
وجرى
يدها
##ارك
##رسالة
##يرات
أجله
ادخل
الأمثال
الأهرام
الانبا
التامة
التحولات
التحية
الخطبة
الكوكب
المعمول
الناقد
تركه
حاجات
شكلا
عبيدة
عديد
كثافة
للذين
للفيلم
مدنيين
معلقة
هدفين
##ايد
##باني
##جير
##سف
##كيد
##هنا
##وكشف
الأميركيين
الارهابية
الختام
الذئاب
الغنم
المختص
المراقبين
المسؤولون
المفكر
بعينه
تستقبل
رجوع
عصابات
لتحويل
لقمة
مختلفا
مظاهرات
مفصل
موته
ميثاق
ميزات
نشرتها
وأثنا
والفكر
ورعاية
وقته
يتلقى
يقترب
يمني
##ئت
##خصص
##قيم
##ليون
استاذ
استشارة
اطباق
الأديب
الأقاليم
الإقتصادية
الافريقي
التليفون
الحداثة
الصيغة
العاهل
المتواجدون
الوقف
بحماية
بشارة
حصري
ذاتي
ساحرة
صفقات
علنا
كلفة
كهربائي
لافروف
لتخفيف
لفائدة
للصحفيين
نحاول
نظره
والأمر
وبعضهم
يراها
يسر
##ؤون
##ائع
##اجه
##دفع
##زمان
##لج
إصابته
استرجاع
استقطاب
الأوساط
الجفاف
الهولندي
الوضعية
بدعوى
تحمي
حج
رشد
شخصين
طعن
فخرج
لتعديل
نيمار
وإذ
والتعبير
والحريات
والغرب
والكرامة
يتعدى
يناقش
##ئون
##شور
##قها
##مك
##ورين
##وهناك
أشغال
ازالة
الأبد
الأردنيين
الاسلامى
الانتخاب
الحاد
الخلاص
الرواتب
السامي
القيس
المتحدثة
النخب
تقليدية
توريد
حاضرة
حرا
دبلوم
رحل
غزوة
كافيا
للوزارة
هيا
والآثار
والخارجية
واللغة
والمرئيات
ومرة
ومعالجة
يركز
يستدعي
##حط
##رعة
##قيت
##ويضيف
أرواح
أساتذة
أمكن
إقرأ
اقدم
الأيسر
المعدن
المعلن
تاني
دافع
دفاعا
رآه
شبرا
شيوخ
صالات
فعن
قالها
لاستعادة
للجامعة
للنشر
ماري
مستعمل
مكعب
نشعر
وتحليل
ومشاركة
ويجوز
##ظن
##عبة
##فاد
##وبا
##وقة
أضيفي
إفطار
احيانا
التنازل
الحجارة
الغالبية
الفلفل
القائل
القبة
المتاجر
الملاحة
الهادفة
بالتحديد
بالنادي
بقرية
تتكلم
تسكن
تصرفات
تصليح
خلقت
داخله
سحق
سعى
ضمانات
عدوان
لسانه
ماريا
مبنية
مجهزة
مم
نعتقد
وإعداد
والدعوة
وبيع
##حكام
##شبه
##طرق
##لاف
##مال
إنجازات
الزمني
السقوط
الفريدة
الكاميرات
المتداولة
النواحي
بارزة
بانها
بلسان
تداولات
تعالج
تهديدا
جاز
جميعهم
رده
زجاج
زوجك
عملاق
فردية
قرنق
كركوك
لصاحب
للطلبة
للقرآن
محمدين
نضال
وتفعيل
ويعرف
يخوض
يهودية
##تكون
##قصر
##ويرى
أقرأ
اسواق
البنزين
الخشبية
الرفض
السهولة
الطازجة
الفضة
القحطاني
المشرفة
المصور
اماكن
برهان
بلدا
تحمله
خطابه
علمنا
غذائي
فخامة
قرعة
كوادر
لطالما
لعمليات
لين
مستعدة
ملي
منتجع
ميدانية
والأدب
وروى
وشروحات
ومنظمة
##تغل
##جئ
##درب
##رقم
##غفر
##نظم
الأفق
الإصابات
الاسكان
البحثية
الجوهري
الخلية
العمومي
الفصول
القطر
القياسي
المراجع
النفقات
بالتفصيل
بالولايات
تطورت
تناوله
توم
حجاج
خليج
ركعتين
فدان
لكونه
للإمام
للجهاز
للزواج
مساجد
مسارات
مطر
ناسفة
نفوذ
نكت
ولكم
وهب
ووصل
##كلم
##وعات
أجراها
اعتمادا
الأسرية
الأمس
الخلفا
الدرك
الضيقة
اللاذقية
الموز
الوارد
الياس
تتكرر
تحقيقات
تريده
تستطع
تموت
جيب
خرجوا
دخوله
قبضة
للمرحلة
مجزرة
معناها
هده
والقتل
والواقع
ولده
##أمر
##بدا
##خان
##صوص
##لوب
##ميا
أعاد
البنى
الثلج
العدا
القسط
المتفق
المتواجدة
المتواجدين
المستقيم
المصحف
المصطلح
بدليل
بمدرسة
سويف
طالبة
عشري
عشق
لمرحلة
ماسنجر
محترف
مخالفات
مرضية
مزدوجة
نرجو
نعرض
وأعمال
والانترنت
والبحوث
والسودان
وتوفر
وسهلا
##حك
##ديه
##صبح
##ليه
##هون
أثاث
أولية
إنذار
اراد
الافتتاح
المنامة
النادى
انتقادات
باحثون
بالمقارنة
بالموضوع
بانتظار
بتوجيه
تحقيقها
تمسك
جعجع
حليب
سيأتي
عاطف
عيليت
ماركس
متل
مجد
ملاعب
مميزا
هوايات
يبعد
يجدون
##دهم
##عال
##فظ
##لعب
##نظر
اشتهر
الإتصال
الالتحاق
التأهيل
التطوعي
المخيمات
المفتاح
الموتى
الوسائط
الوظيفية
بطريق
تخريج
ثلاثي
حفلة
سامح
لوكس
مضاعفات
ناشر
والكتابة
والمملكة
يقودها
ينفذ
##الية
##حرق
##عجب
أمرت
ارضي
استشاري
الأمية
التعاملات
العقرب
القوس
المركب
الموضوعية
باردة
بتوزيع
بيعها
تأثر
ضمت
ظرف
لتقييم
للرد
مبني
مثلث
مسلح
وأشهد
والثروة
والعاب
##أمن
##طية
##غاثة
##ملة
##وظائف
أراضيها
احتجاجات
الأذن
الصحافيين
الكيماوية
المشرفين
المواطنون
النجار
تكثيف
دستورية
روحي
ستعمل
سلمى
عجل
عظمة
عوف
عيب
غربا
للدراسة
للصناعات
ملخص
منال
نبدأ
نورا
والإرشاد
والدة
وتستمر
وخير
وشدد
وطبعا
ولهم
ومعنى
ومكان
##تز
##فف
##لر
##لقا
أموالهم
الحبس
الراتب
الرضاعة
الريفية
الضربة
العنصري
الغطا
المحلل
بأحدث
تأثيرات
تخلو
تنزل
جولدى
زلت
سلمت
طبيعيا
طرحه
غيرك
قياسي
للآخرين
للجمهور
ماركت
مباحثات
موهبة
ندرك
نشأ
نقبل
نلاحظ
والإنسانية
والجامعات
ولفت
##شدد
##وأفاد
أمرنا
أنثى
أنظار
اشارة
الاستبداد
الايطالي
البدع
التشكيل
التغطية
الراقية
القرنية
المائي
المجرمين
المشتركين
الموقعة
بالدور
برنامجا
تنال
شكلها
ضغوط
عرش
عقدة
غانم
للإدارة
للصحة
للصلاة
للفترة
مؤامرة
مان
متابعات
مطابخ
مفتوحا
هاتفية
وأين
والمدارس
وعلاج
ونسا
##البحرين
##راج
##ولوجي
##يخ
اضطراب
الاعتراض
الانتقالات
البرلماني
الثقيل
العاطفي
الفردي
الفيروس
اللفظ
المتابعين
المتبادل
المذكرة
المقاولات
بتحويل
بعودة
تتصل
تفاقم
تمرير
حزن
ديننا
صدمة
صعدة
لجمعية
لقيت
مرسوم
مشغل
مفاجئ
مقاربة
هود
والطرق
ومتى
ووصف
يخلو
##ثنا
##خلف
##دته
##فيت
##قصة
##كسر
##لتها
إمكانيات
اعتقلت
الاعدادية
الاعلامية
الحقول
الساحلية
الشباك
الصدمة
العائد
الفيل
المناظر
الهروب
انفسهم
بجمع
بصفته
بمكان
حصار
غرامة
فقرة
قوالب
للكاتب
مشارك
وتتميز
ولاسيما
وهؤلا
يجعلنا
ينكر
##ئز
##افع
##صيد
##ضبط
##كد
##كف
##وكس
اذهب
الإمساك
التدقيق
الخريجين
الصبح
الفائت
القاسية
المحرق
المحقق
بحل
تدين
جار
حقبة
دعمه
عمود
عميل
قافلة
مداخل
مسؤولا
منبر
منحة
ننتظر
والحركة
والخارج
والوقوف
وبعضها
يدري
##ئتها
##ارا
##انيا
##تلقى
##جاد
##ختم
##شدة
##عروض
##فتي
##قابل
##واج
##واد
أسعد
أصبحوا
أمامها
أمهات
استبعاد
الأمريكى
الإمكان
الاكبر
التعايش
التقليد
الدهر
العلوية
المعادي
النظامية
بالبشرة
بالدولة
بالعين
بكسر
بلاي
تجعله
تدعي
تستند
جهتها
حبس
حزبه
حشد
درج
سفرا
شهادتي
صدره
عمن
فيا
لايف
للألوان
للتغيير
مقبولة
مقرر
ممكنا
مواسم
نانسي
والأمان
والتقاليد
وحكم
وحي
وير
##اعات
##تمكن
##عنا
##مج
##نق
إعجاب
الألفاظ
الشبكية
الفضيل
المبدع
الملا
المنطلق
انتم
انخفاضا
بافضل
بالمواصفات
بقضايا
بقول
بندر
بيوتهم
تدمر
تراب
تقريرها
جانبي
حربية
خشب
درع
دفعه
ربكم
ضوابط
كفاية
مزود
موظفين
والمناسبات
وتمت
وجعلها
وليبيا
ومنظمات
ويحتاج
يقتضي
يومه
##ئذ
##حرج
##شاشة
##ضان
##وأما
##يكون
استراتيجي
اعتقاله
الآب
التقسيم
الجسر
الجلسات
الحوت
الزبائن
الزنا
الطول
الطين
العريقة
الغبار
الفترات
المتمردين
المشير
المعجم
بأدا
بإقامة
تستفيد
تغلب
تفتيش
جراحية
خدمه
ساحات
عبير
لذوي
لمسة
مايك
محتويات
محمول
مولانا
واجتماعية
والمدينة
يخشى
##بض
##تال
##تعامل
##تولى
##جانب
##حزن
##صعد
##ينو
اسرة
الآتي
الأضوا
الأغراض
الاختصاص
الاسلحة
الافكار
التعارف
الخبيثة
الخطير
الصحراوية
الضيافة
العلا
المؤامرة
المستوطنات
المسجل
امراض
بحب
تصريف
تضاف
خطف
صالحا
ملخصات
مواكبة
والاتصال
ولدينا
ونائب
ووجود
ويشمل
##اعي
##جزر
##جهر
##صيف
##عتقال
##فز
##لما
##لماذا
إطلالة
اعلام
البوم
الخواطر
الدقائق
الرشيدة
السويدي
الشاحنات
العيوب
الكرمل
المحل
الواضحة
بإصدار
بتعيين
برئ
تجرى
تخلي
تشويه
تقطع
حينئذ
سنغافورة
سيرفرات
ضعي
غنا
فتحة
قوقل
لقول
مأمون
والأخرى
والإقليمية
والبحرين
وبلا
وعين
يشرف
##اسة
##اشي
##بدل
##ثمن
##درة
##زقة
##زير
##واق
أسألك
أقراص
أنماط
الإناث
الاجتهاد
الالوان
الحدودي
الحيوي
الخريف
السقف
الصمود
العناوين
الغالية
الغدة
الفرنسيين
المترتبة
المخطوطات
المدرجة
المفيد
المكبس
ايها
باقى
بالحصول
بالدوري
بند
بيتي
تبوك
تحققت
جمل
رفحا
صنف
عفرين
للسيد
للنبي
متأخر
ننظر
وحيدا
وقطاع
يمن
يومئذ
##بارك
##خبر
##ظلم
##عقب
##غلاق
##فرح
أهلي
الاصابة
الشئون
الضعيف
الفتى
الوصل
بنغازي
تاب
تسوق
حارة
حجب
طلبه
قلبها
للأندية
للبرميل
ليش
ماديا
متأخرة
والالتزام
وعلوم
يبعث
##جعة
##عو
##غتصاب
##قسام
##نيك
##ولوجيا
أسمع
ارشيف
اكتساب
الأسرار
البطاقات
التقليل
الرمز
العبيد
الغا
الليالي
المجلد
المختصين
المنخفضة
بامتياز
تطهير
جيرمان
حيوان
دش
قوتها
لاجئ
محرر
مسودة
مشهور
معان
وتحويل
ويوفر
يحكي
يحيي
يشرح
##حذف
##ربي
##زى
##كيا
##لفة
##مدينة
أرادوا
استراتيجيات
استراحة
اقرب
الإخلاص
التجريبية
التصرفات
الجراح
الخيري
السجنا
السفلي
الصهاينة
العز
الفجيرة
القماش
انتي
تتعدى
تعرضوا
تعهد
تنشط
توليه
جلالته
حراك
خليجي
خيانة
ذكرته
رئيسيا
رقابة
شيرين
فاتح
فريقا
فيمكن
قراره
متواصلة
مصالحها
معقول
موافق
نبذة
وإطلاق
وتأمين
يحمي
##جنة
##خم
##زواج
##نته
##هود
أرادت
أعوذ
أوتار
إبليس
التفجير
الرومانية
الشهرة
الضخم
الضيق
العصرية
القبلة
القس
الكفاية
المجرم
الميثاق
بابل
بالدين
بالشركة
بالموقع
تحتفل
تحكيم
تطلع
تكرر
حدودها
حراسة
دبلوماسية
زخرفة
سعي
طائلة
عصرنا
عقله
لقوى
للمستخدم
مترو
مستعد
مطلب
ممنوع
منسوب
وأمريكا
والشؤون
وحق
ولديها
يقين
##تحكم
##تسبب
##ثور
##زح
##سعد
##طعن
إبريل
اذن
الإيرانيين
الاستهلاكية
الاصطناعي
الثوب
الخاضعة
الصيفي
الضيف
العسكر
المباحث
المتبادلة
بخط
بديلة
بقراة
تعلمون
حلفا
حمود
حولي
خلاصة
دراية
شيعة
طلع
فتكون
كتابي
للاهتمام
ليونيل
مدعومة
منظم
نهائية
هذي
والإيمان
والتجارية
وبهذه
وصلى
وقدمت
ومواقف
##بالإضافة
##تذكر
##توجه
##جلي
##ذاك
##عصر
أفعل
ألقت
الاستغنا
الاشارة
الاعتصام
الايمان
البروفيسور
التحرش
الجسدية
الشكوى
الغازية
المسرحي
النقود
امتدت
بعضه
بنيت
دفاتر
قدمتها
محتوي
مقالا
منتخبنا
ميليشيات
والتقنية
والقوى
وتجنب
وغياب
وفلسطين
يحرص
##خد
##رقة
##زمة
##عفو
##وتي
##وكم
أحرز
أخبرني
إعلامي
إيمانا
اسئلة
استقر
الأنفاق
الادعا
الترشيح
التعاطي
الثبات
الغيار
القليوبية
المعروضة
المواصلات
الموجه
امتصاص
با
بالحديث
تبنى
تميل
حولك
شون
صادقة
عالما
لرعاية
مفادها
منحت
ميونيخ
والدليل
وراه
وكلها
ونقلت
وهيئة
##سقط
أرضا
أنابيب
إداري
الاسباب
الاصدقا
البرتقال
الطالبة
العزم
الفلاحين
الليغا
المس
المعقدة
الملحق
المناخية
المنوفية
الورود
اليونسكو
بتسليم
بقى
بيك
بينت
تجميد
تشيلسي
توج
داوود
روايته
زيارات
شعيب
عشوائية
فوزا
قبالة
للتحقق
متحركه
مقترح
مقياس
نصيحة
وألمانيا
وإجرا
والقوة
وتناول
ورأى
وكبار
وكثرة
ومشاهدة
ومواجهة
ونسبة
يغطي
##تق
##جمة
##شهر
##غات
##وعندما
استثمارية
اصلا
الحرائق
الشجاعة
العبادات
الغارات
الفارسي
اللوحات
المتوفى
المجتمعي
بالطرق
تنشأ
شوال
عقدها
فرنسي
كثيرين
مبكرة
مسيرات
معربا
مقولة
منوها
نجل
هاوس
وأصحابه
والهند
وتشير
وجمال
وعقد
ويفضل
##تخلص
##حصن
##هور
##ودية
ابتكار
احتجاجية
التخفيف
التردد
التنقيب
التيارات
الجافة
الجراحة
الناعمة
بممارسة
تأكل
حققه
رفح
شمعة
صنعت
لبناني
للأفراد
ماكينات
مضحكة
مضيق
معتدلة
نا
نصت
والأهم
والإصلاح
وقسم
يحوي
يحيط
يصاب
##ألف
##جيد
##ذكرت
##ستخدم
##شوف
##قيل
أشجار
إخلا
اختلفت
اقترح
الأعراف
الجبن
الحضارية
الدراجة
الرسومات
الضريبية
الفلاح
المعرفية
المغلقة
الميلادي
الهيمنة
اليوناني
باع
بوصفه
تساوي
تصدق
تكمل
جهودها
حاضرا
دخلوا
رحاب
سوهاج
عتبة
عدلان
لأفضل
والمرافق
والمشاريع
واما
وتريد
وتعلم
يعقل
##اقي
##اير
##جيم
##حلال
##خالد
##شفة
##طرف
##عرق
##كثر
##ليل
أجلها
أزمات
الأنمي
البترولية
البلاط
التاجر
الحيوانية
الطرفان
المبذولة
المحاولة
النشطا
ايجابية
جنايات
حرمة
حكمت
رمزا
سلفا
فهما
للعلاقات
مجهولة
مدرس
ناتج
هيثم
والابتكار
والمقاومة
يعطى
يكونون
##أنت
##حف
##حمى
##روف
##عتمد
##غلب
##ناهم
أبسط
الأنوار
الابداع
الاستعلام
الاستعمارية
الخزان
الطاقات
العاصفة
المنشورة
بأعلى
بارز
بانتظام
برنامجه
تغيرات
توفرها
جنين
دجلة
ريم
ستقام
شمالا
عيوب
فيمكنك
قوس
قياسية
للأعضا
للأمة
للبنك
متوقع
مشعل
وإخراج
وصحيفة
ولايات
ويترك
##حاسب
##خضع
##خلق
##دني
##زعج
##سور
##شئ
##شهادة
##عجل
##قارب
##قصي
##لوم
##وطالب
##وعي
احيا
الأسفل
الاداري
الاستيلا
الجرحى
الحكاية
الطلابية
المحترف
المستهدفة
المظهر
المعبر
النباتية
الهاشمية
انحراف
بموضوع
تضر
تمتاز
تيسير
خذ
شبيب
ظهره
غروب
قومية
لفهم
لل
للعلم
وأمام
والمراكز
ينام
##تظاهر
##تقى
##حاد
##حسين
##شاعر
##ظاهرة
##غسل
##وهن
أبنائه
الأبراج
الأعلام
الانفتاح
الحصر
الخمسين
الدفاعية
الروماني
الشتوية
الصدارة
الطهارة
الميادين
النعمة
بالمال
تأهل
تشاد
تطرق
ثمار
جرح
خلط
رأيي
رخام
رفيعة
زهران
ستبقى
سعدا
سواه
عب
عداد
عدت
عقول
عوز
قدوم
لانهم
لخطر
لكونها
للاستخدام
مضي
موجي
نيو
هيئات
واقتصادية
والأفكار
والعاملين
وتستخدم
وكسر
ولولا
يطبق
##ائية
##السؤال
##تأهل
##حرز
##شب
##قدة
##نيه
الآلام
التدريبي
التوصيات
الذهنية
الفقيد
الفلسفية
الفيحا
المنح
بأنفسهم
باختلاف
بسام
بوابات
تنفيذا
تنوع
ثيمات
سنان
ضياع
لوجه
لونه
ماليا
مستعملة
مسلحين
ملائمة
مهمته
نشاطا
نيل
والحقيقة
والمواقع
وثلاثين
ونفس
يبيع
##حض
##صادق
##طيع
##ظمة
##وافق
##يتا
أسوان
إكمال
الأصيل
التشكيلية
الحاجات
الحداد
السماوية
الضريبي
العمق
الغلاف
المؤثرة
المثنى
المدعومة
النجاة
بالنظام
بثلاث
بجولة
حددت
سمعنا
شاذة
شاركوا
صب
طوكيو
عزة
كاظم
مؤثرة
مفعول
والتراث
والترفيه
والتفكير
والفن
والفيديو
وتراجع
ويبدأ
يغادر
##اعد
##حاكم
##ذوق
##ليم
أردنا
أطلقها
اسفل
اسمك
الآمنة
الأجرة
الصغر
المحسن
الموريتاني
النزول
خزانة
ريب
ساعه
فيينا
لرجل
لكتاب
لكون
للاقتصاد
للكثير
مؤتمرا
معلوم
ناروتو
والحق
وسنة
ولديه
##انات
##تاد
##دأ
##ذبح
##رير
##غت
##وزير
أضف
إضافي
الأسس
الإعلاميات
الاشراف
التساؤلات
الجاهزة
الزهري
السو
الليرة
المد
المظلات
بالسوق
بداخل
بقدرة
تضيف
تقترب
تنمو
دبليو
سام
سعره
شرعا
ضمير
ضيقة
لرسول
نمر
والأستاذ
والجمع
وبرنامج
يفصل
##تخصص
##متع
##وتين
##وهكذا
أثرت
أقامت
اختياره
الأبرز
الاسترخا
التخلف
الخلابة
الشيخة
الكحول
المرتقب
المزرعة
المنقولة
الموجودين
النوافذ
بإعداد
بكميات
تساؤلات
سائل
سهرة
طريقا
عاشور
لمحاولة
ناقش
وأدوات
والعدل
وبنات
وحكومة
وضرب
ونص
يصلون
ينفي
يوليوز
##ارى
##برى
##حتل
##راب
##سعى
##شرف
أوربا
الأعداد
الأقليات
التمرد
الجبلية
الجرح
الرفيع
الساحلي
الفجوة
القبلية
بدعة
بروتوكول
بساطة
تلوث
تميزت
جاذبية
راقي
زائدة
سبأ
سجلات
عشيرة
لعبه
للعملا
متمنيا
مسلما
مصادرة
مضيفه
منعت
نظاما
نقلة
والنهي
وبات
وتؤكد
وحتي
وعمليات
ويجعل
##حزب
##سحب
##سكين
##شعار
##طيل
##منا
##وزارة
##يرو
##يسي
##يهما
ابنتها
اف
التصدير
الحصان
الحفظ
الخدمية
السند
الصفا
العادلة
الكفاات
المستوطنين
المليشيات
دراجة
رحمته
طائر
عواقب
فربما
قص
لايمكن
مزاد
مشاهير
واستمرت
والتحكم
والسلطة
وشك
وقطر
ويحتوي
وينبغي
ياد
يزعم
يونيفورم
##أوضح
##إذن
##ئج
##انها
##بغي
##حجر
##خلي
##ولقد
##يكس
أتباع
أطباق
إخبارية
اختراع
اختصار
استراليا
اعمل
الأداة
الانهيار
البكالوريا
البياني
التشكيلي
التلاعب
الراجحي
الرقبة
العظم
المبدعين
المتبعة
المعادى
بإشراف
بالمدرسة
بدايات
تصعيد
حاولوا
دارت
ذرة
ستايل
شوية
عد
فكما
قضائي
كولومبيا
لاني
لتعلم
للشرا
للفرد
محو
مشروعة
ميركل
ندعو
والأكثر
والدولي
والضغط
والقلق
وتبقى
وعليك
ولمدة
يخاف
##ائز
##تواجد
##راس
##غادر
##فرع
##واشار
##ويعد
إبن
ابرز
ارخص
اغتصاب
الآمن
الاسما
الاقتراب
الباري
البيعة
القطعة
المترجم
المتغيرات
المجر
المصطلحات
انتباه
بالصلاة
باهتمام
تحتوى
تدابير
جسدها
حقوقه
سودانية
سيدتي
صارمة
عشا
عمي
فقرا
قدمته
نالت
نطق
نفقات
هيكلة
والأمير
والمكان
وتحرير
يدك
يدير
يغيب
##ائف
##تج
##تصرف
##ريم
##زعيم
##غلى
##قنا
##ويعتبر
أثرا
إدانة
اثار
اغلاق
الأناضول
السراج
السيولة
الشبهات
الصعوبة
القبيات
القطب
المؤسس
المتزايد
المرفق
الناشط
بالمجلس
بدوري
بينك
جوار
حلوان
رمزية
فأخذ
قبة
كامب
لتشمل
لمستوى
محجوب
ناجح
نشاطها
نفسيا
وإنتاج
والحرب
وسهولة
ينتظرون
##تيا
##جازات
##حوم
##نتها
##همة
##يتنا
##ينج
أد
الإقتصادي
البذور
التأليف
التحريض
الرفع
السنن
الكردستاني
المحلة
المكتوبة
النقب
الهم
انضمام
بالناس
بسرطان
بصرف
بمرور
تبث
رافع
ركب
ستلايت
شاهدت
عدسة
كنب
لصيانة
للسيدات
للنهوض
ماتت
متهما
مراقب
مزدوج
نوري
والجماعات
والقطاع
وسيط
ويمنع
يبرز
يحتاجها
يراد
يشكلون
ينايركانون
ينسى
يهودي
##جارة
##درك
##شون
##ضغوط
##غرف
##فئة
##هز
أنفسكم
اختصاص
ادخال
اعتراض
الإسماعيلية
الإغاثة
الانتقام
الترم
العتيبي
العلمى
الغابة
الغسيل
الفلاش
الليث
الوزيرة
بالإنترنت
برنامجها
بكالوريوس
جنية
حمله
سوني
شنت
طبرجل
عليهن
فتيات
فجعل
فكري
قاطع
كامله
كتائب
للمحكمة
مدفوعة
مشواره
معلنا
منشور
هند
واستقرار
وافضل
والعلما
ولدي
ونطاقات
يسود
##حرم
##ذار
##زمن
##غار
##فلام
أبنائهم
أمرهم
اتضح
الإشارات
الاصدار
الاهداف
الحصري
الزعما
الفقهية
المتصلة
المحاصيل
ببط
تأثيرها
تقم
ذمتي
سبقت
صحيحه
طوله
قبلة
قروض
كسها
لتفادي
لتمويل
للشئون
مبتكرة
مذبحة
معروفا
واكد
والحكمة
والمتابعة
والمشروبات
وانتهت
وبالأخص
وعلما
ومراقبة
يعتبرون
##دعي
##دلة
##سعر
##ضيع
##هتم
##وتر
##وكل
أصابع
اجتماعه
اقترب
الألغام
الأنابيب
الأوروبيين
الإمبراطورية
الحار
الحمر
الرئيسى
الرطوبة
الشجر
الصفرا
العيب
المتمثل
المحاضرة
المصادقة
الوئام
بأنني
بكأس
تحتاجه
تزامنا
تسريب
جنسيا
حوارات
خصص
سمات
صادرة
صورسكس
غزو
مسيحي
مصنف
نؤمن
نضيف
نيران
والطلاات
وتصبح
وطنيا
وقود
ويرجع
##آم
##رول
أعود
الأزواج
الانتحار
الحلف
الذكريات
الرياضات
الصومال
العشائر
الليبيين
المتوسطية
بابها
بالاتصال
بالخرطوم
بعدين
بق
تجتمع
تحضر
ترتدي
تعداد
تهدئة
تهديدات
جنيهات
جوز
حملها
خبره
رياح
سفن
سندات
لكشف
للطالب
للما
والأمنية
والمدن
وحمل
ومشروع
يأتى
يتبين
يرتدي
يسعون
يكثر
##أب
##ائد
##بيد
##تفع
##جاني
##سنة
##ولو
##ومنذ
آمنا
أس
أف
أوصى
ادريس
الإسرا
الجوف
الصلاحيات
الفحوصات
الفردوس
الكواكب
المسافر
النقابية
بالقطاع
بتعديل
بعكس
بعينها
بوصفها
خيال
سيبقى
قتادة
للسوق
للمؤسسة
للنقل
مضادات
مواطني
والحماية
والنجاح
وردة
وعندها
وعودة
ويساعد
ويستخدم
يتعارض
##ارته
##ضخم
##ضطراب
##ضو
##طوع
##غرام
##قامت
##قذ
##قياس
##نر
إرهابي
ابين
اسرار
اعطا
الأستاذة
الأنسجة
الاساس
الفضائيات
القولون
المزمنة
الهداية
بالأمن
بالفوز
ثافة
خطا
شقيقه
عيان
غذا
غيرت
كلثوم
للأزمة
متعب
مغامرات
هاتفي
هنري
وللأسف
ولى
يتمنى
##ؤشر
##ثى
##سيس
##مش
##هكذا
##وريا
إخفا
اراضي
الأثنا
الإنتخابات
الاقليمية
الاكتفا
البارزة
الصائم
المجهول
الوساطة
بتجربة
بهدو
تباع
تنافسية
تورط
جثمان
غالي
لئلا
للضغط
مستواه
مسجلا
مصاريف
نصرالله
هواة
وأعلنت
واردات
ونتمنى
يبكي
يجدوا
يرضى
##أجر
##انو
##بدوره
##تقلال
##تكشف
##زرع
##صبر
##صورة
##ضب
##لندا
##وكشفت
أعين
الاستثنائية
التخصصي
التشيع
التوصيل
الحسينية
السكة
الشقيق
اهالي
بالدم
بتقنية
بدمشق
بريطانية
بشرى
تأسيسها
تسجيلات
تعبيرا
تواجهها
خدماتنا
ذروة
شيخنا
صمام
عادلة
عفان
غزيرة
قمع
كتيبة
كمن
لاول
متوقعة
مزودة
منتظم
وأكبر
واجهات
واصفا
والألعاب
والتركيز
وتمكن
يتسنى
يتمتعون
يحتاجه
يحتاجون
##تغير
##سح
##سكس
##لاس
##وأخيرا
أجنبي
أرحم
أغلقت
ازدياد
اقليم
الإعلاميين
الاوراق
البيرة
التظاهرات
الدلالة
السالم
اللذان
المتشددين
المعنوية
النفطي
بوينت
ترددات
توك
جرينتش
حاملا
رهن
ضخ
طبع
فاس
فاعلة
كاش
لشركات
للاحتفال
ماسة
مختبر
موضح
واستمرار
يتذكر
يتوافق
يشرب
يعيشها
ينظرون
##بطة
##بلا
##تعب
##ضج
##فتها
##قاط
##ورو
##يجة
آمال
آمين
أحببت
أغلق
أنهى
إختيار
الأقصر
البركة
البلجيكي
التنظيمي
الجهوي
الحراس
الطاقم
العمري
الفولاذ
القهر
المختبرات
المعاهد
المعيشية
اليومين
بالحضور
بسيارة
بقعة
تجدد
تركها
تنس
ديمقراطي
رتبة
سوار
صفحتها
غرق
قبرص
قماش
كام
كف
لقطات
للدور
مسبقة
مشين
معاملات
مهرجانات
مواطنا
وأهمية
والتسويق
والدينية
والمعروف
وتبدأ
##أفضل
##الموضوع
##حترافية
##سيارات
##فتاح
##قطة
##واكد
##وحات
أخ
أفكاره
إطلاقا
ابرئ
الانساني
التجهيزات
التسمية
التصحيح
الحراري
الحلوى
الضعيفة
اللياقة
المنافقين
الوافدين
بريدة
بموافقة
تبع
تزوجت
تقاطع
تقييمات
حصص
شعبها
عائدات
فلابد
قولها
كفروا
للعرب
للعمال
متفاوتة
مخلفات
مظاهرة
معبد
منزلي
نادرا
ناعمة
نقدمها
والأنشطة
وتشكيل
ويعتقد
يأت
##اذ
##توب
##رص
##رغ
##روي
##زخرفة
##سس
##شرت
##شغال
##عتبار
##قبض
##ميز
##هاب
أغلى
أهدافه
إيرانية
احكام
ازداد
اسامة
الاجابة
التكامل
التليفزيون
الحصة
الدورى
الرجيم
الزير
السطحية
العشوائية
العقلي
الفائقة
المكاسب
انطلاقة
جئت
حزين
رأوا
راقية
ستين
سعيا
فارغة
لأمر
للاعب
للبرنامج
للمنظمة
منعا
نكن
هلا
وأمراض
واسم
وشرح
وظهور
يشار
يقوموا
يناهز
##ؤل
##احه
##حاق
##ضية
##طبع
##وهنا
أزيد
أولويات
الاستعمال
الاصلية
البلاستيكية
التجزئة
الحمار
الدوريات
الزينة
السائقين
المنافس
بآخر
بالطاقة
تقتل
تنطبق
خشبية
خضم
خيبر
شريعة
صبر
لعلي
للجلوس
مجتمعات
مساا
مقدما
منافذ
واله
وجعله
وكلمة
ومتنوعة
ووجه
ووسط
يحبه
يعاقب
يكره
يمس
##إ
##حتوى
##حرس
##حيط
##شخص
##صين
##ضن
##قو
##لفت
##هت
##واطن
أصناف
أوف
اثبات
الأقرب
الانطلاق
التصور
التعازي
الثلث
الجهادية
الدلالية
الضربات
العمرة
الليبرالية
المتطلبات
المعلوم
النمر
اليا
بالأساس
بسحب
تمثال
جميلا
سى
صهيون
عبور
قطعت
قناعة
كلاما
لحسن
للبحوث
مجالا
معجزة
هواوي
وبعدين
وتوسيع
ويسمى
يابورداب
##آلات
##تبه
##دري
##ضغط
##طبخ
##فقه
##قاتل
##مظلات
##نار
##نيات
أعبا
أمامهم
إدارات
الاحتجاج
التفوق
الرمادي
العصابات
القلبية
الموسوي
الوضو
الوضوح
امل
بروكسل
بقضية
بكلمات
تعطى
تود
جبر
حملته
خاطئ
خوري
دراجات
ذبح
رفضها
فإنما
فورد
قدس
لاتفاق
للبطولة
للمخرج
للمرضى
للمعارضة
للهاتف
لنفسك
ممتع
نستخدم
والجزائر
والسؤال
والمساهمة
والمعارضة
وتبلغ
ويتميز
ينمو
##اند
##حاب
##صادر
##صيل
##فاع
##قهر
##كرر
##نيت
أسنان
إفراز
استكشاف
الآتية
الاخبارية
البندقية
التنافسية
الحنيف
الدقهلية
الشروع
المرح
المسموح
المشارك
النقر
اليهم
انتصارات
بالتدخل
حظ
خال
خطابا
خفية
رأيك
رؤيا
رحيم
زوال
زوايا
فأكثر
فكرت
لحوم
لمادة
متحدث
مسجات
مسيحية
مورينيو
ميخائيل
وإضافة
واجهت
والإنتاج
والتعرف
وتتضمن
وحيدة
وطننا
وفر
يحتفظ
يلقى
##أكثر
##امات
##بوك
##جنب
##ختصار
##زود
##سلسل
##عهم
##فنا
##ندية
##نيين
##هوا
##يفي
ابيض
الإضراب
البارحة
البنود
الجذب
الجيران
الرباعي
الفاضلة
القرآني
المركزى
النبيذ
النعم
بالرئيس
باليمن
تتحكم
تجربته
تشرف
توسع
حيان
سوداني
شنومكس
قارب
كره
لشبكة
متناول
واقعا
والكويت
وليلة
##إذ
##بوط
##جرد
##ريف
##سابق
##صديق
##عزل
##نزل
##وارد
##وون
أسطورة
إيجابيا
اجزا
الادوات
الانتصارات
البخار
البوسنة
الحفلات
الخيانة
الشريحة
الكتائب
المرتقبة
المرضية
المصابة
النعمان
ايطاليا
بالتعادل
بالجزائر
بالليل
بالمنزل
بجهود
بمنح
بنين
تعارض
تقليد
خل
دانيال
رصدت
سماه
عائد
عقلية
لثلاثة
لسيطرة
لشئون
لوسائل
مسك
مشكل
مصعب
موزعة
نبأ
نصية
نفر
نملك
نهارا
وأوروبا
والأخلاق
والتأكد
والكتب
وتعرض
وتقدير
وحجم
وخالد
وصحة
وقرأ
ونشرت
يريده
يلحق
##حتياجات
##خوة
##رمان
##فاه
##واه
##ونك
أدلى
إنتاجها
اشترك
الأقمار
الإقبال
الاشتباكات
التكريم
الشكاوي
العال
المتبقي
المتجر
المصنوعة
الورا
الوفيات
بالعراق
بحركة
تحتفظ
ترحيب
تسليط
تكفل
خيالية
ذكور
زالوا
عبدالوهاب
للمساهمة
لليهود
مخزن
نظرنا
واكثر
والصيانة
والوطنية
وبالتالى
وبالتعاون
وحالة
وحقق
ودورها
ومحاربة
ويتضمن
##ابا
##اكس
##تشهد
##تقول
##خوف
##ديو
##شطة
##ظائف
##ظافر
##فحص
##فيس
##لوف
##نال
أجندة
أمتي
إقامته
اجعل
احتفالية
استطعت
الأنثى
الارقام
التعاوني
الجديده
الحقائب
الذراع
الطير
العبودية
الفقري
المخلفات
الملونة
انسداد
بلكونة
بلون
تخيل
تسديد
تعب
تلجأ
جذابة
حذرت
خيمة
دفتر
زائد
سيطرت
شكله
صداقة
عكا
قطعه
كارلوس
للتفاوض
محاكم
مستجدات
مشيط
ميادين
هندي
وإيجاد
والسعي
والمحبة
وانها
ودولة
وعلينا
ومشاكل
يعين
##أسعار
##جريمة
##جوب
##حها
##ستطيع
##سكر
##عادل
##فال
##لعاب
أختي
أشهد
أمها
استطيع
الإنكليزية
الاستحقاق
الاوروبية
الحوثية
الرؤوس
الساحرة
الفرحة
القبور
الكميات
المدمرة
الموانئ
الهادئ
انتقد
باحث
تحتها
جسمه
حراس
ضدها
فريضة
فعليه
فورية
لفرض
للمادة
ميراكو
والصرف
والطب
وبقيت
وتشكل
وتعود
وعليها
ومات
ومساعدة
يغني
##ئتين
##افات
##توا
##جتماع
##حبة
##خط
##ساوي
##سيوم
##منح
##مهم
آخره
أوسلو
ائتلاف
ادعى
ارسل
اسعد
الأمامي
الاستحمام
الاعتداات
البقر
الساحر
الظالمين
العاجلة
الفقرات
الكونغو
المتعاقبة
المدنى
المصلين
المضمون
المعتقل
المفوض
الموضع
اوباما
بأربعة
بالك
تحترم
تعال
تكساس
ثقل
سرور
كيميائية
للجمهورية
محمية
واجه
والدراما
وتوجيه
وذاك
وعملية
ووحدة
يكتشف
يوصل
##بدو
##بقي
##تصفح
##تطلع
##جلب
##حركات
##سما
##ضاد
##مجموعة
##وصف
##ولما
أخصائي
أفرام
أمامك
البارز
الثمانينات
السي
الصمام
العمراني
العنب
اللاحقة
اللاعبون
المعتادة
المعلنة
امي
باذن
بالسلاح
برؤية
تلفزيونية
ثبات
خارجها
خصصت
رخص
رمزي
سمة
ضيفا
طرفا
عجمان
علوي
عنق
فأمر
فرنجية
لانك
لتبادل
للعيون
منزلها
والمشاكل
وجامعة
وجودة
وحينما
وسياسية
وطلبت
ومؤسسة
يدين
##ؤس
##خاطر
##سلك
##ضال
##ضاه
##طت
##طرد
##طمع
##عض
##غرس
##نشرت
##وإن
##وجود
أولادي
الأسمنت
البلا
الشرفا
الغيرة
المحادثة
المفاجأة
بالإسكندرية
بالإسلام
بالصحة
باور
بدأنا
بسعة
بلاغا
تبقي
تقوده
جثث
حلمي
حنبل
دمرت
دهون
دوام
زمام
سيصبح
سيطر
شائعة
عنيف
غلاف
قبلي
كرات
كلامك
لسد
مجلد
مسبق
ناجي
هدو
وإنا
وتسبب
وتونس
وجوههم
يدع
يساوي
##اجر
##تحق
##تغفر
##راة
##سبة
##طو
##قيه
##مارس
##وحي
##يرى
الاسبانية
السبعينات
الصحى
الطارئة
المستقل
المعماري
المهرجانات
النعيم
بالبلاد
بالراحة
تجدها
تشا
تعميم
تليها
سلعة
سيحدث
سيرته
شاي
ضيا
طالبات
عبدالكريم
عصرية
فأصبح
فلك
فيليب
قولا
لؤلؤة
لإصلاح
للاطلاع
للرسول
مجريات
محملة
نادية
والهدف
وانخفاض
وبالتحديد
ووضعها
يحترم
يليه
##بيس
##تبرع
##تتبع
##ذرة
##روم
##صا
##عطا
##قتها
##لمس
##ومين
إهمال
ابل
اردت
الأذى
الإجمالية
الاحتفالات
الحضرية
السجائر
السلفي
الكراسي
المبتكرة
المحافل
الواي
انتخابية
انظمة
بالعلم
بشاشة
ترقية
تسهل
جامعية
رفضوا
سلاسل
شعرها
عاتق
عصره
غلق
فتم
قاعات
قالا
مثلي
منهاج
مهندسي
نتكلم
نسبه
نقرأ
والتطرف
وبداية
وطأة
يتوجه
##اولة
##تجمع
##تقر
##جميل
##سكت
##كيم
##لاحظ
##وأعرب
أخلاقية
الاطبا
التحق
الجثة
الحصرية
الدواجن
السوريون
الضبط
الطاهرة
المؤدية
المطارات
الممتلكات
الميكانيكية
الوردي
برسالة
بشمال
بمزيد
تجمعات
تقلق
رسومات
ركاب
زول
سيطرته
صيانه
عانى
فضلك
قبلت
قتيل
لكثرة
للمغرب
مدبلجة
مساحه
مشهورة
مواضع
نهضة
هادئ
والإجراات
وتحتاج
وتطور
وسبل
ولكنني
وهمية
يتجزأ
يتدخل
يقدمون
ينهي
يهدي
##بوع
##تجاه
##تعين
##حترم
##غض
##فرات
أخلاق
أسأل
اتجاهات
احترافية
احنا
الاسنان
الافتتاحية
التدبير
الثلاجة
الجاف
الجوهر
الحوامل
الختامي
الكيميائي
المحتجين
المرسلين
المساس
المفعول
المكي
الموسوعة
بحال
بسلام
بمحاولة
بيض
تعارف
تغيب
دخولها
سره
سعاد
سوي
سيطرتها
عبدالناصر
عكار
عوضا
فتى
قدرا
لقسم
للعنف
للمقاومة
مقاس
والجمعيات
والسعادة
والمنازل
وطبيعة
ومحمود
يجلب
ينتشر
##بيك
##جوال
##عزيزي
##عملية
##فرص
أمامنا
أمتار
إحساس
احتلت
استقباله
اسعاف
الاستقالة
الانمي
التمكين
الرؤسا
الرمان
المالكة
المساهمين
النصية
النقاد
اهلا
بأخذ
بالقانون
بشهادة
بومبيو
تسور
تفصيل
توعية
حقائب
حنين
خالي
ستيفن
سيرين
شكاوى
عجائب
عمد
عنب
فوضى
قدرت
كويتي
للمباراة
لولاية
مراهقات
منتظمة
نقف
وارد
واستعادة
والمهارات
وسيتي
وصدق
يحلم
##ؤلف
##كنة
##واي
##وتابعت
آند
أصر
اعتاد
اكتمال
الثروات
الحافلة
الخوض
الديموقراطي
الرسمى
الركبة
الرهن
الصباحية
الطبري
العاطفة
الموهبة
بإيقاف
بالسيارة
بصمة
تستدعي
تصريحاته
تطلعات
تعيينه
تقارب
تناقض
حصوله
حفص
ركز
ريادة
شجاعة
شهيرة
طلاق
فالله
فستان
قيامه
لتنسيق
ليون
نصار
هويته
والبيانات
والفلفل
وبلغت
وسبق
وقضايا
يصر
يواجهون
##اتكم
##ارت
##ارد
##التي
##تسلم
##تفي
##سيه
##طم
##فإن
##مول
##نص
أعني
اجتماعيا
الأفارقة
الأيدي
الالمانية
البادية
البدو
البديلة
التصوف
الحقد
الحياتية
الخضوع
الدالة
الرافضة
الريان
الزي
الصديقة
القطاعين
المدرس
النايل
بارتكاب
بمعرفة
تجعلك
تخلق
خيرية
دلالات
رقما
ساكنة
سباقات
سرد
سطيف
سواحل
صحته
ظهرا
عنان
فرط
للجماعة
للسكان
للمواد
متوقعا
مداخلة
مولد
نبيا
نيس
هاجم
واستغلال
والأدوات
والمجتمعات
ياسمين
يبني
##تح
##جيا
##حص
##صول
##غوا
##فقال
##ليك
أجود
أذهب
ارتكبت
استشارات
الآلة
البقاع
الجزئية
الشق
العباسية
الكثافة
المزيج
المستوردة
النصب
بالحكم
بقاع
بنها
تخلف
تعقيدا
رباعية
رجالا
رقيقة
سجله
سياحي
صادقا
فردا
فروة
فقرات
قسد
قلقيلية
مأساة
محلل
مخازن
مستحيل
مطابقة
معتز
ملزمة
مهلة
والتحديات
والمطاعم
وحدهم
وضح
وقراة
ونعم
يبقي
يجي
##ؤوس
##إمام
##تاجر
##حتسب
##دتها
##ديد
##صفة
##ضار
##طبعا
##عيب
##فشل
##كوا
##مز
##وزن
##يسة
ابحاث
ازمة
اعلي
الآسيوي
الأمرا
الباكر
الترويجية
التطرق
الحراسة
الحوثيون
الحى
الروحانية
الزين
النصيحة
ببيع
بدوي
بولندا
تبرير
تنافس
جم
در
دموع
سمية
عزا
قارة
قانونيا
قرارها
كول
لاتحاد
لحملة
لصحة
لقياس
للنقاش
ليقوم
مكي
نطالب
نواف
والإدارية
وضد
##آيات
##تنكر
##ذات
##راق
##قاعد
##وأعلنت
##يكم
إحالة
إعلاميا
اخ
اشترى
التنزيل
الثياب
القصائد
المستحقة
المنظر
النقاشات
النواة
انبا
برلمان
بشرتك
تتدخل
تدوير
تفريغ
خالف
رابع
شريطة
فدا
قادما
قبره
قسما
كثب
كوسيلة
لأعمال
لاعبيه
لشي
لعنة
لموسم
لنفسها
معرفته
موثقة
هيفا
والرجال
والمساعدة
يخفف
يرجح
ينادي
##أحد
##ؤثر
##ايه
##ثنية
##ذان
##ربع
##ساحة
##صاحب
##عقود
##غسيل
##فتتح
##قذف
أمله
ابواب
الأدبا
الاخضر
الاستيطان
الخميني
الصاروخ
الغزالي
الفاسد
المحتاجين
النزاهة
النسبية
بالقيام
بروتين
بشتى
بنتائج
تامين
تحكي
تشتمل
حاييم
رحلته
رعب
عفوا
فاشلة
كلي
لإحدى
لإعلان
لرجال
للمحترفين
ماجه
متصلة
محله
معاينة
مكثف
موضوعية
همس
والمجلس
وتسهيل
وفقدان
وكأس
يسار
ينوي
##الما
##ترف
##تكلم
##توسع
##جهة
##دينة
##طوا
##معنى
##موه
##ندر
أحذية
اجتمعت
احتفالا
الألمان
الإمامة
التعيين
الجليد
الخفية
الرفاعي
الفلكية
المثقف
المحرم
المخالفين
المسك
المقترحة
النكاح
النكت
النهي
بإستخدام
بالشكر
تحدثنا
تكتمل
تمثلت
ثري
جدل
حجازي
داعية
شريكا
صحتك
عقيل
عينيك
كنوز
كوالالمبور
لاننا
للإرهاب
للتوصل
مختصر
معمل
وابنه
والتوجه
والفواكه
والموت
وتقييم
وراح
ورقم
وشهدت
ووفق
ويشير
##تغرب
##تمي
##رابط
##طئ
##عراب
##فمن
##يام
##يبدو
أصبحنا
استعمالها
الأقوى
الاحيا
الافريقية
الاقصى
البدري
التفاؤل
الجراحية
الصاعد
الفا
الملائمة
النسيان
النظريات
النينجا
بالحب
بالفشل
بالمناسبة
بجهاز
بروز
تستضيف
تصويت
تعذيب
تكثر
حاجته
خريجي
سجاد
سفره
شرقا
طائفية
طلا
عاجلا
قائدا
كهذا
لتدريب
لطلبة
للتنظيم
للسيارة
مدرا
مرجعية
معتبرة
معيار
مفاجئة
مناظر
هاته
وأو
والاستشارات
والجهد
والرعاية
وطرح
وفهم
وقاموا
يطل
يعطيك
ينطق
ينقص
يوحي
##أديب
##الذي
##الك
##بسة
##ذكار
##شهدت
##صمم
##وكما
أبوه
أسبوعيا
أهميتها
الأقوال
الأندرويد
الإدمان
الإعمار
التجمعات
الجنايات
الحلفا
الراقي
السعيدة
الفاعلين
المصاحبة
المكانة
الهولندية
بالعكس
بالي
بلدهم
بمبادرة
تنوي
حمامها
رؤيتها
رياضيات
سهيل
سيده
سيرغي
ظلال
عائلية
عاطفية
عزوجل
قطعا
كالتالي
كلاب
للواقع
لمواصلة
مافي
مباراته
معدودة
مهامه
مواهب
نؤكد
واللي
وانتهى
وتصل
ولايته
وموقع
يأمل
يتكرر
يفعلون
يمارسون
##إدانة
##ئحة
##تأكد
##تدا
##جاة
##حاور
##حزاب
##ذاكرة
##رجة
##ريال
##ريت
##صلت
##صنف
##ميت
##نف
##وكذلك
##يير
إصدارات
استعرض
الانبيا
الجمالية
الجماهيري
الحمامات
الفاتيكان
الفطرة
المارة
المحركات
المصمم
المنظور
النفاق
بالتسجيل
بزاز
بعبارة
بموجبه
تبكي
تتوافر
تمتع
دراستها
دعونا
روس
عرق
عنصرية
فادي
فعند
فم
لضبط
لقتل
للمعلمين
مطور
مقترحات
والإحسان
وتدريب
ومعظم
يشتري
##ئرة
##بالغ
##تجه
##جدد
##خيار
##زداد
##سيم
##شعور
##ضحية
##علن
##واط
##وتعد
أصله
اجنبي
احدهم
احصل
الأقراص
الازرق
الاهلية
الجابر
الدير
الشعري
الشواطئ
العرس
العمالية
الغياب
اللتين
المحدود
المنصور
بالاتفاق
بالسودان
بستان
بلادي
بينكم
تتواصل
تخالف
تشجع
تعثر
تلبي
جهودا
جين
حقوقية
خرق
ستبدأ
سخنين
شاحنات
ضاحية
علاقتها
عملوا
فرز
فعلي
فكم
لحياة
للحجز
للمشاريع
محتملة
ملونة
نزاع
والفقر
وسبب
وقانون
يرمي
##إدارة
##تشف
##جرام
##زيت
##زيم
##شيل
##قفال
##وذلك
إبداع
اكون
الإمكانات
الحادة
الحلوة
الدي
الذوق
الصحابي
العريس
الفلاسفة
القالب
المزاج
بريس
بلوتوث
تجسد
تدير
تسأل
توزع
حبات
حضانة
زجاجة
زلنا
شاهدة
للاسف
للرئاسة
مخططات
منتشرة
نشاطه
وأماكن
واصبح
والسيارات
والطالبات
والعربي
وتسعى
وثقافة
وظهرت
يتأثر
##أبو
##ؤك
##تبعد
##زينة
##شعاع
##صغر
##صفحة
##لخص
##هش
##واة
أجنحة
أصدقائه
اختصاصي
اصل
الأليفة
الاستطلاع
الثلاثية
الحلق
الرفاع
الصلاحية
الضلال
القصد
المتكرر
المحرمات
المعادية
المملوكة
المياة
الهمزة
بشري
بعمق
تؤخذ
تتلقى
تفعله
جمعا
حسنى
راموت
راي
شتنبر
علاقاتها
غامضة
فايز
للبنان
مجهود
ملموسة
وأتمنى
والاحترام
والتطور
والتوزيع
ووقع
ويحاول
ويحمل
ويصل
يقم
##اسب
##تخلف
##خرط
##خلايا
##صيح
##طاع
##فقة
##قس
##لوحة
##هيا
##وأفادت
##يدا
أبوبكر
أحس
الأولويات
الانخفاض
البئر
الباحثة
الترك
التهنئة
الخنزير
الرومي
الزنجبيل
السكك
السلك
السوفييتي
الشهود
القدما
القطط
الوصلات
تتطور
ترفيهية
جمعها
جوزيه
حاضر
حولنا
خاضعة
دوار
ذيل
زبه
سامية
سبيله
ضرائب
طموح
عمارات
قائل
ماشي
متخصصين
معامل
وأبنا
والعلمية
وحضر
وضمن
وكثيرا
يجرى
يمتاز
يواجهها
##ائهم
##اهل
##بوت
##تقا
##جمال
##روع
##سكو
##غضب
##غنا
##قناة
##يبات
##يعد
إتحاد
إضراب
اتفاقات
استمتع
استمع
الأحسا
الاستغلال
الاقليم
الجراثيم
المكررة
النيابي
بالإمكان
بتمويل
تستخدمها
حذا
حفتر
رقمية
سني
عارية
قدير
كادت
لجأ
لكسب
للبشرة
للذهاب
مارون
مصنوع
والأحكام
والجنوب
والسكر
والصواب
والمزيد
والموسيقى
وخمسة
##امية
##اور
##تلا
##تولي
##جذب
##رمي
##غرق
##كاتب
أحاول
أسوة
أطر
أمازون
إعدادات
إنسانا
الأنعام
الادا
الجبار
الحذا
الصناديق
الكفاح
اللد
اللوح
المطبوعة
المطرب
المقترحات
الممثلين
المنشور
بالحقوق
بذات
ثروات
ثمان
حساسة
روعه
شاه
شعري
صابر
صحفيا
عاشت
قضاة
كردفان
ليها
مخلوق
مستقبلية
منتجاتها
موهوب
هدفنا
وانتشار
يوصف
##أه
##ئيين
##اقه
##ثه
##حروف
##رتباط
##شوب
##غد
##لوجي
##وكيل
أكسيد
اجتماعها
الأسبوعية
الاستعدادات
الاستفسارات
البحيري
التنبؤ
الحياه
الخيرات
الرؤى
الفاسدة
الفريد
القاطع
القرشي
الكاثوليكية
النكبة
انقاذ
انقضا
بالأعمال
بالخروج
بخدمة
بنوك
تتفق
تمكنوا
رأيته
راموس
فلسطينيين
قبض
لساعات
للضيوف
مراسلة
مزاعم
ملحوظا
موكب
واستطاع
والروح
وتحول
ودعت
وزارات
ومؤشر
يتهم
يجسد
يستمع
##ئض
##تشرف
##جاج
##حون
##ساب
##ضارب
##غاني
##فسر
##قرار
##قضى
##ويت
##يفا
أتحدث
أخطأ
إمرأة
اثنتين
الأوان
الأولين
الاتحادات
الاحيان
الامل
الايفون
الترابية
التقديرات
الحقبة
السجود
الصادقة
الصحراوي
العباسي
المتر
المخلوقات
المزمن
المستشارين
المقادير
المواسم
بالشراكة
براك
برصاص
بعدي
تكريس
جعلته
دولته
شمالية
شورى
عكاظ
فائق
فمنهم
للدورة
للكهربا
للهواتف
لنحو
مبين
مشوار
ملحقات
مماثل
ميلا
نتورك
والأسرة
والرياضية
والفعاليات
وبدا
وتساعد
وثائقي
ودي
ويقولون
يحسب
##ابات
##اقرأ
##بوابة
##تمل
##خلاف
##سوي
##شروع
##صدار
##ظفر
##عارضة
##فإذا
##قالة
##قوي
##كتور
##نح
##هول
آلي
أعطاه
أعطيت
أفكر
أنشأ
إيقاع
ارتكب
استفاد
اكشن
التذاكر
التنبيه
الدعاة
الرقية
الرياضيين
الشيرازي
الصراط
الصمد
الفاصل
الفضائي
المتطوعين
المستثمر
المكافآت
المنتهية
النيجر
الهدنة
بإدخال
بالفتح
بجدية
بداخله
تؤدى
تجلس
تحويلها
تطبيقه
حبان
حصن
خلافة
دوران
ركزت
ستحصل
سعيدا
غامبول
فعلته
لغيره
معدنية
مغامرة
منزلة
ميشيل
نتوقع
وأنظمة
واسمه
وتأهيل
وشكل
يتطلع
يزل
يضيع
##آثار
##أذن
##خال
##ذلة
##رسي
##صاد
##فكار
آداب
أعادت
أكان
اصابات
الإتصالات
الإمبراطور
التساؤل
التقوى
التموينية
الخل
العثمانيين
العزلة
اللوائح
بالاشتراك
بالرد
بطرح
بعضهما
بفترة
بكفاة
تكيف
جليا
حصد
ذل
زمني
شهرية
صرحت
صريحة
عدالة
عرضية
عرفنا
عرقلة
عطور
عملاقة
عينات
غيري
فردي
قيصر
للتحالف
للعيش
للفصل
مختارة
مرغوب
مستقيم
معني
منشآت
نفاثة
هن
واس
والوفد
واليابان
وتمكين
وخمسين
وفيات
وقرر
ومشاريع
يحمله
يستضيف
يمضي
##إعلام
##تدي
##تردد
##ثارة
##ثاني
##ثمة
##حتجاجات
##حركة
##خى
##سائل
##فرض
##قصا
##قلاب
##قلي
##كتئاب
##كسب
##لندي
##وتشير
##وذ
أحق
أقرت
إنترنت
الأخلاقي
الانخراط
التسعة
التعصب
الحسد
الخيران
الراحمين
الزبدة
الشاشات
الكنب
المتراكمة
المحرر
المرتفع
النظري
اوراق
بالتعليم
بالضم
بالكسر
بشروط
بصعوبة
بمجال
تكسير
تيم
حقي
ذراع
رغبت
طفيفة
ظلما
فكلما
فيلما
لتكوين
ماما
محب
مشيدا
منشأة
منشورات
مهمتها
نتعرف
نفعل
نوايا
والأصدقا
والصحية
وتوصلك
وتوفي
وثلاث
وجدة
وجهاز
وحياة
وفات
وقم
وقوف
يدركون
يشاهد
يطالبون
يغلب
يقر
##ئدة
##اعه
##افضل
##الين
##بوب
##تشر
##تشي
##جلا
##جماع
##صحيفة
##ضمام
##ظلة
##عطر
##غنية
##فاعل
##فخ
##مطلوب
##ملاحظة
##وليس
أولاده
إطارات
الأظافر
الأعرابي
الادب
الاستشعار
الافراد
الانقلابية
البني
التحريات
التطبيع
الساكنة
الشاعرة
الشركه
المجوهرات
المصارعة
المعلوماتية
الموازي
بأسرع
بالجسم
بدار
برز
بعدك
تتعلم
تجنيد
تدافع
تريليون
تشاهد
تشهده
تكونوا
تواجده
جاهزا
حالا
خامنئي
دينيا
روحانية
ريح
شواطئ
عملائها
غفر
فأين
فذهب
فضائل
فعلها
قارئ
لأعلى
لإحيا
مريضا
مصالحهم
مصنعين
مميزه
وأمن
والتقنيات
والقرآن
وكشفت
يشتمل
##استقبل
##تصميم
##تعليق
##جهل
##خرة
##زك
##صباح
##طح
##غري
##قصد
##قوات
##كول
##والله
##وزة
أملا
إحصائيات
إنكار
ازدادت
التأسيس
التبغ
التصفح
التناقضات
الحبيبة
الدوار
الشيخوخة
العدسات
العريض
الفاشلة
الكرتون
اللهجة
المريضة
المعيار
المقاييس
الملل
النرويج
الوهابية
بديع
بياض
تشريع
تولد
جمعه
جنازة
حجمه
دزلنا
رح
سلبيا
شراميط
شيبة
عالواتساب
كاذبة
لبيان
محتمل
مختص
مساندة
ممدوح
موضوعا
نوال
وإلغا
والتسامح
والعناية
والوحدة
وذوي
وفاز
ونجح
ووصلت
يزالون
##أعراض
##بأ
##تراجع
##تزم
##تهدف
##ثنين
##جاوز
##زوجة
##صرة
##عوامل
##عور
##فاضة
##قترب
##مشبات
##نوت
##نور
##هدي
##هري
##هيل
##يجي
##يهات
أعدت
إنساني
اختي
استعمل
اسيا
الإعجاز
الايلتس
التظاهرة
الزر
الصحفى
المصنعين
المعين
الناجحين
انسانية
اهتم
بابن
بحدود
برئيس
بقصر
بكالوريا
تعاليم
تلميذ
جميله
حاسوبك
حضره
حطين
خلع
سببه
شوف
ضدهم
فكره
كنز
لصنع
للتسويق
لمس
مباركة
محالة
مفرق
مقابلات
ملابسات
موثوق
هرب
وأدى
وإصلاح
واصلت
والقنوات
والنار
وجيزة
وحصلت
وداع
وفرت
وقادة
ولعب
ومعها
يتسع
##اقات
##خبار
##رسل
##سحاب
##طقم
##غية
##ماس
##يكل
##يمان
أجرتها
إصرار
إلكترونيا
الأوربية
الاستيراد
الاقليمي
التتويج
التسهيلات
الحسيمة
الخاصية
الروبوت
الشئ
القادرة
القنابل
الكبري
الكرك
بإعلان
بعبدا
تكلف
جوا
حضوره
خزان
خلفها
دونه
سبيلا
طرفي
غلا
فدخل
فض
لحقت
لعبد
للمعلومات
لونها
متأثرا
متأكد
مخرجات
منتخبات
منو
مهاجمة
والدتها
والمصالح
والنشاط
وتذكر
ودائما
وطالبة
وقواعد
ومختلف
ويسر
ويسعى
يتسم
يسري
يمتلكون
##إبقا
##اين
##بثق
##تبين
##جدير
##حرر
##صوت
##طس
##عارض
##كها
أصالة
احتوا
اشعار
الأصيلة
الإساة
الانظمة
الجثث
الجماهيرية
الخرائط
الخنازير
الشيوعية
القضيب
المشفرة
المعقول
المفاجئ
المفقودة
المكثف
بالاعتماد
بتوقيع
برمجيات
بنسب
تألق
تشتري
تعليمي
تقتضي
تلاوة
رؤى
سؤالا
صمم
ضجة
عقدا
عنكم
كامكو
كوني
لمسات
لمهرجان
مجارى
مدنيا
ناعم
نحب
نسيج
وأخذت
واعتماد
والأحداث
والرجل
والمسابقات
وحضور
ورؤية
وراها
وصلات
يخطط
##تجار
##حقيقة
##طوي
##طويل
##عارة
##غام
##كام
##مسك
أعيد
أفرادها
أمامي
إجمالية
اشرف
اعتمادها
الإبادة
الإطارات
الإقتصاد
الاجانب
البقعة
التبرع
التحذير
الحضري
العريق
الفوتوغرافي
المجاري
المستشارة
المصدرة
المواليد
الناشطين
الناقة
النزوح
بالكلية
برزت
بموجبها
تراجعا
تناقش
جسور
طولها
عبود
عصرا
علقت
فذكر
فراس
قسمين
قواته
لباس
للإصلاح
للقلق
مباشرا
مدونات
مستمرا
ميليشيا
نون
هدد
والحقوق
والقانونية
وتكوين
وثانيا
وفوق
ولست
يأتون
يفرق
##ئف
##جبة
##جهاد
##حلى
##خصة
##صطلح
##كتاب
##وقات
##وكتب
أبوابها
أخت
أخذه
أنيقة
اخراج
الأحدث
الأطر
الأعمار
الإهمال
الاسلاميه
الاندماج
الحلبة
السحاب
الفيصلي
المحال
المشكل
المعترف
الناطقة
النعناع
بحقه
بمراجعة
بنكيران
تليق
جدير
حاملة
خيارا
ريسبشن
زانوسي
زراعي
شموئيل
صفرا
ضحيتها
عبدا
للانضمام
للرأي
للشرب
مرشحا
نقاشات
وإني
والقضايا
وربع
وسائط
وعناصر
ومنح
ويريد
يمنحك
##ديل
##رفض
##روح
##زعم
##صرار
##ضاف
##عنوان
##وكالة
##وكي
##وهات
##يأتي
##ينات
##يوجد
أل
اتبع
الأخوان
الإحصائيات
الجحيم
الجسدي
السخرية
السرد
الشروحات
الصحيحين
العبث
الغش
المجهود
النسبي
انتخابه
بعلم
تخطي
حائط
دراير
سترة
سكرتير
فمه
فنا
قميص
للتاريخ
مؤخرة
مستشارا
مشاورات
مشويات
معقل
موناكو
نشأة
نوف
وأطلق
وأقل
وأكثرها
والإسلامي
والان
والشام
والفتيات
وقررت
ويضع
##بغ
##تغلب
##داخل
##عزز
##عقول
##نقا
##نكر
##ولت
أجرت
إقبال
اجد
اختتمت
ادعا
اعتقاد
البيتكوين
التمريض
الجولات
الحاجز
الحالتين
الدمج
الرواد
الصابون
الصورةندعوك
العصابة
اللام
المخزون
المفارقة
الناجح
باليد
بتكوين
بكا
بيضة
تفسيره
تنخفض
جاوا
حرمان
حظي
زيتون
سبونج
ستاد
فصار
فنجان
لبني
لحالة
لدوري
لمنتخب
لينين
متنقلة
مختصة
ملاعق
موجها
نظارات
والتميز
والديه
والشخصيات
والطلاب
والموارد
ولكنك
ووجد
يستغل
يصعد
يطول
يعلق
##آه
##ارق
##باط
##تأثر
##تحل
##تفهم
##ثمين
##راض
##راف
##شحن
##شقق
##قوع
##لكم
##مناسبة
##هق
##واتي
##واجد
إبقا
اتصالا
استفسارات
اطلق
الأسطورة
الأشقا
البوليستر
الجمهوريين
الخيول
السود
الشدة
الشكوك
الطلابي
القادسية
الكافر
المتظاهرون
المتعارف
المدرسين
الوجبة
الوداد
الوصفات
انتظر
بحثية
بحفظ
بصحبة
بلى
تركوا
تعرفه
تعطل
حرصت
ديون
راعي
لتصحيح
للجوال
متجدد
مستحضرات
معالجتها
معاون
نظمتها
هموم
وانتها
وتقنية
وثقافية
وصورة
يتصور
##ؤيد
##ارف
##تغذية
##تنظيف
##تنوع
##ددة
##رجل
##رشيد
##شاد
##شاف
##شعارات
##عالم
##عوض
##قيا
##كنا
##لاق
##مدة
##نتج
##ورته
##وقبل
##يده
##يزي
##يله
أرقى
أنجلوس
إتاحة
اخواني
استغل
اشار
اعتقل
البالغين
التدوينة
التظاهر
التلفزيوني
الذهن
الزهرة
السيرفرات
العالقة
العليم
الغربة
القرفة
المتطرفين
المنهاج
بالبرلمان
بالعربي
بالليزر
بالمقابل
بذكرى
بشرة
تعمد
تورتة
جسدي
ديارهم
رانيا
رفعه
سعرها
شراب
شفط
عصا
عظام
فتوى
فرحا
قدراته
قنابل
لأخذ
لتشجيع
للسياسة
للقضية
للمجموعة
للمستقبل
لوقت
مديري
معجنات
مفردات
مواقيت
والسعر
والصورة
والظلم
والفنانين
والوقت
وتخرج
وترى
وروح
وكندا
يلتفت
ينطوي
##أكيد
##اصر
##تأتي
##جامع
##خسر
##خفاض
##شراف
##غول
##ماذا
##وعه
##ويين
##ينها
أورد
أيقونة
اسلوب
اعتبره
افكار
الأنبار
البلاغة
الجوزا
الحبشة
الحصص
الردة
الطموح
الفرار
المخلص
المصممة
المنتخبين
النقال
بوتفليقة
بورد
تتوافق
تجذب
تعليقا
حميدة
دافئ
دلائل
رامات
شتا
صغيره
قصه
كأحد
لإنجاز
للفلسطينيين
مساكن
مطالبين
نواحي
نود
والثلاثين
وصية
ولمن
ويطلق
يعبد
يمسك
##بز
##تصنيف
##ذين
##رحيل
##زلة
##شيم
##عشر
##فوز
##لطة
##ويشير
أر
أصدره
أوقفت
إصلاحات
استدعى
البدني
التأويل
الحيا
الغائب
الغوص
المترجمة
المتضررين
المدفوعة
المقاطع
المنع
المهرة
الوفود
انجليزية
انستقرام
بألوان
باز
بالغا
بثمن
بداخلها
برامجها
بصر
تاون
تحذر
تداوله
تضيع
تقديره
تنازل
ثقته
حصرا
حققته
خطيرا
داره
سنقوم
سيحصل
شبان
صديقا
عارضة
عبدالحميد
عمدة
فرغ
فلانا
فوركس
كا
كرافت
كفرا
كيك
لذيذ
لزم
مباني
مشرفة
منحها
وآخرون
والأحزاب
والجودة
والدخول
والراحة
والسكان
وبيت
ودخلت
ورب
وسهلة
وطنهم
وعملت
ووجدت
ويهدف
يؤيد
يافا
يرسم
يقولوا
##أبى
##اشة
##انيين
##تخذ
##تميز
##خار
##خشى
##ساعات
##صرح
##ضرر
##عانة
##عتقد
##عدة
##ومه
##يكة
أنيق
إثيوبيا
إعفا
إقالة
اتساع
الامطار
الاهلى
البطاطا
التبرعات
التكنولوجي
التلقائي
الجاذبية
الديانة
الذنب
الرا
الصليبية
الفضيلة
المزمع
المسكين
المعاش
المقاهي
المقررات
المناصير
الوداع
بأية
بادر
بالأرض
بالاتحاد
بالرصاص
برنت
بصلة
بيبي
تبعات
ترتيبات
تصميمه
تطويرها
تك
توتر
توجهات
جبهات
جمالية
جماهيرية
جهوده
حجاب
حزينة
رئاسية
سيعمل
صلبة
ضحك
عريض
عليم
فروض
فطيره
كتابته
لخفض
للأحداث
مصابا
منافسه
نفق
نقلته
هاتفيا
وأهمها
والاعلام
والشعوب
والمقيمين
وبينهم
وتحقق
وشؤون
وعدت
وفعلا
وقيادة
ويمثل
يحصلون
##آداب
##بلات
##تحقق
##حايل
##حتمال
##ذن
##رجا
##عترف
##عقاب
##قطار
##لتقى
##وفيتش
أديب
إبلاغ
احتساب
اشتراك
الأذان
الأوبرا
الإحتلال
التوحد
الراي
الرجلين
الزائرين
السويدية
الصافي
الطبع
الكوليسترول
اللوم
المأساة
المجموع
الناشطة
اناشيد
تحديا
تنامي
تنموية
سيعود
شرقية
عقلك
فعلية
فوقها
قنا
لتأسيس
لدعوة
للأستاذ
للدستور
لموضوع
لموقعك
مؤكدين
مائي
مالكي
متوافق
مرآة
مسالة
مواطنيها
موسي
موطن
ميانمار
نأخذ
نحصل
نواة
هاد
والأنظمة
والرحمة
والنهار
وتدخل
وتعديل
وهبي
ويدعو
يتراجع
يحرك
##أيها
##الم
##بطن
##تحد
##حديث
##ختفا
##دبي
##ركات
##طيف
##ظام
##عاصمة
##عري
##عول
##مومة
أراض
أمسية
إحداهما
اتجه
الآيس
الأحجار
الإثارة
الإطاحة
التوفل
الحقيبة
الرائحة
القدمين
الكرات
الكرملين
المنعقدة
النقش
الوراثية
بطلا
بفكرة
تو
جت
جرار
حرارية
حقوقها
خسرت
رمزيات
سرحان
طمرة
عبرة
عروة
عسى
عمدا
غارة
فكانوا
فلاشات
فواتير
قبلهم
قدوة
قررنا
كراسي
كمثل
كيلومترات
لاعبو
لطفي
لمساعدتك
محكم
مزاولة
مستقر
مفخخة
نسخه
والجريمة
وتحتوي
يحذر
يدوية
##أشار
##الرئيس
##بسط
##بنت
##تحف
##تشير
##خفي
##خيص
##عذب
##غيت
##كوت
##لوجية
##وتحدث
##وجي
##يكان
أعضائها
إطلاقها
اتفاقا
اشراف
اغانى
الأعياد
الإسرائيلى
البت
التأشيرة
التسعينات
الجادة
الخفيف
الديانات
السم
السيراميك
العقائد
القطارات
الملقب
المناضل
بالتقسيط
بالسنة
برلمانية
بلادها
تبذل
جرعة
جروب
دقيقتين
دمه
سأله
ستريت
سرايا
شبيه
عابرة
كسارات
كهذه
لديكم
لسو
مجدى
مجوهرات
مراجعات
مفردة
مكونه
ملكه
نتطلع
وآخرين
واحمد
والإسلام
والجميع
والحزن
والعقل
والقدس
والموظفين
وتويتر
وشخصيات
وعالم
يتعرف
يخطر
##ؤجل
##ؤم
##بما
##تكامل
##تير
##ثبات
##جمات
##حتلال
##سهر
##طاق
##طوف
##لص
##واح
أخذنا
أمرها
أنكر
إحصائية
احتاج
الأرثوذكسية
الأقباط
التسيير
التين
الجانبان
الدارجة
الديكورات
الشيوعيين
العذبة
الفوج
القارات
المسالك
المنتجع
المنطقي
النون
الواتساب
بالأعضا
بالنار
بتشغيل
تتسع
تتعارض
ترسم
جالس
جاه
حمية
خالصة
رفعها
ستستمر
شابه
طي
عاتقهم
قتيبة
كلوب
لطرح
للبترول
للشمس
للوقاية
مت
مليشيات
ممر
نحوه
هار
واعادة
والاعتماد
والنفسية
وانتم
وفاق
وولي
##بوس
##جاع
##جنون
##طمئن
##عالي
##كونات
##وفقا
##ونقل
##يلم
أصدقائك
أطلب
أعطت
إرهاب
احتل
الأرضيات
الاحوال
الاستسلام
الاعتذار
البريطانيين
التحضيرية
التفجيرات
الجبس
الراية
الظالم
الفلبين
القسري
الكرواتي
المتواصلة
المخلوع
المرآة
الوحشية
الولي
امنية
بالدار
بالمياه
جوردان
رقعة
شبيهة
فريقي
كانو
لإثبات
لاستضافة
لحكم
لروسيا
لكنك
للبرلمان
للسودان
للقيادة
لمنتدى
مايا
مدته
مساهمات
مفروشة
هيمنة
والثقة
والحرص
والضرب
ووضعت
وول
ويدخل
ياتي
يعاد
ينسب
##ادا
##افه
##باك
##برز
##بعا
##تعود
##تفيد
##جهزة
##ذنب
##زيادة
##شبكة
##ضاع
##ضطرابات
##طاف
##غرد
##غلي
##قري
##نيم
##ورت
##وشهدت
أثره
أراه
إشعار
الابطال
الافتراضية
البوتاسيوم
التجنيد
الترتيبات
التضحية
التهابات
الدماغية
الرأسمالي
الروائح
السامة
السنغال
الطبيعى
العجين
الفيتامين
القصاص
اللاسلكي
المرجوة
المغادرة
المكيفات
بائع
بالأحرى
بالتعامل
بالضرب
بالقضا
باهظة
بدايتها
تحياتي
تفادي
جفاف
جويلية
ذهابا
ردت
صغيرات
طموحات
عامله
فضله
لكتابة
ليكم
محض
مسابح
معسكرات
مكانتها
منطقية
مهاجر
نقدا
ننشر
وأدا
والتعليمية
والفرنسية
والكل
وبالإضافة
وتسمى
وعرف
ونزل
يتمكنوا
يرضي
يصور
يوقف
##أفادت
##أهب
##جسم
##ساد
##صمة
##ضمان
##عودة
##وبه
أمنيا
إبعاد
إجابات
إدارته
إشكالية
إعدام
إيمانويل
ارتبط
اسقاط
اشيا
اغفر
الأممية
البورد
التقاليد
التكيف
الحسم
الرازي
السجلات
الشاغرة
الشرائح
الشوق
الصاروخية
العضلة
القافلة
القفز
الكومبيوتر
الكوميدي
اللوز
المبين
المتلقي
المثلث
الميدالية
الوعا
بالحجارة
بالمستشفى
بصيرة
تصميمات
تلحق
جاكسون
جعلنا
حاسب
دخان
رعد
شاملا
شبكية
طبعة
عار
عوائد
فين
لعله
للمدرسة
متكررة
نفقة
وأقول
وارتفع
والعكس
وتوجه
وزنه
وشروط
وقل
ونقول
يتصرف
يتقبل
يقسم
يمد
ين
يندرج
##ابر
##ادر
##اصل
##اى
##تام
##تدفق
##ختبار
##داني
##دودة
##رسوم
##رسون
##سكا
##سمة
##صاح
##صعود
##عف
##غتسل
##فلة
##مضي
##مما
##نازل
##ناق
##وتعتبر
##وجد
أثرها
اذكر
افتح
الأنهار
الاستشارية
التحصيل
التزامات
التقارب
الجماع
الدافع
الدرامية
الشاه
الصوره
العطل
الغنائية
المسيحيون
المناقشات
المناقشة
امرأته
امريكي
بإلقا
بحسن
بذاته
بصور
بلاط
تبيع
تركيبة
تعلمت
تفتقر
تهذيب
توفيت
جغرافية
رأسي
شهير
شيك
صغر
صناعي
ظهورها
للأرض
للتفكير
متواصل
مروة
مرونة
مشروب
مصطلحات
موظفا
وإعلان
واتحاد
والباحثين
والتوجيه
والخير
وتمثل
وتهدف
وحديث
وعشرون
وقائد
ويعني
يتحكم
يسافر
يفتتح
يود
##ألم
##إنها
##بقا
##تصور
##حسم
##حظى
##راز
##ريش
##سكان
##سكن
##شال
##ضحي
##طابق
##غص
##قباط
##قتراب
##لذا
##هيد
##ورى
##وصرح
##ولعل
أدركت
ألون
أنبأنا
أوصي
اتخاذها
الأنسولين
التنين
الخوارج
الدنمارك
الدوسري
الرهيب
الساعه
السهلة
السوم
الصفرات
العطلة
القبلي
القرعة
الكونية
المؤرخين
الماليزية
المعاصي
المفكرين
المنصات
بإزالة
بالسلام
بالقتل
بالكشف
بالمثل
بالوزارة
تحميله
تعرضها
تنظمه
ثلثي
جزئي
جزائري
جسيمة
جني
حجرة
حذيفة
خطرة
خلفي
رمي
رويال
زوجتك
سرت
شفت
صراعات
طبريا
عابد
فاخر
قاع
قوما
كثيره
للبيت
للشاعر
للصدأ
مؤتمرات
متزوج
مختلفين
مسؤوليته
مصيبة
موعدا
همام
والملح
وتقوية
وجمعية
وفك
يدويا
يشتبه
يفضلون
##ائها
##تطاع
##تفوق
##تقوم
##خضر
##خفف
##راه
##رفي
##شعب
##صلى
##عمار
##غطية
##قلوب
##قنابل
##هض
##وطة
آليا
ابتسامة
اطراف
الأزهري
الأمريكان
الاتجار
الاطار
التحديثات
التسعينيات
التهدئة
التوثيق
الذل
الرافدين
القرنين
الماركسية
المراهقين
المستنصرية
المسير
المطابخ
المعروض
الناعم
الواتس
بتحميل
تسلط
تعذر
تكييفات
توجهت
جغرافيا
رئيسها
سجنا
شهية
عبداللطيف
عزت
عمادة
فرصا
فيتنام
قرآن
كو
لتمكين
لجهود
لجو
لعودة
للمستثمرين
مجتمعة
مفيدا
مقررات
مهتم
ميمون
ميونخ
نايل
نفذها
نوافذ
وأربعين
وأهله
وإبراهيم
والمواقف
وتسجيل
وتطويرها
ورأيت
ومستقبل
يشتغل
##أصل
##ائح
##ايف
##ترتيب
##ترشح
##خدمات
##درا
##ظا
##قعد
##كرا
##لوجيا
##ملك
##نظام
##ياني
أبراج
أجرته
أياما
إنجاح
إياب
الإصرار
الاستلام
الاكل
الالتهاب
التوت
الجواد
الحول
القا
المرئية
المساندة
المناعي
المنخفض
المهمات
الموجة
النخل
انعكاس
باسل
باللقب
بدائل
بدبي
بصدق
بعدا
بكتاب
تحتضن
تخلص
حكمها
رخيص
زيف
سبا
سميرة
صممت
طبيعتها
عادوا
غانا
فرن
لانتخابات
لاينمشاهدة
لعملائها
للتقدم
للجهات
للرقابة
للمنزل
ليظهر
مائدة
متزايد
متساوية
مسلك
مطالبهم
معشر
مهندسين
نتقدم
نراها
نشهد
والقرارات
وصححه
يكبر
ينشأ
##اون
##بسم
##تضمن
##تضيف
##تكلفة
##ثري
##حتراف
##ختلف
##دث
##سيل
##صبع
##صغير
##عضو
##علاقة
##قديس
##قمار
##نسون
##نقدم
##ونى
أدق
أرضي
أطلقتها
إبدا
إنتاجية
احتجاز
استطاعوا
استفسار
التذكير
التفريق
الشرائية
الفواتير
المألوف
المحلى
المفردات
المقعد
بأني
بالمجتمع
بدائرة
بقبول
تحديثات
تعيشها
خاطر
خلص
ربة
شرعت
ضفاف
طواقم
عائلتها
عانت
عجيب
عزام
عود
فشيئا
قيامة
كافيه
كجم
للتكنولوجيا
للموظفين
لهجوم
ملة
نعد
وآليات
والعملية
والقبول
وجودهم
وخرجت
وسهل
ومنتجات
ويؤدي
يستوجب
##آلة
##أحاديث
##تماع
##جدة
##حارب
##حزم
##حش
##خدمة
##ساق
##صاص
##عتز
##غور
##كاد
##نادي
##وتها
##وسية
##وعد
أحرار
أسقف
أنى
إسناد
اسهل
الآفاق
الإتفاق
التأخير
التكفير
الحسنى
الرفيعة
الصالون
الكرد
المنشأة
المنشود
الهرمونات
الوجهة
بدأوا
بشبكة
بيها
تجهيزات
تحطم
تخشى
ترتب
تشفير
تصف
تقني
تملأ
جدأ
جلوس
جوان
حيوي
ذهبنا
زلزال
ساعدت
شيعي
عرفوا
غضبا
فايبر
فهمه
قابوس
قدميه
قرا
كانتا
لتصميم
للأجهزة
للسينما
للقارئ
لوط
مؤشرا
مؤيد
مديريات
مشروعه
ملكي
مولاه
نفوسهم
والحاكم
والديكور
والعمال
والكاتب
والمسلسلات
وبحث
وبنك
وتقليل
وشهد
وليسوا
يبرر
يقيمون
##ؤسس
##إبعاد
##إعجاب
##ازن
##اشر
##انع
##تحرر
##تحرك
##تداد
##ثات
##جبر
##جريدة
##حدة
##ديان
##رابعا
##ستي
##سلط
##شوري
##ضيوف
##طوان
##عقارات
##غفل
##فاة
##قررت
##ميع
##نتين
##نش
##وحتى
##ييه
أكدوا
أودي
الأخت
الإقرار
البولي
الحوارات
الشمري
الكاهن
المجازر
المجاهد
المعابر
الموضوعة
الهرب
الوعد
بالإجماع
بالجملة
بالظهران
بزعامة
بسط
بوسائل
تأثيره
تغلق
تلتقي
حلبة
خارجة
دان
رائعه
سابا
ستظهر
ضروريا
عذر
غلام
كارل
كرئيس
كلامي
لسوق
لهو
مروحية
ملحوظة
منة
مولى
نتمكن
نهب
والاستمتاع
والرد
وتعليم
وسلامه
وظيفته
وفنون
ويجري
يتزوج
يخفي
ير
##أسئلة
##إبن
##بيب
##تجول
##ترض
##تمتع
##ثرة
##حراج
##حشد
##حصد
##ردة
##سول
##صارع
##صص
##صفح
##عاون
##عوز
##غزو
##فعة
##قفز
##مصر
##نوس
##وسجل
##ويؤكد
##ياب
أقصد
أنطونيو
إجماع
إدارتها
إنستغرام
الأكشن
الإفتا
الاختلافات
التبريد
التهمة
الجبير
الشامي
الصيدلة
الغربيين
المسماة
المشرع
المنذر
النوايا
بالمسؤولية
بالمنتدى
برو
تسود
تقديرات
تنصيب
تنطوي
حققها
خزائن
ديار
سب
ستصبح
ستظل
سلع
سيل
صيحات
عابدين
عقاري
فانها
فيزا
قيادي
لآيفون
لتركيا
لتفعيل
لقراة
لقطع
لقيام
للمؤمنين
مؤهل
مبلغا
محاضر
محط
ممتلكات
نزيف
هاتفها
هولاند
واجعل
والدفع
والرومانسية
والقواعد
والنظر
والنقاش
وصارت
وقتك
يرفضون
يسمي
##باه
##بهر
##تالي
##تحت
##جبت
##حارس
##حصول
##روت
##سفارة
##شفي
##غمر
##كتابة
##كته
##لاعب
##نتيجة
##نظمت
##يقي
##ينية
أجانب
أجور
إندونيسيا
ابا
اجتياز
اكتر
الإدراك
الإنشا
الاختراق
الارهابي
التجريبي
الثمينة
الحديدي
العافية
العاملون
القرب
اللباس
المبالغة
المبني
المختبر
المشاورات
النبيين
النشرة
بالكلام
بعمر
بيه
تتألف
تحيات
تقي
حضورا
حينه
خيوط
دموية
رأسا
رجلين
ريتشارد
شجر
عاجزة
فنزويلا
قتلة
قطرات
لتخزين
للتصدي
مدربه
مدرسية
مشايخ
مشتركا
مشكله
مغلق
ملائكة
منزلا
موازين
هروب
هشارون
والأخير
والمواطنين
وتوجد
وصفته
وصولها
ولجنة
ولنا
يجيد
يحس
##اات
##تحسن
##جهد
##دول
##ربين
##عجز
##عذر
##علان
##قاذ
##نم
##واجه
أخاه
أسبانيا
أضخم
أعمق
إبرام
اختطاف
اضافية
اعراض
الأبرار
الأكسجين
الأيتام
الاعدادي
الالماني
السفارات
الصحاح
الصدقة
الصوديوم
العالمى
العسكرى
العوام
القاموس
الكهنة
المتحرك
المنافسات
الموردين
النصاب
انتقاد
انعقد
بإنتاج
بالجيش
بشأنها
بيانه
تتراجع
تجسيد
تختص
تخريب
تطبيقا
جوازات
حالها
حفلا
خشبة
خلطات
دورتموند
رحيله
زيارتها
طارئة
عاشق
عميقا
فقها
مذهل
منطقي
نطلب
نكاح
نوت
والإنسان
والشعور
والمهندس
وبنفس
وتضمن
ولدى
ومراجعة
يقوده
##أكبر
##ازة
##اظ
##افسة
##اكن
##تانا
##تيار
##جزيرة
##حيي
##دال
##رشح
##ستون
##شركات
##شكلة
##عضا
##عق
##غطى
##قطر
##كرام
##لتهابات
##لدين
##منع
##وعبر
##ويذكر
أتم
أسرى
إخواننا
استمرارية
اغسطس
الأغنيا
الإحصا
الإقلاع
الإهتمام
الادبي
البار
التدليك
الحاسمة
الرضيع
الرقابية
السرطانية
السيئ
العلة
الغزاة
الفرا
القبطية
الكعبي
المبنية
المحررة
المحضر
المظاهر
المغناطيسي
الوديعة
بأرض
بالسلطة
بفندق
تأدية
تتشكل
تحتاجها
ترأس
ترتكز
تريدها
تشتهر
تعظيم
تواريخ
ثمنها
جنديا
حفرة
دكتوراه
دوريات
راكب
رغبات
ركعة
رومانيا
سببها
سوزان
سيبدأ
صوتها
عجيبة
عرفها
للاحتلال
للشغل
لمكتب
ماريو
متأخرا
مسموح
معاك
مفتي
نتانياهو
نصا
وإجراات
والأمم
ونوع
وهن
يحملها
يضطر
يطلبون
يقاتل
يمنية
##أصحاب
##ازات
##انب
##توى
##خفيف
##رهاب
##زيف
##شوق
##عدا
##لجنة
##وبية
##ياس
##يبا
##يعه
آثارها
أتوقع
أجرة
أشرطة
أضعف
أعضائه
إرشاد
اختفت
استرداد
اسمع
الأخري
الأسف
الأصابع
الاضطراب
الامني
التأمل
الحس
الدلو
الستين
الصامت
العجب
الكركم
المحفوظ
المستهدف
المنية
المهجر
الهامش
الوعود
انتصارا
انواعها
بأسره
بانخفاض
باوفات
بسوق
تداولها
تشكلت
جاهدين
جساس
جيوش
دوامة
دونما
سكة
شرفة
صميم
ضررا
ظله
عمليه
فأي
فو
فوجد
كينيا
لإظهار
لتقرير
لرويترز
لسكان
للعين
للمريض
لمراجعة
متقدم
متنقل
مرئية
ملائم
نجده
هيك
والفلل
والفنادق
والمعاهد
وبدلا
وبني
وشرب
وشركاه
وعروض
وكوريا
ومستوى
يحي
يستطيعوا
يلبي
##إعداد
##ارج
##بينا
##تكمل
##حتفال
##دوات
##شاحنات
##غرافي
##فعات
##قائمة
##نافس
##وعية
##وو
أخذوا
أصدرته
إحنا
اتصلت
احتمالية
استحقاق
اشتهرت
الآبار
الإبداعي
الإضافة
الإنكليزي
التعددية
الزبادي
السداد
السوفياتي
الصدور
الفلاحة
الفيلسوف
اللثة
المتواضع
المنظفات
المنقول
الوصاية
امه
بالبيت
بحثت
بريدك
بريطاني
بلقا
تسميته
تظاهرة
تفاصيلها
توصية
جورجيا
حلاوة
دبلوماسي
ذهن
سعت
شاهدا
عجلات
عذرا
عقلي
فهرس
كحد
لظروف
مؤلفات
ماس
مكلفة
مليوني
نفاذ
والأمراض
والجهاز
والسماح
والطلب
والوسائل
وبعده
وتمويل
وزيت
وسرعان
وكتبت
ونقوم
يبذل
يتصدر
يكتفي
يكذب
##إصابات
##اجة
##تسارع
##تشار
##جبل
##حالته
##حزمة
##دعم
##ربا
##غدو
##نسي
##يبه
##يفه
أغلبها
أفهم
أنهت
إحراز
إيهاب
احمر
ارتداد
اسمي
اطلب
الأمتعة
الإفراط
الاثار
الاستحواذ
الايطالية
التسجيلات
الخراب
الخزينة
الخلود
الدائر
الدراسى
الرقيق
الفيزيائية
القلايل
الكاثوليك
المحللين
المدفوعات
المغامرات
الواو
الوصفة
اهتمامه
بإغلاق
باعتماد
بالقدر
بالمكان
بشؤون
بقصف
تعميق
تغليف
جامعي
جلست
حظيت
دريم
دفعها
سيعقد
طاحونة
عجب
فادحة
فكتب
فلسطينيا
كبري
لأنفسهم
لايوجد
لتاريخ
للتطبيق
للخارج
مثلك
محجبات
مرزوق
مصدرها
معيشة
ناري
نجاة
نجاحه
والدوا
والشراب
والعافية
والمستقبل
وجهي
ودار
وزنها
ونادي
ويتوقع
ويشكل
يرافقه
يونيوحزيران
##اجع
##برت
##تباع
##تت
##تخدام
##جرب
##جيه
##دروس
##روز
##ستاني
##سقف
##سنوات
##غتيال
##فيديو
##كذا
##كلف
##مسلسلات
##مطبخ
##موس
##نام
##نجح
##نسا
##هاجم
##وتة
##وقام
ارى
افتتحت
الأسوأ
الأورام
الإسراع
الاحسا
الانشطة
التأثيرات
التوجيهات
الجروح
الدجال
الدرقية
الرئة
الصبي
الكونجرس
الماركات
المرتزقة
المسببة
المسبق
المنافذ
النقالة
ايدي
بأى
باولو
بباب
بقاعة
بقناة
بملعب
بمنزلة
بنفسي
بوادي
تجعلها
تختفي
تراها
تندرج
ثوان
جمالا
حصاد
حواجز
خضعت
شبهة
شمعون
طاقات
طفلها
ظهوره
عشوائي
عمير
قدمنا
قصوى
كابتن
كونغ
كيوماكس
للاستمتاع
للبرامج
للتسوق
للعملية
لمعظم
معينا
مغاربة
ملاحقة
ملحق
منقول
مهامها
مهند
نشاهد
نشير
نصير
نظريات
هتلر
هندية
هول
واجهه
والصبر
والمركز
واهم
وزوجها
وسحب
وصالح
وممثلي
يس
يشجع
يعتزم
يوجب
##آمر
##إله
##بقية
##تصار
##تصل
##تكفل
##تنفس
##جج
##دليل
##ذكا
##ساة
##سباق
##سهل
##شوا
##عدام
##عك
##علة
##فصال
##قاعات
##قدام
##لتهاب
##هدر
##وسع
##ولذلك
##ييل
أساسيات
أقدام
أكيد
أملاك
اعتصام
اقتراحات
الأناقة
الإبتدائية
التبعية
التحركات
التماس
التوترات
التوجهات
الجنون
الحسكة
الخادم
الدرع
السبعينيات
الشبه
الفارس
الكافرين
المحدث
المرغوب
المغني
بالمرض
بدات
بكثافة
تباعا
تحسب
جلسته
جمادى
جن
ديك
طنا
عايش
علة
غابت
غار
غبار
غرس
كوبر
لاستمرار
للبد
للخدمة
للمدارس
للمعلم
متخصصون
مجدال
مسارها
مسند
مناهضة
ناقل
ندخل
نفت
هيبة
وأفراد
والشفافية
والظروف
وتنتهي
ودقة
وعضوية
وكتابة
يخسر
يصرف
يضحك
##أسف
##إشارة
##ايته
##تحب
##تخيل
##تقام
##تيراد
##جلسة
##ديك
##سمي
##صلح
##صندوق
##قضية
##لبس
##لتي
##يحه
##يستا
أساسها
أصابه
أقدر
أقسم
أنشئت
أوغلو
أوقف
إثرا
إشراك
إنجيل
إيداع
اجمالي
اخترت
اسطح
الأصنام
الاربعة
التدخلات
الخضراوات
الدبابات
الدموي
الضباب
الطازج
العامية
الفلوجة
الكناري
المخلصين
المدينه
المشكله
الممتازة
انزل
بتونس
بسيطا
تحريرها
تدري
تري
تقريره
توفرت
ثورات
جداول
حبي
حصلوا
حوش
خلت
خيرة
دولارات
رأفت
عباره
عملات
غرض
غزل
قدام
قرروا
كابل
كبديل
كلماته
للحق
للزوار
للقراة
لمؤتمر
لهدف
محيي
مرشد
مروع
مكالمة
موجز
نانومتر
نجاحها
هضبة
واشار
واقف
والابتعاد
والارتقا
والحلول
والرابع
والرسائل
والمهنية
##ئتي
##تجابة
##تلام
##توقع
##جتهاد
##خلاصة
##خليفة
##ساحات
##شاق
##عدل
##عصي
##عقوبات
##عنة
##كتفي
##كمة
##منى
##وختم
##وليد
##ياتهم
أرامكو
أسست
أميرة
إرسا
إمدادات
الأغلب
الأفغانية
الإحسان
الإسلامى
الإعدادي
الانتقالي
الجاني
الحسون
الحشرية
الخان
الرأى
الصيادين
الضمانات
الغامدي
الفاصلة
الفيدرالية
القنيطرة
المباحثات
المرونة
المعجزة
المفتي
المهر
المواعيد
اليمامة
انجلترا
ايقاف
بتحسين
بسوريا
بصير
بكون
بلفظ
بوقت
ترجمته
تظاهرات
تمضي
تنقية
جراح
جنوبا
حلمت
خدم
دينارا
راجعون
ستشهد
سمعته
صوتيات
فعلوا
فوالله
كالعادة
كدولة
لتقوم
لسوريا
للأسرة
للتطوير
للتو
مارسآذار
متابع
مدتها
مصالحة
معدن
معصية
معنية
ملحة
نعمان
هاري
والرأي
والعطا
والمواطن
وامرأة
وتحديث
وقتنا
ونقدم
ويحدث
يدخلون
يونيون
##أسلوب
##أصدر
##اتب
##امر
##بحسب
##تعجب
##حرارة
##حساسية
##زز
##زيه
##سيف
##شرب
##شيات
##صانع
##صحف
##طلوب
##فصح
##فعال
##قرع
##وتات
##يرية
أرباب
إتش
الأراضى
الأسترالية
الأوربي
الابحاث
الاخري
الاكريليك
الانضباط
الحافلات
الزئبق
الضوئي
الفاسدين
الفريقان
المتتالية
المرفقة
المغيرة
المقبرة
الملاحظة
الوجهات
بأخرى
بالإعدام
بالشأن
بالمؤسسة
بتهم
بجده
بركان
بكلام
بمادة
تريدون
تستغل
تعاقد
تمكنه
حلولا
حولهم
رمان
روز
شيمن
صبيحة
عقاب
فالنسيا
فمع
قسط
كاريكاتير
لضرب
لفحص
للإنتاج
للسلطات
ليكونوا
مبعوث
مجتمعاتنا
معلنة
مفاصل
منحه
ناديه
نغمات
وأفاد
والإنترنت
والاثارة
والتعلم
والتفاعل
والداخلية
والطعام
والعروض
والكلام
وتستطيع
وينتهي
يوصي
##آة
##إوتاوا
##ادته
##اهة
##بالي
##تظار
##جراحة
##حترق
##درات
##دردشة
##ردي
##زنة
##ساس
##سني
##سيب
##شمال
##صدع
##لتين
##لكة
##نطلق
##نمية
اتفقت
استقبلت
الآلهة
الإجهاض
الإصدارات
الانحراف
البدن
التشغيلية
التيتانيوم
الحقوقي
الحمض
الحنفية
الخيام
الغازات
الفستان
الكروي
المحكوم
المشركون
المضادات
الممتد
الناظر
الهاتفية
بإجمالي
باحترام
بالاعضا
برأس
برجل
برية
بمقتل
تتهم
تجربتي
ترحب
تشديد
تقودها
تلخيص
توزيعها
توطين
حدثا
رفضا
رهط
سامر
سحاق
سمر
شبهات
شلل
عندئذ
غالية
فرش
فهؤلا
قسوة
لبث
لتقليل
للفن
لوائح
مؤسسي
مادام
معانا
موقعة
نشطة
نكهة
ننصح
وأبرز
وأقام
والترمذي
والحسين
والخبرات
والفرق
والقيادة
والمحلية
وبالتأكيد
وبينه
وتنزيلات
وجماعة
وقوانين
ومميزة
يتبعها
يشترك
##أتى
##أغنية
##اتة
##اشات
##اطي
##تاريخ
##ترجاع
##تسب
##حمر
##خدع
##درج
##راح
##ردد
##زاني
##سمح
##قظ
##لأن
##لمة
##ليف
##موع
##هدف
##هف
##وتو
##وزي
##ينس
أبابا
أذى
أرخص
أسماك
أشكر
أصابت
أصيبت
إبادة
اخيرا
اقتربت
اقصى
الأسبوعي
الاختراع
الادبية
التشاور
التكييف
الحاصلين
الحفرة
الخامات
الدافئ
السفلى
السودانى
السوقية
الشغب
العصب
العنق
المراهنات
المرزوقي
المسالة
المطربة
المعجزات
المقاتلة
الموالي
الندوات
الهوايات
الياسمين
انقطع
بالتحقيق
بناة
تقوى
جرب
خفي
ديزني
سلالة
سلوكه
صبحي
صحتها
ضعفا
ضعيفا
عجينة
عمومية
قراتها
كثرت
لأمريكا
لأهمية
لئن
لاختبار
لتوليد
للتدخل
للعمليات
للموارد
متعلق
متهمين
مرفق
مستوياته
مصرعه
مطرف
منارة
مهمات
هشاشة
والتنظيم
والزواج
واللجنة
والنصارى
وبفضل
وبمشاركة
وتجاوز
وضعتها
وقيام
ويطلب
يروج
##احد
##ادق
##ازي
##بطل
##تبدل
##تقديم
##جنود
##حاضر
##ختبر
##ستمر
##سخة
##شجع
##طائفة
##طفئ
##عتزاز
##عثر
##عراض
##عرج
##قلاع
##قلة
##قوف
##ورأى
##يتو
أجرا
أصدق
ألفاظ
اختفى
اقتنا
الإرث
البساطة
البعير
الحبر
الختامية
الخرج
الساحات
الصالحات
الطوابع
العرف
الفول
اللبنانيةالكاتب
المجاز
المدافعين
المدخنين
المدفعية
المظلوم
المعمورة
الممر
الوهم
بالسياسة
برقية
بوسط
تحته
تدعيم
تعاطي
تمريرة
تموزيوليو
خريف
دورتها
رابعا
سقطوا
عثيمين
عناصرها
عنقه
عياش
فانا
فرعية
فواز
قولنجيل
كواليس
لزوجته
للبعض
للتحكم
لمستخدمي
لوح
متهم
مربط
مستندات
مصيره
منافس
مواقفه
ناتجة
نعتبر
هجر
هدنة
والدعا
والمدير
والهيئة
وحرق
ودعوة
وشعبا
وكفاة
يطلقون
يعرفوا
##أخلاق
##اخر
##اطب
##امين
##بالاة
##بيات
##تستطيع
##تعاون
##تكن
##ثف
##جهزه
##حداث
##حصا
##حمص
##حوز
##حيت
##خمر
##سوية
##ظهرت
##عطل
##قصص
##مصادر
##نتقل
##نفذ
إساة
إلهي
اتقوا
ارتكبها
استشعار
الأمومة
الحصن
الريشة
السباعي
الشراب
العنزي
العيادة
الفندقية
الفيدرالي
الكافيين
الكتف
المشجعين
المضاد
المفدى
المنارة
المنتجين
الميم
النصح
اميركا
انتصر
انتقالية
انذار
بإمكانه
بالنجاح
بالوصول
بعدهم
بيعة
تايلاند
تحركت
تدوينة
ترجم
تلمي
تنسي
توقعت
جونز
حبك
حقنا
حمار
خطيب
رأيهم
ريو
ستقدم
شداد
شرسة
شقيقة
شومرون
صاحبي
صلوا
عايز
عبادي
عنوانه
فات
فسادا
فسيح
فضة
كوميدي
لاحد
لافت
لتوزيع
لثلاث
للدعوة
للغاز
للنوم
ماهية
مجنون
محاكاة
مرشحين
مستعدا
مشرق
مصحوبة
معدة
ناشيونال
نذهب
نفسا
نوعين
والآداب
والتعذيب
والثالثة
ودفن
يحد
يرصد
##أخبرنا
##ئبة
##اكي
##الب
##بلد
##تزوج
##تشارك
##تعايش
##توجد
##جام
##جتاز
##حته
##خه
##شرا
##طحن
##طعام
##قتدا
##كرم
##كوف
##كيفية
##وضح
أغراض
إلحاق
اكمل
الأبنية
الإجرامية
الإسم
الاثارة
الباقية
البوليساريو
التالى
التامين
التصديق
التهذيب
الخالدة
السبسي
السيرفر
الشرطي
الغاب
الفنيين
القدامى
الكفيلة
المحمدية
المستوي
المشايخ
المعلقة
المنهجية
النزلا
اه
باتفاق
باش
بقيام
تحميلها
تخصصات
تصادم
تعليمه
تمرد
جر
جرجس
جزيل
جمالها
جيبسون
ذريعة
ريفي
صحيا
صناعات
فسيكون
فوكس
فيكتور
قاموس
قبلنا
قدراتهم
كافر
لاعادة
لام
لتجارة
لعائلة
لقضية
للحقوق
للسكن
للمهرجان
لمستقبل
مرجع
مسكن
مسلحي
معرف
موبايلات
نتانيا
نفكر
نو
هاتفه
هداف
وأراد
والتوتر
والجهاد
والصوت
والعيش
والوضع
وقدرة
وقصص
وقعوا
وقول
ومحافظة
ومقارنة
وملفات
ويخرج
ويستطيع
يتألف
يردد
يوليوتموز
##اتو
##اضل
##بغض
##تحية
##تداول
##تمدة
##دافع
##صراف
##صلة
##عتذار
##عتني
##عطى
##عنت
##غارة
##فاني
##فريق
##كفا
##لط
##مثبت
##ميه
##ناس
##وبالنسبة
##يبر
##يقدم
##يوط
إرسالها
إعاقة
اعترفت
الأثنين
الأنسب
الإبتدائي
الازيا
الاستوائية
الاشكال
الاكتشاف
الايجابية
البيهقي
التدوين
التشكيك
الدا
العامري
العد
المخزن
المزعجة
المسافات
المعاهدة
المكافأة
النبيلة
النقض
بالاسم
بانا
بثقة
بحملة
بمشيئة
بمطار
تجب
تخسر
تلاميذه
تنفع
تواجدها
حجما
حشرة
دوافع
رباعي
ربوع
رجعت
شقاوة
صيني
طلبوا
عدوا
عينيها
فحوصات
فيتم
كثيف
لإضافة
لإعطا
لفكرة
لكسر
للمبتدئين
للمقاولات
للمكان
للموضوع
لمرة
لمشاركة
مائية
مافيا
ماك
معهما
موفق
نتعامل
وأنواع
والتابعين
والتطبيقات
والخبر
وتختلف
وتعتمد
ودرجة
ورسم
وصولهم
وهران
ويدعون
##أعلى
##إساة
##ئيه
##امنة
##بيو
##تلاعب
##تلاك
##توف
##حتفظ
##حراف
##خون
##رصد
##ريل
##شرع
##صالة
##ضوي
##طفل
##عاقبة
##عتذر
##عتنا
##عطف
##عيون
##غز
##لأ
##وصي
أحجام
أخذها
أصلي
أيامه
إقبالا
اثني
اخذت
استطلاعات
استقدام
استقرت
الأمواج
الإجازة
الإسماعيلي
الادوية
الاغتيال
البديع
التأسيسية
التهريب
الحيض
السندات
الصيدليات
الصيغ
الطاغية
الطرد
العارضة
الفيلا
القرم
القنصل
الكامنة
المفرط
المهاجر
النبأ
النموذجية
بالطابق
بالقرار
بالمدينه
بنوع
بهن
تاركا
تضطر
تفصيلية
توتنهام
حمادة
شرطي
طقوس
عجوز
علاجها
فقير
كفيلة
لإتمام
للقوانين
للهجوم
مجاهدو
مشارف
ملكوت
نظامه
نوبات
هذ
والبد
والتاريخية
والتغيير
والصناعات
والوثائق
والوقاية
وتزيد
وحدث
وسورية
وعرضها
##أقول
##ؤخذ
##إننا
##إهمال
##الجدير
##بتي
##بخل
##تضرر
##حجام
##حصار
##عادي
##عشق
##فران
##قبة
##قدس
##وشي
##وطن
##ووفق
##يذ
أبنائنا
ألسنة
ألكسندر
إخوان
إلها
اتهمت
اطلعت
الآفات
الأحماض
الاباحية
التنموي
الخفي
الصوف
العالى
الفخذ
الفروق
الليلية
المتعلمين
المحتوي
المكتوب
اليدوي
الينا
باقر
بالمناطق
بالوقوف
بنص
بيتنا
تحصى
تشييد
جلي
جمت
خضع
خوان
دعاية
روتانا
ريالا
سواريز
صلح
صورها
علام
فأجاب
فائض
فمنذ
فوات
قراته
قيادته
لافتات
لتأكيد
للتصميم
للحرية
للنجاح
مشمار
معتقل
هبطت
والاجتماع
والمحاسبة
وبأن
وتدعم
وتنسيق
وذهبت
وصوت
وفرص
وقيادات
ونتائج
ياقوت
يتسال
يثق
يعنيه
يقفون
يكتمل
##أجل
##تفسير
##توكيل
##رتفاع
##سأل
##شبكات
##صام
##ضارة
##طيح
##عسر
##فترض
##فراج
##قبح
##كث
##لحة
##ماني
##منة
##نجر
##وجية
أسير
أغلبهم
أكواب
أمينة
إقليمي
استمارة
الإعدادات
الابتدائى
الاستخدامات
الاصل
الاميرة
الانتاجية
التثبيت
التسلية
التطوع
التغليف
الستينيات
السرياني
الصفدي
العدة
العصا
الغنى
اللا
اللوحي
المعنوي
النقي
بالحرية
براون
بمرحلة
بمعني
بمعهد
بناه
بيتكوين
تغريدات
تفشي
تقاتل
تقييد
تلاه
تمشي
تمكنك
تنظمها
حالتها
حقيقته
حمدى
خلطة
سراحه
سيئ
شجار
شعبيا
شيطان
صفوفه
ضواحي
علاقاته
عمرك
غرائب
فنانين
قضاها
كأنما
كنوع
لارتفاع
لشرح
للكرة
للمواصفات
مالم
متابعي
مجي
مراجعه
معترف
منعه
نقدر
هدي
وأخرج
والتسجيل
والحروب
والرغبة
والفنان
والكمبيوتر
والمحافظات
والملابس
والنقد
والنيل
وجز
وجعلت
وضعنا
ولغاية
يستبعد
يستجيب
يغضب
##أهم
##المادة
##بالرغم
##بذل
##تقويم
##تولد
##جابات
##حزان
##خاص
##دح
##رأ
##سافر
##سلطان
##فاح
##قتصر
##هداف
##وجيا
##ياط
أبحث
أسوار
أكده
ألفي
أنشأت
اخرين
استفادة
اكدت
اكيد
الأقارب
الأقلية
الأكرم
الاهالي
التعويضات
التفت
التقت
الثلوج
الثمانينيات
الحماس
الخطرة
الرحمان
الصفاة
الظرف
الغدد
الفتوح
المرتبط
المعدية
المغفور
المكثفة
الملتوية
الموجات
النصفي
النقابي
الهادئة
اليورانيوم
بالتواصل
بالسيف
بحرف
بخطوات
بدول
بلغاريا
بوفاة
تحطيم
تصميمها
تعترض
تعويضات
جموع
جنات
جنح
خدماته
رغبتها
روحية
زهور
زى
سدد
طريقهم
فتحها
فخ
فرجه
فوج
كريستيان
لشغل
للاتفاق
للمنتجات
للوضع
لمنصب
لوقا
ليقول
معلمة
موكيت
وأرسل
واخبار
واقعي
والبالغ
والتلفزيون
والدور
والشاعر
والغربية
واللعب
والمسؤولين
والهندسة
وثيق
وسمو
ولدا
ومقاومة
ونقص
يتجلى
يحظر
يحلو
يملكها
##أصدرت
##بصر
##تتم
##ترة
##تفتيش
##توج
##حظر
##خويف
##ددين
##زني
##شبع
##شتاق
##صوف
##طوال
##عاقب
##عطش
##غطي
##غلفة
##كابر
أتيت
أعطي
إنفاق
إهانة
ات
استعدادات
اطفا
الأبدية
الامتناع
البسطا
البن
الجوفية
الداعم
الدلائل
الرزاز
الرملة
الطبراني
العجلة
العريش
العطار
الكنوز
اللصوص
المزدوج
المفرطة
المقهى
امتد
بالدفاع
بالروح
بفوزه
بمواجهة
تخفي
تزيين
تكبير
توصف
تونسي
جرش
حريصة
حضارية
حلق
خطابات
ذرية
رأسك
روائع
شفافة
صرت
صوم
طوارئ
عيادات
فصيل
قبلك
قوت
كنعان
لتعويض
لتوسيع
لسياسة
لطبيعة
للتعريف
لمسافة
لمشكلة
متسبيه
مطاردة
منذر
مهددة
نتعلم
نسبتها
وأساليب
وأمين
والاقتراحات
والبنك
والفكرية
والهجرة
وتحويلها
وقيم
ومحبة
ومريحة
ومناقشة
ويدعم
ويعيش
يكفر
يهمه
##أنه
##اكين
##تألق
##تدرج
##تعلن
##تقاسم
##جزم
##خس
##ذمر
##رابي
##عير
##غالي
##غريب
##كض
##مرحبا
##منت
##نوش
##وسين
##وقدم
أدعو
أديس
أضحت
أطفالهم
أعمى
أمك
إفريقية
إقصا
اتخذتها
الأحبة
الأسطح
الإجتماع
الإجهاد
الإحصاات
الاحتمالات
البحارنة
البرق
البهجة
التجاوزات
الترجيح
التركى
التشفير
الحاصلة
الديك
الرخصة
الصافية
العدوانية
الغزل
الكاميرون
اللامع
اللمسات
المثلى
المساكن
المستفيد
الممنوحة
المنال
الناقل
الوحوش
امثال
بالإفراج
بالكتاب
بدي
برفض
بشخص
بيانها
تسلل
تشترك
حركته
دراسي
رسولا
شبح
شعورا
صورتها
صوفيا
صيدلية
طارئ
فيو
كأول
كيا
لذة
لعلكم
لكلمة
للمناطق
محمل
مختصرة
مقاتلة
موثوقة
ناد
هندسية
واخيرا
والحيوانات
والزبير
واللوا
والمنتديات
وتعيين
وتوقف
وحاليا
وخبرا
وزيارة
وعمرو
ولأنه
ويشارك
ويكيبيديا
يلبس
يمت
يهوذا
##آر
##ؤجر
##إتقان
##ئتلاف
##ثام
##جهاز
##خف
##دز
##رتي
##ركي
##رينا
##زايد
##زد
##سعار
##شتم
##شفى
##عياد
##قاص
##قير
##معاني
##معة
##همته
##وثة
##ينى
أثير
أمينا
أنعم
أنف
اتهامه
اركان
اشتد
الآجلة
الأبيات
الإنذار
الاحتجاجية
الاقتراح
الثغرات
الجرعة
الجوالات
الخارجة
الزلزال
الزهراني
الزوايا
السنه
الصوفي
العظمة
الفصحى
الفلاحية
القفص
القمار
المارونية
المرسل
المرشحة
الناصري
الوحش
بضرب
بنسخة
تجاريا
تذكرت
تكوني
توما
ثمنا
جزائرية
راسخة
سكني
ظريف
عاديا
عبدك
عشائر
فتره
فتلك
قفل
كنائس
لأى
لجذب
للقلب
للوحدة
متاجر
متكرر
مرتفعا
مساعي
معاقبة
هربا
وإمكانية
والأبحاث
والجرحى
والحزب
والمواضيع
وسبعين
وسطا
وهامة
يدا
يزول
يعودوا
يعي
##ؤة
##ادهم
##ارين
##تجاب
##تدرك
##تزامن
##تقالة
##تقم
##توي
##ثان
##جانس
##حراك
##حمام
##حمق
##حوض
##خاطب
##زلت
##سيط
##صرت
##ضافة
##طابع
##طلاع
##طلقت
##عقيدة
##قدمين
##كامل
##ميات
##وأ
##ولفتت
##يعني
##يلية
أربيل
أقلية
ابعد
اختيارها
ارتباطا
استعماله
اصدقا
اعتداات
الأصالة
الأكسدة
الإمدادات
الاستشاري
الاقتصادى
الاكاديمية
الجار
الجاليات
الجدوى
الجرائد
الجيم
الدرج
الروائية
الطبق
العمران
المؤسسية
المالكية
المتدربين
المتصل
المديرة
المعصية
المكسيكي
المهملة
المورد
الميل
الهدم
الوثائقية
بأمور
بالقلق
بالنسا
بتأسيس
بتعزيز
برمتها
بعنف
بمفرده
بنشاط
بير
تعرفها
تلقائي
تنام
ثابتا
درسا
دمار
سيلفا
شرطا
شموخ
شهيب
صافية
صمود
عاقل
عطل
عندكم
غموض
فها
قابلية
لاب
لقوة
للمال
ليت
مؤمنا
مثلهم
مدح
مرتب
مقاتلين
مقصود
مكلف
مليشيا
موظفيها
ميقات
نتذكر
هوليوود
وأخر
والسلطات
والسياسات
والشركة
والقاهرة
والمؤتمرات
والنتيجة
وانظر
ودولية
وسلام
وشباب
وشرق
وصفا
وصنع
وورد
يمينا
##أجاب
##أطلقت
##احي
##افئ
##الات
##اود
##ثمان
##جدا
##جمهورية
##شده
##قاة
##قاع
##قترح
##قتنع
##لخ
##يعي
أباه
أذا
أذهان
أعيش
الأخطار
الأخيرةمثبت
الاستراتيجيات
الانجاز
البيولوجية
التأييد
التزامها
الحرمان
الخالد
الخلط
الدبلوم
الرازق
الرفيق
السحرية
الصخرة
الطوسي
الغدر
القسام
الكتابات
اللوجستية
المجردة
المزعوم
المنحة
المنعقد
الموج
النائبة
الوقائية
بأحكام
بالاسكندرية
بحذف
بخمسة
بغرفة
بندقية
تأتى
تاريخنا
تجربتها
تسلسل
تضخم
تضفي
تعرفت
تلزم
جائز
جاهدة
جوف
خص
خطية
دبابات
دورهم
سياستها
سيستمر
شيلات
صبغ
عبئا
عثرت
عريقات
عوالم
عودتهم
فلاح
قادرون
كافتيريا
للبنا
للصحافيين
لوحده
ليعود
مستودع
معادن
ملموس
وألعاب
والمنشآت
وبمجرد
وبنسبة
وتارة
وسرقة
وكلنا
ومدن
ويكفي
يتيم
يسعدنا
يسميه
##أجور
##أكاديمية
##إخلا
##توصل
##جيات
##دمة
##ذوب
##راط
##طوار
##عتزل
##عوذ
##فسكم
##قاطع
##كسجين
##كع
##هلا
أبيها
أثرية
أقصر
أقلام
أمري
أوردت
اتجهت
احتجاج
اساسي
اسطوانة
الألبان
الاسمنت
التزوير
التمديد
الجبهات
الخواص
الخياطة
الدبلومات
الدوافع
الديزل
الرصيد
الرميثيه
الصاعدة
الضوابط
العرقية
الغردقة
الغلام
الفرز
القاري
المتورطين
المحمية
المعلق
المفقودين
اليتيم
انستغرام
بالمواد
بالولاية
بتخصيص
بحكومة
بقياس
بمواصفات
تؤيد
تسبق
تضغط
تفرق
تلاحظ
تمرين
توحي
خيري
رشاد
ستتم
صرخة
عراق
فإما
فرضها
قسرا
قسنطينة
قصته
لأولئك
لتبدأ
لدورة
للألعاب
للتعديل
للقتال
لمحة
مدي
مدينه
مطالبات
موضوعي
ميتا
نفذتها
هآرتس
هبط
والطاعة
والعمليات
والكفاة
وتحاول
وتفاصيل
وثبت
وضوحا
وغدا
وقرى
يعجز
##أتم
##أخ
##أذى
##تبادل
##تدرب
##تضاعف
##تقطع
##ثقل
##جاح
##جملة
##حري
##خبز
##خرق
##ذية
##زاز
##سلة
##سند
##شارة
##ضرار
##طيق
##عاده
##عذاب
##غيث
##فتاة
##فضا
##نبذة
##ويج
##يمه
أخوه
احتفل
استرليني
اعتباره
اكلات
البال
التونسيين
الثمار
الجلال
الحكيمة
الحنا
الدائري
الدينار
الرقي
الشرائع
العارمة
العطش
الكس
المخالف
المزدوجة
المفروشات
الملأ
المماثلة
امتدادا
بأمان
بالبقا
بالسرطان
بالعنف
برحمتك
بعثت
بمراكش
بوحدة
بور
تبرعات
تتويج
تحتية
تروي
تشن
تلوين
ثقيل
جبار
جونسون
حضورها
دفعات
دوابشة
ذوات
سيقام
شرفا
صام
عائدا
عبدالسلام
عرفه
عصبية
فأرسل
فطر
فكريا
قذف
قراات
كتل
لاكتشاف
لحرية
لعناصر
للزراعة
للفكر
لمرضى
مثلت
مجلات
محال
مراتب
مسؤوليتها
مستهل
مستوياتها
مقبل
مواطنون
نرحب
وأربعة
والحدود
والشعرا
والمجلات
والمعلمين
والمنطق
والهواتف
وبد
وتغير
وسار
وعلق
وم
ونحوه
ونظم
ويرفع
ويعتمد
يخاطب
يركب
يشرع
##إستمرار
##ابها
##ادية
##بداية
##برد
##تدعى
##جفاف
##جوز
##حج
##حصنة
##حني
##رسول
##ريض
##ريو
##صراحة
##عبا
##عسكر
##عظيم
##غاز
##فلات
##لاح
##موم
##هال
##وثوق
##وردا
##وعها
أتلتيكو
اجوا
ارتبطت
الالم
البلاك
التحضيرات
التدهور
التوليفات
الحنين
الراهب
الستينات
الظهير
الغنائي
الفائزة
اللعنة
المتنقلة
الوثائقي
بأسم
بإقليم
بالداخل
بالصبر
بالنيابة
بالواقع
ببعضها
بتعليق
بمكتب
تعيق
تقسيط
تنازلات
جنسي
جنوبية
خلقك
دولا
سودانيز
سيئا
صك
عائقا
عملياتها
غصن
فوقه
لبرامج
لزوجها
لعلم
للدوري
مناقشات
نترك
نجاحات
وأسعار
وألف
واخذ
والعرض
والمراجعة
والمستشفيات
والمواصلات
وتولى
وخروج
ودخول
وذو
وسياسيا
وعود
وكلاهما
وكمان
ومعهم
يفسد
##أسباب
##أسهم
##أفاد
##إسلام
##اتر
##اكد
##الآن
##المزيد
##باحة
##بكي
##تدعا
##جها
##جولة
##حتضان
##حيق
##ختتم
##ديم
##ذرع
##رخص
##ريح
##شتري
##طلة
##عط
##قاه
##قتك
##كوب
##لمان
##متهم
##ملكة
##نير
##نيل
##يفون
أغنى
أمته
إنتاجه
اسلام
الانواع
التحاليل
التمور
الحلبي
السكرتير
الصريح
العاملات
القنبلة
الكادر
المركزة
المعبد
الملحة
الود
امرا
انعكس
ايلول
بأنواعها
بارزا
بالجهاز
بالمدارس
بتحرير
بقع
بكيفية
تحويله
ترحيل
تصاب
تنفيذية
ثبوت
جيم
حبيبتي
ذكرا
سارية
ستيف
شرحا
عاشوا
قاتلة
قفز
قولي
كأفضل
كوردستان
لاقت
للآخر
للإبداع
للامم
لليمن
مباشرمشاهدة
مخابرات
مرتفعات
مستوطنة
مشابه
ميك
ميلاده
وا
والأماكن
والحركات
واللاجئين
والمراد
وتقارير
وسريعة
وممثل
ووضعه
ينقطع
##أقوال
##إجماع
##إمارة
##ئسة
##ائيل
##افية
##الت
##امن
##تجاوز
##تعمد
##جسام
##جيك
##حتج
##حطاط
##حلم
##حواض
##خات
##خية
##ستقبل
##صعيد
##صفر
##طائف
##غذية
##غمة
##فلما
##قتبس
##قراطية
##كانية
##متر
##والى
##وام
##وخة
أطعمة
أع
أملك
إقليميا
إمكانات
ابداع
اجدد
ادري
الألقاب
الإطلاع
الابعاد
الامانة
البا
البكر
التقيد
التكفيرية
التلال
الحمى
الحمية
الدرب
الدمشقي
السيستاني
الصلاح
الطيبين
العائدين
العار
العرقي
العينة
القاتلة
القديسين
الكاف
الكف
المحاضر
المستند
المستويين
المفروم
المقاربة
الملامح
الموسمية
الناجم
النخلة
الها
اوضح
اير
ايمن
بالوحدة
بذلت
تتبنى
تجدر
تنادي
تنعكس
جافا
جذرية
جري
جيوب
حزنا
حيرة
دبابة
رقص
سألته
سؤاله
سبحانك
سوية
طلبك
فر
فرقا
فيقال
قلبية
لازال
لتصنيع
للاندرويد
للعميل
لمستشفى
مأرب
متطرفة
محاصرة
محترمة
محلها
مرصد
مرضه
مسطح
مطلوبة
معبرا
منفردا
نجلا
والسلوك
والشروط
وتتبع
وتطبيقات
ودوره
وربط
ورصد
وسوق
وسيدات
وفجأة
وفعاليات
ومازال
ويوضح
يتماشى
يحارب
يقترح
##إلزام
##الشيخ
##اهي
##تيان
##جتهد
##جند
##جيت
##دارة
##رأس
##سنا
##صاق
##ضاعف
##ضد
##طائرة
##غزل
##قمة
##قمشة
##لاب
##وشة
##وضة
أطلقوا
أعمدة
أكتر
أوفر
إطفا
إيجار
إيراني
اسلامي
الإعلانية
الإفصاح
الاعداد
الاغتصاب
التنفسي
الثواب
الجبيل
الخطب
الزعتر
السبعين
السكون
السمات
الشعير
الكرش
الكروم
الماس
المختارة
المشتريات
المعزول
المناهضة
المهجرين
الهنود
الوقفة
بحقهم
بضمان
بفريق
بلديات
تفسر
جالسا
جمهوره
جينا
دائرية
رصاصة
رينو
سارع
سامة
سموحة
سودان
عرس
عنوانها
غيبوبة
فإنني
فرانسيسكو
فهمت
قنصلية
لاشك
للتنظيف
للعائلات
ماضي
مخاطبة
مدفوع
مس
مقدمات
مكانته
مكرم
مكن
منتهى
وأسما
واعتقد
والأجنبية
والأدا
والأسود
والإشراف
والتحليل
والسلم
والقصص
والمبادئ
وانعدام
وبا
وتجعل
وحدك
وضعوا
وطالبت
وعلومه
وممكن
ويوسف
يستخدمه
ينبغى
##أقل
##أيضا
##إنسان
##تدل
##تقرار
##تمام
##حتفاظ
##خاف
##خلع
##رسائل
##زها
##زيين
##شباب
##شكر
##شمل
##صراع
##صن
##طفة
##عاه
##غوار
##فاز
##قساط
##كتها
##والد
##وبدأت
##ودعت
##وود
##ينوس
##يهة
أبن
أرشفته
أرضها
أعربت
أهلنا
إليهما
إنتها
اسس
اعتماده
الأعبا
البدائل
التاج
التحالفات
الترفيهي
التضحيات
التلف
الدال
السعدي
السكاني
السلعة
الصالة
العجائب
العشوائي
العنيف
العنيفة
العوائق
الفدرالي
الكاذبة
الكتان
الماسنجر
المترو
المجاور
المشترى
المعرضين
المقبلين
المنتدب
الين
بأم
بالجائزة
بالحكومة
بالخرج
بحثه
بمقتضى
تتجلى
ترمي
ترويزة
تقر
توعوية
ثمنه
جبير
جهودهم
جيجابايت
حاسوب
حولت
حينا
ذهبوا
رفضهم
زبدة
ساد
شبابية
شهدته
صوتك
عبدالرحيم
عربيه
عنوانا
غضبه
غيرنا
فسر
قائلين
قصارى
كارت
كفيل
كقوله
لأمن
لفئة
لكبار
للأبحاث
للصليب
للمصريين
للنمو
محتاج
مدربا
مدروسة
معاه
معلقا
ناضجة
نتائجه
نصره
نظمها
هوى
والأهداف
والقمر
وبجودة
وبصورة
وتفسير
وسمع
وغسيل
وقضا
ومازالت
ونرى
يرام
يستعرض
يعطيه
يلعبون
يهاجم
##اسية
##افلام
##تشخيص
##تظر
##تيم
##جندة
##حيه
##خام
##دعى
##زب
##ضرورة
##طيران
##عصا
##عقدت
##غوص
##فني
##قراض
##قصور
##كلة
##مب
##نطق
##نظافة
##ورغ
آلت
آلهة
آه
أرغب
أسم
أعز
أند
إماما
إيمانه
اسأل
اسبوعين
استجاب
اشعر
اعتذار
الأسدي
الأشراف
الإبقا
الاجهزه
الاحتفالية
البدراني
البيضاوي
التسلل
الثنا
الجعفري
الحرفية
الراشدين
الريادة
السواد
الشعلة
القائمون
اللؤلؤ
المئوية
المذهلة
المطيري
المعاشات
المقابلات
المقدرة
المليارات
المهبل
الموضوعي
النسيم
النشيد
بالإيمان
بالحرب
باللعب
بالنسبه
بخطوة
بشهر
تأسس
تبريد
تر
تغييرا
تنفيذي
توفى
حضن
حكى
دمر
راحت
رجاله
سامسونغ
سوتشي
شائع
ضئيلة
ضارة
طالبوا
ظواهر
عذب
عساكر
عصاه
فأصبحت
فأنزل
لتجربة
لفلسطين
للبقا
للتأمين
للطب
لنجاح
مرخصة
مسافر
مشقة
معلمين
ملتزمة
موديعين
نفسى
والتأكيد
والجامعة
والحضارة
والرياح
والقلب
والمفعلين
وترسيخ
وتوحيد
وحقيقة
وحلفائها
وسعيد
وعبدالله
ومقاطع
ومهارات
وورش
يمثله
يهمنا
يوميات
##ايت
##برس
##تجسد
##تصدر
##تفضل
##ثورة
##جوس
##جوع
##حاصر
##حفلات
##سداد
##سياحة
##طنة
##عداد
##عمة
##قاعدة
##مكافحة
##هدى
##هنة
أخاف
أرباحا
أهلك
أهميته
أورشليم
إحباط
إنكم
احتكار
ارادة
الألفية
الإنجاب
الإياب
الالتزامات
البعثات
الدهشة
الربو
الرفاهية
السريان
الضاحية
الضعفا
الطور
المؤامرات
المتأخرة
المتداول
المدونات
الهوس
امراة
بأبي
بخاصة
بصري
بيدي
تحرر
تحملها
تخاف
تظن
تقاليد
تقلص
تكتسب
تهتز
حجارة
حصلنا
دجاج
درست
دعي
دلت
ديال
ساكن
طفيف
عيناه
فتحه
فهنا
قاعد
قطرة
قواتها
كويتية
لتحصل
لفعل
للنص
ليهو
مؤهلة
مثاليا
مجهولين
محفظة
مرارة
مسيرتها
مهني
موبايلي
نتحمل
نسخته
نظرهم
نمت
وآسيا
والأخبار
والتصدي
والجدير
وحدثنا
وحشية
ورفاقه
وساطة
وست
ولأول
ونال
ويدعى
يتطرق
يفتقر
يكسب
##أخيرا
##ؤدى
##ؤكل
##إدراج
##امى
##اولات
##بانيا
##بشر
##بهجة
##تفرغ
##تلة
##حكمة
##حنين
##خاتم
##خض
##رضا
##سته
##سوة
##ضون
##عتقاد
##عزيمة
##عفا
##غدا
##غون
##كابي
##لحين
##والي
##واوضح
##وسى
##وقي
##يدان
أتذكر
أصيل
ألمانية
أناشيد
إلهام
اجازة
الأولمبي
الاستضافة
الاعتدال
الافطار
الاندية
البلجيكية
التدين
التراويح
التعقيد
الجمركي
الحضانة
الحيرة
الزجاجية
الساق
السمكة
الصانع
العجينة
الفراولة
الكتابية
الكوكيز
المحترم
المحرمة
المخدرة
المدمجة
المستطاع
المعتدلة
المقابر
المنطقه
المنوية
الهلاك
الوشم
اليقظة
اوقات
بالذكرى
بالنص
بشرح
بلوجر
بنصف
تبعث
تحلم
ترشح
تشابه
تن
جوهرية
حديثها
ضربا
طيبا
عائلي
عارض
عرفته
عواد
غشت
غيابه
فلذلك
لحن
لداعش
لصندوق
لعملائنا
للبشر
للكتابة
للهلال
لمرض
ليتمكن
لينة
مباراتين
متنها
مررت
مطلوبا
معرضا
نظمته
نهتم
هكتار
والخبرا
والخليج
والصراع
والقصور
وتجهيز
وتسويق
وتكرارا
ورسائل
وعثمان
يدفعه
يرحم
يطرأ
##أخي
##أصيل
##أقصى
##أمين
##تطور
##تقاد
##تقع
##حلي
##رحم
##سارع
##صري
##صيام
##طام
##طريق
##طياف
##عباد
##عقوبة
##يرون
أسماه
أمد
إياد
ابدأ
استثنائي
استغلالها
استولى
الأسقف
الاحترافية
الاولية
البشرى
البكتريا
التباين
التكرار
التهرب
الجارى
الحسني
الخصوم
الدسم
الذ
الصحوة
العجيب
الغائبات
القذف
اللاسلكية
المعظم
بأهل
بإنها
باركنج
بالإدارة
بالانتخابات
بالحفاظ
بسو
بلبنان
بناا
بهيئة
تتطلع
تحس
تدني
تشكيلات
تغني
تكبر
تنقلك
تنويع
ثقافيا
ثور
جرأة
جريئة
حققتها
خلو
ذهبي
رهيبة
سائلا
ساق
سوريين
سيارتك
سيظل
سينمائية
صحافية
صفية
طبيبك
عقارية
عنيزة
لأكبر
لاستخدامها
لجائزة
للإخوان
للتغلب
متاحا
مراجع
مصغرة
نيوتن
وأوليا
والاطلاع
والتجارب
والتربوية
والخواطر
والشكر
وتضع
وتعني
وحذر
ودع
وسياسة
وضم
وظلت
وقبول
ولادته
ومصالح
ومواصلة
ويضاف
ويعلم
يركا
##أغاني
##ئله
##اجون
##تجنيد
##تحصل
##تدين
##تفتح
##حدى
##خجل
##ستاذ
##صناع
##ضاعفة
##طالع
##عمد
##فجار
##مق
##نزول
##ومما
##وننا
أصيبوا
أعمالنا
أقدمت
أيلولسبتمبر
إتباع
اسابيع
الآمال
الإستثمار
الاختصاصات
الاستعماري
الاستمنا
البدوي
التدريجي
الرياضه
الزوجات
السكوت
السمعة
الصدفة
الصويا
العواطف
القبيح
بأجهزة
باطن
بالانضمام
بالدعا
بجمال
بخدمات
برواية
بسببها
بسرقة
بطلة
بيئية
بيكوصيانة
تأشيرات
تأكيدا
تتصرف
تخلى
تستهلك
تصدى
تكريما
حمى
خسارته
ذاتيا
رعدية
زمانه
سبقه
سرق
سيرفس
عسكر
عقولهم
عهود
فتقول
قرطاج
قياسا
لتجاوز
للبلد
للحدود
للحل
للديمقراطية
للعناية
لمشاكل
مؤمنة
مانويل
مرقس
مساحته
مطاحن
معادية
معلق
ممارستها
مناسك
ناقص
نستعرض
هز
همه
وإعطا
واجبة
والأفراد
والابداع
والبنات
والتحقيق
والتمتع
والسلع
والعامة
وصلاح
وغرف
ومعناه
يترجم
يرونه
##أحلام
##أزمات
##أسد
##ؤن
##إشاعة
##باحث
##بانة
##تابعة
##جنات
##جيال
##حاج
##حيز
##داية
##رخا
##رعات
##ساخ
##شرة
##شوه
##صمد
##ضابط
##عارف
##عزة
##غرض
##قرية
##هاجمة
##وادي
##وسبق
##يادة
##يزات
أسطول
أفلا
ألقاب
اطبا
اعلامية
اكواد
الأثري
الأثير
الأناشيد
الإدلا
الإيقاع
البتة
البنكية
الت
التزلج
التسريبات
السدود
السمكية
العوالي
المتزايدة
المختلطة
المكملات
النزهة
النقيض
باتباع
بالمرأة
بتثبيت
بطيئة
بقرب
بقضا
بمحكمة
تأثرت
تسهيلات
تعلمه
تفصل
تقريب
تكفا
تنظيمات
حفظها
دورى
سجلها
سواد
شخصيتك
طفرة
عبدالغني
عجزت
عواصم
فنزل
فول
فيروسات
كافي
لحادث
لس
لعمر
لفظة
لفك
للصور
للقوى
ليسجل
مبارياته
مبينة
مظلله
معلما
منافع
هتافات
هرم
هلك
هوتل
هوك
هيونداي
والإعلامية
والباطل
والتوسع
والخدمة
والطريق
والعين
والقراة
وتقدر
وزادت
وقدرته
وقدره
وكأنهم
ومكتب
وهنالك
ويلز
يجدر
يطمح
ينضم
##أخر
##اسه
##تسرب
##تصدق
##ثانوية
##جوم
##حتفل
##خسائر
##رسال
##روش
##زكي
##سئل
##ستفيد
##صدور
##عتراض
##عدات
##عزا
##عس
##عكر
##فاذ
##فلا
##قاق
##قتراحات
##للهم
##ملف
##وعا
##ينيو
أصلها
أكثرهم
أوت
إشبيلية
إيجابا
الإحباط
الاحتراف
الاحتكاك
الاسفل
البروتينات
التطهير
التقطت
الثمالي
الداخلة
الركود
الرمضاني
السلبيات
السمرا
العقاقير
الفاتورة
القيد
المتضررة
المتكامل
المتن
المجني
الموديلات
النفي
اهتمامات
باشرت
بالزواج
بعالم
بمناطق
بمهمة
تجيب
ترصد
تسجيله
تشغيلها
تعددت
تنهي
ثواب
جذاب
جنائية
حاسم
حبها
حرجة
حضاري
خامات
خلا
دخلا
دعاه
رقصة
زانوسىصيانة
شبابنا
ضل
علو
غرناطة
فرشاة
فقيرة
فلاي
كليبات
كيميا
لأهم
لشعب
للأهلي
للتعلم
للدموع
للعائلة
للعالمين
لمشاريع
مؤلمة
مجاري
مجتمعية
محصول
مسلمون
مص
مصرعهم
مظلل
معتدل
مغني
مقاله
مور
نابولي
نجا
نشو
وإصدار
واتباع
واثق
والاستفسارات
والتقوى
والرحلات
والمجالس
والمقصود
وتترك
وتجديد
وتلبية
وتواصل
ومصادر
##إقبال
##إقرار
##إقناع
##احم
##بريس
##بورصة
##تسامح
##تفاصيل
##تهام
##تيكية
##جامعة
##جندات
##حتوي
##شأن
##صدة
##طلت
##عزف
##فورة
##قنع
##كبة
##مشي
##ميد
##نعيم
أحبه
أردني
أرسنال
أمرين
ابوظبي
اخته
استحمام
اعوام
اقيمت
الأعزا
الإنجليز
الاحتياط
الالتفاف
التحويلات
التذكارية
الصعاب
الظلال
الغزيرة
الغلا
القبيل
الكيانات
المؤبد
المدربة
المنابر
الموكيت
النعيمي
الهدية
الواحة
بالأسلحة
بتفعيل
بجمهورية
بشرق
بلدانهم
تأسيسه
تتركز
تجريبية
تصير
جنى
خبيرة
خواص
دستوري
رقية
سلمي
سمعه
سيجعل
شارة
شحنة
شوت
طابعا
طرابزون
طوق
عبايات
عربات
عصور
فوجدت
فودافون
فيلمه
قادتها
قلقا
لب
لتحمل
للجامعات
للفقرا
للقرار
لمفهوم
لنفسي
مثنى
مجاورة
مجيد
مردخاي
موقفين
ميقاتي
ناقة
نصه
نوعان
هجرية
هجمة
هدام
هذان
وأظهرت
والأخيرة
والبنية
والنهوض
والواجبات
وتجارة
وشارع
ومثله
ويعطي
يتواصل
يقابل
##إطار
##اتا
##اتية
##الصفحة
##ايم
##تصدى
##تقلب
##تنازل
##تهديد
##جرا
##جف
##جمد
##حادث
##خراط
##دبر
##دج
##ساعد
##شاوي
##ضير
##عيم
##فقت
##قسط
##قصيدة
##ملوك
##هيئة
##وأشاد
##ودين
##ورتها
أعلي
إسعاف
إنقاص
احتياجاتك
اصول
الأسباني
الأموي
الالاف
التأخر
التقسيط
التوابل
الحجري
الحرجة
الخيط
السكينة
الشعبة
الطهي
الظاهري
القاسمي
اللامركزية
اللمس
المتعاملين
المدعى
المستقلين
المناظرة
النادر
الناموس
انتزاع
انجازات
انكم
بروسيا
بشان
تحسبا
تدار
تزعم
تضاعف
تعصف
تكونت
جاي
جرافيك
جعلني
حديثي
حوارا
خيبة
رئيسه
رزقه
رغما
رويدا
زميل
شرارة
شرجي
صربيا
علاجه
فيروز
فيقوم
قار
قرطبة
قزح
كاهل
كراهية
لتسوية
لحام
لحديث
مؤلفة
محادثة
مدربين
مضامين
معد
منطقتي
مهد
مورد
ميني
نام
نوفمبرتشرين
نووي
والاثاث
والحديد
والحسن
والغذا
والهدو
وبينها
وتتكون
وجدته
وشبكة
وصدر
وغرفه
ومدرسة
ومعايير
ويتحدث
يتطور
يشاركون
##أجوا
##أحجار
##ئتمان
##ابل
##تجربة
##تحرش
##تغرق
##تهى
##توفي
##جابه
##ختطاف
##خلافة
##ستور
##سفر
##شخصيات
##شيع
##صدمة
##عتاد
##علما
##عمى
##فطر
##فعت
##كثير
##وانا
##وسات
##يقية
أخشى
أذربيجان
أروقة
أمسك
أيارمايو
اداة
اعظم
اعلاه
الأساطير
الاخطا
الامان
الامتياز
البنتاغون
الحبة
الحكايات
الذئب
الرئيسين
الزبون
السكني
السلالم
الصحافية
العالميه
العش
القامة
المتشددة
المحاصرة
المزروعي
المصنوع
المطلة
المكتبية
المنسق
الميتة
النبلا
النظيفة
الوقائي
الوهمية
اهتمامها
ايمان
بإسقاط
بحزب
بحمد
بوادر
تتمحور
تدريجي
تدوين
تراخيص
تفجيرات
تكتل
حاجه
حتمية
حريصا
حزيرانيونيو
حساس
خامس
دق
سانتياغو
ستيفان
سراج
سمعوا
سمكة
سميث
سيادته
شائعات
شحنات
شعائر
صلصة
عبدالملك
عبروا
عمقا
فلسفية
فوجئت
قذائف
كابول
كى
كير
لإصدار
لتجديد
لزوم
للتخفيف
للتراث
للحرارة
للحماية
للعرض
للنازحين
لمسابقة
ليلي
متزوجة
متلازمة
محافظتي
مخزون
مرجعا
مقداره
ملحم
ممثلو
نجدها
والبعد
والتصوير
والتعريف
والنتائج
والولادة
وتتم
وترتيب
وتقديره
وتمكنت
وسعر
وصرح
وطلبات
وظروف
ويأخذ
يتحدى
يضعف
يعترض
يغلق
يكفل
##أشعة
##أمة
##إخفا
##إقصا
##ازيا
##اطة
##القسم
##بدى
##تاف
##تمة
##تمثل
##تهامات
##جرح
##حامل
##حرى
##حمي
##رتين
##رضي
##سجد
##شارع
##صفحات
##ضحى
##طفي
##عزيز
##فاجئ
##فيها
##قنعة
##قوت
##نفس
##هيب
##وشارك
##ونشرت
##ووصف
##يوي
أحضر
أدائها
أرحب
أضافت
ألقي
أيد
إرتفاع
إسلامه
اختتام
اذاعة
استحداث
الأعمى
الإشعاع
الاماراتي
الانكليزية
الايميل
البرازيلية
الجدية
الجوهرة
الحقيقى
الخارطة
الدف
الراشد
الرصد
الرعية
الساسة
العابد
العنكبوتية
الفرقان
المتكلم
الملائم
المنار
المنبثقة
المنشأ
النسوة
النسور
انتشارها
بأكبر
بالسعادة
بقلب
بكونها
بلدات
بلورة
بمدى
تخوض
تسارع
تستجيب
تسفي
تقصير
تلقا
تيلرسون
حيت
دراستهم
دمنهور
دهس
سارت
سك
سلوكيات
سواها
طلائع
عتصيون
عشرون
علاجات
عودتها
فاكهة
قضيت
كثيفة
لزراعة
لعلوم
للأفلام
للمعدات
للموت
لمكان
محذرا
محنة
مداهمة
مشروعها
مشفى
مقاتلات
مقدمتهم
نسيان
وأنشد
وارتفعت
والأمهات
والأوعية
والاستعداد
والبطالة
والتأهيل
والمعايير
وبث
وتجمع
وستجد
وصعوبة
وعائلته
ولئن
ونجد
ونعمل
وواشنطن
يتخلى
##أوامر
##اسم
##اعم
##انهم
##بش
##بعثة
##تسم
##تصر
##توافق
##ثالث
##جسر
##خرات
##خوت
##خين
##دوري
##رنس
##شراق
##ضحايا
##ضطرب
##علب
##غاية
##غرافية
##فتش
##فرغ
##فوض
##كري
##كريم
##ليب
##نتي
##وأظهرت
##وبينت
##ونحن
##ياه
##يتس
أبلغت
أسسها
أموالا
إحسان
إدوارد
اجهزه
استوديو
اعتبارها
اقتحمت
الأمازيغي
الإعجاب
الاتفاقات
الازهر
الاعتقالات
الاعدا
الالتهابات
الباكستانية
البشعة
التجهيز
التقدمي
الجابري
الحسية
الخطية
الراديو
الرهبان
الزوال
السره
السوا
العقدة
العلني
القسطنطينية
الكيفية
المانحة
المتفوقين
المجزرة
المستقبلي
المصروفات
الملالي
النابض
بالإرهاب
بالحركة
بتغطية
بدرجات
بدم
بينة
تبرع
تدوم
ترويج
تزول
تنظيمها
جليل
خارجه
ساكنا
سطر
سميج
سيارتها
صبرا
طفولته
عدنا
علب
فتحى
فحتى
فيكتوريا
قدراتها
كتابتها
كلين
لازالت
لحرب
لرصد
لزوارنا
للإقامة
للتأكيد
للمستشفى
للمواقع
لمطالب
ليشمل
ماضية
مردود
مكافآت
مواجهته
نفع
وأفريقيا
واصبحت
والأزمات
والازدهار
والاعتدا
وبذل
وتأثيرها
وتخفيف
وتقبل
وجع
وخطة
ورجع
وسقط
ومحاسبة
يغسل
##إمكانيات
##إهانة
##بعه
##تضح
##تقرر
##تورط
##توضأ
##ثيل
##جله
##حجة
##حقة
##دش
##ذبذب
##زعاج
##زنا
##سبوع
##ضيافة
##غط
##فاؤل
##فما
##كتسب
##كيت
##لدينا
##لوان
##وعند
##يقه
##يلو
أمتنا
إخراجها
إردوغان
إضافات
احساس
ادارية
استخداما
الأسترالي
الأصمعي
الأموات
الإشعارات
الانفاق
البروستات
البياض
التشيك
التمثال
التوطين
الحاليين
الحركية
الحزبي
الحشيش
الحنفي
الدافئة
الدوران
الرصيف
الرملية
السيل
الشمع
الضياع
الفدا
الكيزان
المؤدي
المؤسسي
المؤهل
المراجعات
المسارات
المفاجئة
المقبول
المودة
النيجيري
اوضاع
بإحسان
باقية
بالكتابة
بترتيب
بتعليم
بخميس
بصره
بمعزل
بنما
تخفف
ترون
تستمتع
تسليمها
تشييع
تمد
جاره
جنسيات
جيشه
حزبية
حضروا
خارجا
دريد
ذكرناه
رؤوسهم
رحبت
رشدي
سفيرا
سيجري
شادي
شاهدوا
شبابه
شيما
صبي
غرابة
فالأمر
فوضع
كتاباته
كروز
لألعاب
لأية
لإحداث
لادارة
لجأت
لفيلم
لقضايا
لمدير
لوحدة
لوحدها
محاولتهم
منطقتنا
موسع
نختار
نسي
نعلن
هيلاري
وأفكار
والأشخاص
والتأثير
والفاكهة
والوفا
وخفض
وطرد
وعدة
وعقب
وقرارات
ونهب
ويعرض
يخصص
يمارسها
##إبادة
##إشراف
##ئام
##ئقة
##المنتدى
##بدع
##بلور
##تسابق
##تطيع
##تعداد
##حهم
##دهن
##سائق
##طفا
##ظافة
##عاود
##علامة
##عوق
##فوائد
##قوه
##نسية
##هك
##وتهم
##ودات
##ورها
##ويبدو
آمل
آنفا
أخو
أسمى
أسهمت
استيا
الأحرف
الألغاز
الارباح
الاستدلال
الاسماك
الافراج
الامكانيات
البدر
البصيرة
البقية
التكليف
التهوية
الثانوى
الجليلة
الخوري
الديمقراطيين
الصنف
الطوفان
الغار
القابل
القدسي
الكتيبة
الكربوهيدرات
المتميزين
المجمعة
المدهش
المرسلة
المستعمر
المطروح
الملازم
الموارنة
النشطة
الودائع
بأشكال
بالذهاب
بالمعلومات
برحلة
بطون
بفيروس
بلفور
بمهام
تحارب
تحتمل
تدبر
تراعي
تريكة
تسديدة
تشارلز
تشكيلها
تعريفات
تناسبك
ثياب
جمة
حبيبة
حرفا
حظا
حليف
خالق
خصومات
خلصت
داني
ديانا
رامز
راه
روش
سيظهر
طلبها
عدسات
عضلة
غابة
غفلة
فلوريدا
قتلهم
قرع
كورنيش
لأسعار
لأمراض
لشرطة
للتخطيط
للكويت
للوكالة
مأزق
مارادونا
مخالفا
مخدر
مدبولي
مستخدمين
نجعل
نهايته
هويتها
وإيطاليا
والأثاث
والأمة
والضعف
والفني
والمسجد
واليهود
وداخل
ورغبة
وعملا
ويحقق
ويشرب
يتبعه
يحبها
يستلزم
##آي
##إسناد
##ارتها
##بنية
##بيض
##تأخر
##تأنف
##تبدأ
##تحمل
##تصحيح
##تصفيات
##تهي
##ثين
##جديد
##حجز
##حجم
##خلل
##رادات
##ركت
##صادف
##عليك
##فح
##فيتش
##قطاب
##كتم
##واتهم
##وارتفع
##واطنين
##وتس
##يدر
##يقع
آت
آذارمارس
أحضان
أعمالا
إداريا
استايل
اكريليك
الإعلامى
الاصوات
الاعشاب
البلدات
الحاضرة
الحسنات
الحلاقة
الروليت
العواقب
العينية
الفارغة
القط
القعدة
المختلفه
المخضرم
المخلوق
المذكرات
المرأه
المصنفة
المعاصرين
المعالجات
المكسرات
المنشودة
انتقاله
بأربع
بإجراات
بافتتاح
بالأمان
بالقراة
بجراح
براعم
بياناتك
تتضح
تقابل
تكامل
تهرب
توقعاتنا
ثوار
جاهزية
حاز
حرائق
حرمت
خاضها
خصومه
دجنبر
ديسمبركانون
راغب
سادت
سينمائي
شواهد
غلب
فولفو
قبلكم
قريبه
لتقوية
لغوية
للطي
لنهائيات
مأمور
ماض
مراقبون
مقابر
نبارك
نشوب
نهي
وأحدث
واتمنى
والشر
والطيور
والعادات
والنائب
وتجربة
وجده
وجميل
وشر
وشملت
وعربية
وفعل
وقيمة
ومكاتب
يتكلمون
يخلص
يديها
يهبط
##أحوال
##أسس
##اجب
##ايب
##ايتها
##تاتور
##تخابات
##ترداد
##ترو
##تطبيق
##تقوى
##تكشاف
##تهرب
##جدية
##حشا
##ختص
##دئة
##ذاذ
##رمز
##زيغية
##صوب
##طش
##طفال
##عابير
##عزم
##عسل
##عمارة
##عيل
##فاف
##فتك
##فتى
##فش
##قوش
##كتاف
##مرات
##مرت
##مشروع
##هامات
##وابة
##وسا
##يقات
أضا
أوغندا
أوله
إزالتها
اخبارية
ارجع
الأسمدة
الأصليين
الإعصار
الاجوا
الاحساس
الانتفاع
الباكستاني
التنس
الجناة
الجيوب
الخصر
الخطابي
السائحين
السرور
الشعبين
الشوائب
العواصم
الغيبة
الفيضانات
الكسارات
الكلاسيكي
المذهبية
المرئي
المسابح
النجاحات
انتحاري
انتهاكا
بتاع
بتصوير
بقصة
تابعا
تجاوزها
تجلب
تحويلات
تشرح
تكتشف
توقيعات
حراج
حس
رسل
زمزم
سامرا
صد
عاتقه
عاطل
عبدي
عرابة
عربيات
عظمى
غمار
فاسدة
كونهم
لائق
لدن
لسحب
لسيارة
لقوا
للعدالة
مبالغة
متواضعة
مستحقات
مقبولا
مكروه
موسيقي
نارا
نجله
نخرج
نسائي
والألوان
والانتقال
والحذر
والدمار
والغريب
والغضب
والملك
والممارسات
والممارسة
والنصر
وتتمثل
وتثبيت
وتقنيات
وتوقع
وجلب
وحينها
وستين
ومش
وموقف
ويحدد
وينصح
يديعوت
يرتكب
يصرخ
يعلمه
يقينا
ينتبه
ينخفض
##أمير
##انج
##برغ
##تحديات
##تمسك
##تونس
##ثيم
##جالس
##جلد
##حتفالات
##حتيال
##حظه
##حملة
##خزن
##دعت
##سعة
##سويات
##شمس
##ضيا
##ظبي
##قلعة
##قنوات
##قيب
##كفر
##لبية
##مئة
##هندس
##وبنا
##وتا
##يتة
أحبك
أسعارها
إثم
إنتهت
ار
استعداده
استعدادها
الأدعية
الإثم
الاسر
الجبوري
الحواسيب
الخاطئ
الدويم
الذروة
الرابطندعوك
الستلايت
السنتين
الشهوات
الضوئية
الفطور
القرأن
القميص
الكحولية
الكرم
المؤيد
المتوفي
المرموقة
المسائية
المقومات
النزعة
انقسام
اهله
اهلها
بالقضية
بكونه
بمواد
تركيبها
تسليمه
تلميع
تمدد
ثروت
جذورها
جعلهم
جنون
جيت
حلة
درمان
رجح
ريختر
سبوتنيك
شم
صلابة
طلوع
عارمة
عبوات
عواطف
عياض
غادرت
غلط
فاسد
فبينما
فقتل
قادت
كتبته
لاحقة
لاستيعاب
لتوجيه
للحوثيين
للدلالة
لمستويات
متميزا
مشاركتهم
مشتبه
مطبوعة
مناف
ميوزك
وأحكام
وأخبار
وأسلوب
وأعرب
واقتصاديا
والتصاميم
والتمويل
والعالمي
والمثقفين
والمخرج
والمدنية
وبالذات
وبدعم
وتأكيد
وتقاليد
وعرفت
وعمال
وقمت
ومصادرة
يانغ
يستحيل
ينذر
##القاهرة
##تجدر
##ترات
##تهلاك
##ثيمات
##جاهد
##جنس
##حرب
##حكاية
##رقية
##زوم
##علاج
##فتخر
##فذة
##قولة
##قونات
##لبة
##ناول
##نيس
##هبة
##يرها
##يزان
أصدقائي
أضع
أهالى
إخباري
إطلاقه
إماراتي
ابنتي
ارتدت
استغرق
استغرقت
اقرار
الأزهار
الإبلاغ
الاقتصاديين
الباعة
التعريفات
الثانيه
الجسور
الخالص
الرضع
السياج
الشمالى
الضائع
العائدة
العزيزة
العوائل
الفنا
الكروية
الكيماوي
المؤثرات
المعز
الهدي
الوكالات
بأغلبية
بالاعتدا
بالدول
بالزيت
بالعلاقات
بالفساد
بالكاد
ببيان
بحار
بدافع
بدورهم
برتبة
بمظهر
بمقدم
تحرم
تذوق
تشريعية
تطويره
تقاسم
جاهدا
حاسما
حتفهم
حريته
حيثما
خاليا
سلا
سنجار
صدقت
طاقته
عسكريين
غزال
فاعلا
فبرايرشباط
فتحات
فريدا
فضح
ففى
فوجئ
فية
قياسيا
كارفور
كلمه
لإرسال
لذيذة
لف
لكلا
للانتقال
للجبهة
للقوة
للمسجد
للمنافسة
لمبدأ
ليستر
ماسك
مترجممشاهدة
مسئوليتها
مستعمرة
مسعدة
مسلحا
مضر
مظللة
معانيها
معتمدا
ملأ
مناحي
نيته
هانى
وادارة
والاستماع
والترحيب
والجرائم
والمصريين
وباتت
وجميلة
وحاولت
وحماس
وخطط
وده
وسجلت
وسقوط
وصرف
وطالبات
وفود
وقوى
ومقتل
ويتكون
يعانى
يقاتلون
يملكه
ينتقد
##أصوات
##ادنا
##تصاص
##تظم
##تقيم
##ذير
##رجي
##رني
##رهان
##روى
##زام
##صحرا
##صدى
##طلا
##عاطي
##غريد
##فيع
##قتصار
##قشر
##كاس
##مص
##ميزات
##نجو
##ندعوك
##هنات
##ونت
##يست
أخبره
أدائه
أشكالها
أننى
إشعال
ابيب
استخدمها
الأزمنة
الإلتزام
الاشهر
البدعة
التوضيح
الخدري
الرياضالرياض
السلالة
السماوي
الصينى
العاديين
العبرة
الكريهة
اللوحية
المزودة
المسنين
المصاريف
المقدسات
المنافسين
المنوره
الموروث
الميديا
النضج
امتياز
بإعطا
بالجوع
بالوقت
بالونات
بتركيب
بتقدير
بتنسيق
بجهة
بطرد
بمشاهدة
تتأكد
تتبعها
ترتكب
تسجيلها
تسميتها
تطول
تولت
ثقب
جديا
جيبوتي
حرصه
خمر
شيعية
صاحبنا
صدفة
ظنا
فقبل
لتولي
لعشاق
لقبول
للترجمة
للسماح
لمواقع
مباشره
متناهية
مخلصا
مستشفي
مستقلا
مسجدا
مضمونة
مقبلة
مقتدى
مكالمات
مكوناته
ميتة
ميداني
نسونجي
نورة
هني
هوائية
وأطفال
وأهداف
واجتماعيا
واعتقال
والأربعين
والسلاح
والفرح
والمحيط
وحمامين
ودعمها
وسيد
وصندوق
وكبيرة
ولغة
ومصعد
يخبر
يستحقون
يعامل
يعتمدون
يفضي
يفكرون
يمتلكها
يملأ
ينقسم
##أسنان
##ؤكم
##ابط
##ابن
##الحمد
##بادرات
##تدبير
##تشعر
##تنقل
##توس
##جادة
##حلل
##حمية
##ختفي
##راغ
##رالية
##رتدا
##ردت
##زحف
##زيمات
##سحر
##سفن
##شجار
##شخاص
##شقاق
##صناف
##ضليل
##عوان
##فاس
##فاوض
##كتمل
##كواد
##لسلام
##مبو
##وائية
##ورط
##ورك
##يرته
أبها
أصيلة
أعياد
أيتها
أيدينا
إحضار
إسترليني
إنو
اتمام
احتياطي
احدا
احلي
اسلحة
الأصعدة
الأعيان
الأنماط
الإغلاق
الإنتها
الايجابي
التجاعيد
التهميش
الجائر
السلوكيات
العاج
العاقل
العزف
القوافي
الكبر
الكيلو
اللهو
المجنون
المرئيات
المطرية
المعوقات
المقاصد
النسوية
الهياكل
انجليزي
انضمت
بالبشر
بالعملية
بشخصية
بصمات
بمكافحة
بيعه
تتعدد
تحليلية
تدميره
ترافق
ترقى
تسليما
تصلي
تعبيره
تقدموا
تيارات
جاري
حادا
دايما
ربحية
رسمت
رقيق
زاهر
زعزعة
سرعات
سنكون
شاهدنا
طاعته
عسر
عقلا
فرصه
فقيه
قذيفة
كلاسيكية
لأزمة
لاستهداف
لالتقاط
للأمر
للبنين
للترويج
للقناة
للملابس
للنيابة
للوقت
معقد
مفر
مقدسة
ملال
نسق
نسمح
نهايتها
هايبر
وأفادت
وأنشطة
وأهلها
والباقي
والتضامن
والتمسك
والرقابة
والشيعة
والكشف
ورأس
وسوا
وسوم
وطريق
وكلمات
وكلية
ونأمل
ونظيره
ونور
يسرق
يشكو
ينصب
##أنف
##أين
##ؤرخ
##إدراك
##إصرار
##اطا
##اعى
##اهية
##بادر
##تأليف
##تبد
##تحدي
##تزين
##تشهاد
##تعجل
##تغنى
##جهاض
##حاجات
##حاط
##حاطة
##خامسا
##خطف
##دقة
##دنة
##ديها
##روق
##ريان
##زدهار
##زيارة
##زيز
##سبي
##سكندرية
##شوش
##صدرت
##ضطهاد
##طط
##طورة
##فاجأ
##فتتاح
##فيق
##قاظ
##قيات
##كذب
##كله
##لئ
##لطف
##مثال
##نسبة
##نقص
##وحد
##ونوه
أجبر
أزهر
أشعار
أعده
أمامية
إربد
إنت
الأقمشة
الأكاذيب
الإذن
الاهرام
البنين
التجول
التراخيص
التفريط
الجرأة
الجوز
الدارسين
السيادية
الغدير
الفخر
المختلف
المعتدل
المكالمة
الوافي
امتلك
امكانيات
باص
بالإنسان
بالحد
بالصوت
بالفرنسية
بالمزيد
بتحديث
بتكليف
بفحص
بناية
بيس
تعانى
تقلبات
تلائم
تنوعت
تواصلت
توسعة
حرفيا
حسنين
حكومتنا
حلوه
حيفر
درهما
دواعي
ذكروا
ريا
زيارتك
ظاهرا
عالقة
عضوة
عينها
فصلت
فكنت
فيهن
قشر
قيامها
كرر
كوفي
لأخر
لإيقاف
لاجهزة
لبيت
لتثبيت
للأردن
للأسهم
للفيس
للمشاكل
مختلفه
مرتبطا
ملابسه
ناجحا
ندى
وإثارة
والاتفاق
والبنوك
والفرز
والكراهية
والمهتمين
والندوات
وتأسيس
وجدان
وجدي
ودراسات
وردي
وسيادة
وسيارات
وشعر
وعلاوة
وعليهم
وغرب
ونشرها
ويحصل
ويسمح
ياس
يباع
يحتذى
يراقب
يرث
يرعى
يصادف
يصرح
يعارض
يعتبره
##أشجار
##تبدو
##تبقى
##تدخل
##جريح
##جزا
##جهات
##حرام
##خالف
##خرب
##دراج
##راني
##رجت
##شترى
##ضمون
##عاجل
##عروس
##عزى
##عنصر
##فاهيم
##قتحام
##قدمة
##قيته
##كوس
##نبه
##نيوم
##واضيع
##وبيل
##يروت
أبقى
أتباعه
أحيان
أخته
أصلية
أضحى
أضيف
أقساط
اسقف
اشتري
الأوهام
الاختلاط
الاضطهاد
التحفظ
التقا
الجمود
الخناق
الدعاوى
الرش
الشائع
الشيباني
الصربي
الطليعة
العمالقة
الفدرالية
القرضاوي
القشرة
الكاريبي
اللحية
المرج
المعونة
الوسطي
بابكر
باحدث
بالخطأ
بالمحكمة
بالموت
بطنه
تبذلها
ترضى
تروج
تهجير
تيريزا
حزبا
حليمة
خطى
داريا
دبى
ديالى
رور
سفريات
سيصل
شارل
شهدها
صاروا
صاروخية
طلبنا
عشت
عصبة
علني
علنية
فراق
قادها
قران
كورس
كويس
لتبلغ
لتسجل
لتصفية
لسيارات
للقدس
لنصرة
متكئا
مخدرات
مرتزقة
مسلحون
منفردة
نجاد
نخلة
نفوذها
نومه
هدار
هدفي
واقعنا
والأم
والأمانة
والحاضر
والخيال
والدتي
والسير
والعدوان
والملفات
واليونان
وتصدر
وتنزيل
وعاش
وعملوا
ويزداد
يتبنى
يجر
يزيل
يعدل
يلغي
يلفت
ينشط
##اسق
##افل
##الون
##اينة
##بادل
##بتك
##براطور
##بوند
##تحالف
##تصب
##تقن
##ثت
##ثورات
##ثية
##حاز
##حبه
##حرة
##حلول
##خسارة
##دلع
##ذم
##رأة
##روبية
##شاهدة
##شوط
##طمة
##عبارات
##علو
##عنى
##فهل
##قفل
##قهم
##كك
##كيس
##لالات
##نفي
##وست
##يمات
آخذ
أبدت
أدم
أصفر
أطيب
أكياس
ألقاه
إخطارا
إنجازه
إيلات
احتراق
اضافات
الأفغاني
الأمريكيون
الاحكام
الانجازات
التسويقية
التقديرية
الجمالي
الدعوية
الذهني
الراحلة
الصب
الصينيين
الطلا
العينات
الفضيحة
الكاكاو
المؤرخون
المؤلفات
المتواجد
المحاسبي
المحتويات
المزعومة
المستثمرون
المضاعفات
المضيف
المغنية
المقاصة
المقياس
الملوثة
المناضلين
الميراث
بأزمة
بالفريق
بصنعا
بمعلومات
بيارات
تاريخا
تدع
ترشيد
تسخير
تسلق
تصديق
تطال
تعين
تكسب
تنسوا
جربت
حاضنة
ذهنه
رافعة
زد
سدة
سمرا
سياره
طالع
طبيعى
عائلتي
عبدربه
عزز
عينك
غيرة
فاصل
فرغم
كمين
لانو
للأكسدة
للاستهلاك
لمنتجات
لمنح
مبدع
متزايدة
معنوية
مفروش
منطقه
وأجمل
وإرسال
واخر
واعضا
والأجانب
والأسواق
والاستقلال
والاستمرار
والقومية
والمدرسة
والمعلمات
وبسرعة
وتلقى
وخسر
وفرق
ومسابقات
ووادي
ووقت
يؤسس
يجدد
يرحمه
يشمت
يضعها
يعول
يهتمون
##أته
##أرباح
##إيداع
##اتين
##ادها
##بئ
##بورت
##بيين
##تتميز
##تكبر
##تمكنت
##تول
##جاهل
##جزات
##حتوا
##حيم
##خفة
##خور
##خيارات
##دامة
##دفن
##ذمة
##رامة
##زدياد
##ستعلام
##سجون
##شتغل
##شيت
##طوق
##عضد
##عفة
##غيل
##فائدة
##قدمت
##قران
##قريب
##كائن
##وفق
##يران
##يسا
##يعا
##يمون
آسيوية
أبان
أريحا
أشير
إضعاف
إلياس
ابنك
اختتم
اكتفى
الأقلام
الأوليا
الابتسامة
الاصول
التعاونيات
التفصيل
الجرانيت
الحشرة
الخبيث
الدلتا
الزرع
الزمر
الشبيبة
الشرفة
الشمولية
الطغاة
العابرة
الفائض
الفضية
القتلة
اللغه
المأمون
المحاسبية
المحكم
المصاحف
المصداقية
النائية
اينما
باسعار
بالموافقة
ببغداد
بملف
بنائه
تراثية
تشريعات
تشكيله
تطير
تعدل
تفريق
تقديري
تقوله
تلقوا
تنفي
تيمور
جدعلي
حصولها
حملتها
خراب
ذهني
راضي
رقبة
ري
سنجد
شعبا
شوق
طرأت
طوابق
عناصره
فراش
فرس
فعالياته
فنجد
قصائده
كفى
كنانة
لأبحاث
لاجتماع
لتحليل
لشروط
للأوقية
للجزائر
للحضور
للطن
لنتائج
لوحظ
متحدثا
محرز
مخطوطات
مرورية
مزورة
مشبوهة
مفاده
ملعبه
مهتمة
نكتب
وأعظم
واستخدامها
والتقى
والمالي
والمعنى
وتدور
وحالات
وحوش
وسعادة
وفشل
وقضى
وكن
يراعي
يستوعب
يضعون
يكتف
يكسر
##ئش
##اعته
##العلامات
##تاز
##تخاب
##تطوع
##تهنئة
##تواجه
##جذاب
##حصة
##حفاد
##خليل
##ركا
##صدت
##طائرات
##طها
##عرقلة
##عطيك
##عمدة
##عنف
##عومة
##قراة
##كرز
##لدي
##للبيع
##متناع
##مط
##وحين
##وفات
##ياف
##يميا
أتوا
أفكارهم
أقارب
أمضى
أولهما
إقامتها
اتنين
احتراما
استقلالية
اعتذر
افرايم
الأحجام
الإكثار
الاثنان
البدل
البستان
التأمينات
التشجيع
الجداول
الجلوكوز
الرومان
السلطاني
الشاقة
الشبلي
العتبة
العجمي
القاضية
الكولسترول
الماجد
الماوس
المطور
المظالم
المظلمة
المقصورة
المقطوعة
المنشورات
الموظفون
الناصرية
بإمكانية
بالشيخ
بالعدل
بناها
بيكون
تسي
تصريحه
تفكيره
تقسم
تنتهك
جحيم
حريص
حقك
حيازة
خدمته
خلقا
دالة
دة
ذوو
راض
رقيب
زملا
سخرية
سيقدم
شكرى
طرأ
طليعة
ظالم
فصيلة
فقامت
كازاخستان
كافه
كيفما
لسلسلة
لعالم
لكيفية
للارتقا
متقدما
متوازنة
مجازر
مجتمعه
محدث
مصيرها
مكه
مناحيم
مودريتش
موسعة
ناقشت
نعرفه
نقطتين
هائلا
هزة
همسة
هوندا
والتجديد
والجزر
والجغرافيا
والكذب
واليا
وبعيدا
وتخزين
وجائزة
وخبرة
ولدها
ومحلات
يبارك
يرتكز
يري
يعشق
يفنه
يكتسب
يكرر
يكرم
ينفق
##أصدقا
##أطلق
##الخ
##الها
##اهرة
##برك
##تابة
##تحان
##تشكل
##تعاقد
##توتر
##تيني
##جدول
##حدود
##حقا
##رقب
##زارة
##ستخبارات
##ستغرب
##شاه
##شرك
##ضادات
##ضامين
##طبة
##ظهار
##عبارة
##غين
##فرون
##فندق
##قبيلة
##قتنا
##كأس
##كوك
##لني
##مجلس
##وبدأ
##ولف
##ووجه
##يعته
آنا
أناقة
إسحق
إشاعة
الأفراح
الإضافات
الاسماعيلية
الاشغال
الاغانى
الاهل
البرمجية
التأسيسي
الثوابت
الجنوبيين
الجهاديين
الجوهرية
الحياد
الخطايا
الراس
السمعية
الشتات
الشهوة
الصياد
العجيبة
العضلية
العيار
الغزال
اللاجئون
المؤهلات
المخازن
المديرين
المزاد
المستلزمات
المشاة
المشبوهة
المصائب
المنتمين
انس
بأعيادهم
بأيام
باسمها
باعمال
بالتوفيق
بالقران
بالكرة
بنائها
بنزيمة
تزور
تطابق
ثلاثون
ثواني
جامدة
جبن
جمهورها
حافل
حالهم
حبيت
خدامه
سياسيين
شحاتة
صنعها
طعاما
عقدين
فأولئك
فقل
قبوله
قرش
قلوبكم
قناع
قوافل
كابيتال
كعكة
كفالة
لاندرى
لتوحيد
للموسيقى
متسائلا
متينة
مدمرة
مرموقة
مسطحة
مشرفي
مشغول
مصابة
مضافة
معلوماتك
مغادرته
مقسمة
مكيف
مملوكة
نزهة
نعومة
نواجه
وآخرها
وأحب
والإداري
والتطورات
والتهديد
والمحلات
والنسائي
وتعادل
وسرداب
وكاتب
ومفيدة
يتأخر
يجرؤ
يخرجون
يزد
يستقيم
##آكل
##أفراد
##أوه
##ؤا
##إثرا
##بعات
##بكى
##تحليل
##تعدد
##توسط
##حتجاز
##حيرة
##خارج
##ختلاف
##خشب
##ركب
##شيه
##صالات
##صفه
##طرا
##ظير
##عرفه
##غتصب
##قتحم
##قديم
##قرت
##كبار
##كسار
##لونزا
##يروسات
آياته
أخيرة
أدبي
أرفع
أنشطتها
احلام
اشتملت
اصدر
اعتقالات
الاسلاميين
البراة
التدريسية
التكلم
الذمة
الظهران
العصير
الغروب
الفوزان
اللافت
اللذيذة
المالى
المتقاعدين
المراكب
المقدسي
المكسور
الناظور
الواجهات
انفجرت
بأقصى
بابه
باتا
بالثورة
بالجنة
بتفاصيل
بحديث
بصناعة
بفرنسا
بلطف
بليغ
تحيا
تسريبات
تسمي
تعالوا
حرمه
خارجيا
خيط
داليا
زواجها
ستر
صريحا
ضربه
ظهير
عروضا
عساف
عنتر
عينا
فصلى
فطلب
قلته
كاتبها
كبرت
لحمل
لريال
للتداول
للتعذيب
للفنادق
للمنظمات
مؤثر
مجاهدي
محققا
محول
مدرسي
مستخدما
مضافا
معالجات
معرفتها
مكسورة
مكيفات
هناجر
هونغ
والحصار
والغنا
والغير
والمسيحية
وانشا
وذاكرة
وطنا
وعادت
ومظلات
وواحد
يتبعون
يسلط
يسمون
يقاوم
##أرواح
##أسفل
##أنس
##أهمية
##التقى
##اهما
##تدور
##تصريح
##توكل
##جزي
##حمود
##حميات
##ذون
##رفق
##زما
##زملا
##ساني
##ستا
##ستشفيات
##ستية
##شتاين
##شرطة
##ظيم
##عجاز
##عله
##غازي
##غف
##غيا
##فرقة
##فيلد
##قروض
##قرير
##لترا
##لقة
##لوق
##ليوم
##هتمام
##هلة
##وده
آبا
أضوا
أكتوبرتشرين
ارحم
اصوات
اصيب
اضطرت
اعتبرها
الأسلاك
الأسمر
الأمرين
الأوسع
الإطفا
الإنضمام
البدوية
البروتوكول
التحسن
التدفئة
الترميم
التشويق
التعريب
التواضع
الحوافز
الحيطة
السعودى
السياره
الطباطبائي
العقلا
الغفار
الفصيح
الفضائل
الكوليرا
اللعبه
المتصدر
المحامى
المسال
المعمل
المقلية
النظير
الهادف
الهجرية
باتوا
بالخوف
بالمستوى
بالمشروع
بتأمين
بتدريب
برجا
بقوم
بكمية
بلوك
تبييض
تجعلنا
ترومان
تعريب
تعريض
تنظيمية
تيسر
ثغرة
ثورية
جرحى
جعلوا
جماهيري
حاجتها
حسبنا
حينذاك
ذكرهم
رسمها
سافرت
سبت
سلاحا
سيدى
شقرا
شيخة
شيكل
طويله
طياز
عاشها
عكرمة
غابات
فرانسوا
فيهو
قضوا
كفة
كلتا
لإسقاط
لاستئناف
لبيك
لسه
لشباب
لطريقة
لعضوية
لغرف
لقمان
للاجتماع
للجهود
للطرق
للمسلم
لهجة
متباينة
محاسب
مرشحة
مسكين
مصالحه
نك
وأسس
وارسو
والتبريكات
والجهل
والشرقية
والمتمثلة
والمستجدات
وحققت
وشكر
وطول
وقوعها
وليكن
ومحاولات
وواضح
##أحجام
##أسما
##أفعال
##إزالة
##ارض
##تفرج
##تكلف
##تنزيل
##تهريب
##تورد
##حريري
##خبير
##دعة
##ذور
##ريج
##زالت
##شعل
##ضف
##طرب
##عالج
##عبث
##عبيد
##علاف
##قلق
##قوض
##كمام
##كوين
##لكي
##مارات
##ياة
أبوابه
أردنية
أفني
أمنها
إجتماع
إرضا
إنزال
إنفاذ
اخرج
افتتاحه
الإسناد
الاستيقاظ
الاشتباك
الاعزا
الاقامة
التحف
الترقية
الجلود
الحوش
السفيرة
السين
الشبابي
الشرعيين
الصقور
الطحين
الفخمة
المصباح
المنطقية
المهدية
الهجمة
الهجومية
الولوج
باساب
باطلة
باعتقال
بالخدمات
بالدولار
بالعيد
بالقطع
ببراة
بترك
براحة
برلماني
بعشرات
بمبدأ
بمراقبة
تخف
تعبت
تفضيل
ثمانين
جمعتهما
حالت
خاتمة
راسل
رسالتها
رصاص
ركائز
رهيب
زحلة
سانا
سحرية
شاعرا
صليت
ضريح
طريقك
عشبة
عنصري
فقدوا
قدرتهم
قيصرية
كنتيجة
لعلما
للأسر
للا
للمراجعة
للمعرفة
للمنازل
لمواكبة
لهب
لوك
مبررا
متوافقة
مزاج
مزمنة
مستعدون
مقررا
ندري
هادئا
هب
والأمين
والاعتراف
والثورة
والحيوية
والشراكة
وثمة
وحث
وراق
وشعبها
وصفهم
وكلام
ومصدر
ومضى
ومياه
ويذهب
يخشون
يخل
يعرب
يكتبون
##آرا
##أثاث
##أساتذة
##أساس
##أسبوع
##إبلاغ
##اسبة
##اصرة
##اولا
##باي
##ثون
##ثيان
##حاسوب
##حباب
##حزام
##حساب
##حكومة
##حمة
##خرائط
##ذكرات
##راضي
##ريون
##سألة
##شري
##صداقية
##صيه
##ضريبة
##عسف
##غالبية
##فهوم
##قاضي
##كويت
##كياج
##لعالم
##لوت
##لوطن
##واقع
##وفرة
##يشة
آثاره
أثنى
أزال
أسا
أشرنا
أعدها
أوروبي
إثرها
إيضاح
ابعاد
اخترنا
ادعاات
ادوميم
اساليب
الأناجيل
الاحتفا
البرهان
البها
التعدي
التنوير
الجوازات
الجوده
الرهائن
الشاذلي
الشوكولاتة
العداوة
القطريين
المؤيدين
المتفجرة
المسؤوليات
المضيفة
المعلمات
امة
ايش
بأيدي
بالبرنامج
بالحكمة
بسرعه
بنيويورك
تاما
تتوجه
تجريبي
تشتغل
تطوان
تفاعلية
تقرب
تقلب
تكرم
جوبا
جيلا
حلمه
خطته
دخلنا
رافق
سرداب
سيمون
شغف
صخرة
صفاته
عاطفيا
عجرم
عزيزى
فوشيا
قمم
قولك
لإنجاح
لبقية
لقواعد
للتصويت
للتنسيق
للكنيسة
للمحاكمة
للنجم
لمؤسسات
مائل
ماو
متعاون
مخلص
مسؤولو
مساواة
مشيرين
مقدرة
مكيفة
منخفضا
نسر
نعتمد
نوره
هيروشيما
والبلديات
والثانوية
والرسم
والسرعة
والصالحين
والفوضى
والمسؤولية
والمشاعر
واهتمام
وباكستان
وتجار
وحرص
وروي
وسع
وكفر
يخلف
يسمعون
يمتنع
يمتنعون
##أزهر
##أغراض
##إستخدام
##إعفا
##ابك
##اقتك
##بساطة
##بنك
##بوية
##تاوي
##تخراج
##تستخدم
##تسير
##جناح
##جهود
##حاولات
##حتك
##حفز
##دماج
##رارة
##رحلات
##رضى
##رط
##سميات
##سهيل
##صابع
##صيغة
##ضها
##طلعت
##طماع
##عاها
##عتق
##عده
##عطيل
##عظ
##عكف
##قمت
##لشيخ
##للي
##وسوم
آبار
أرجع
ابتعد
اسانسير
استئجار
استخدامات
استطعنا
اشد
الأشرف
الإحصائية
الإصلاحية
الاستثنا
الالتفات
الانسجام
الاولمبية
البيولوجي
التقرب
الجامعيين
الجزئي
الجنازة
الخطيئة
الذباب
الرئيسيين
الرمزية
الزعبي
السينية
الشواهد
الصرح
الطحن
الطرب
العالميين
العبيدي
العتيقة
العدم
العهود
الفرائض
الكيك
اللبنانيون
الليلي
المأزق
المفسدين
المقتول
المواشي
الموهوبين
النحر
الهندسي
بالإعلان
بالخدمة
بالعملة
بشعبية
بشن
بطريقه
بوفيه
بيونغ
تبعه
تتصدر
تحبه
تدريباته
تزامن
تسال
ثمارها
ثوابت
جذري
جزئية
حافظت
حسون
حفنة
حوامل
حيلة
خداع
خر
ذى
رآها
زيوت
سقوطه
سمى
سودانيون
سيجد
شاليه
شبستان
شلبي
عريقة
عنوة
فرضتها
فقرر
قارن
قطري
قوارب
كاشفا
لأسرة
لإلغا
لتدخل
لتوضيح
للالتحاق
للحج
للطلب
ليا
مؤكد
محارب
مرافقة
مزج
مساعدا
مصحف
مغايرة
ملحمة
ميرغني
ميكروويف
نحوا
نمتلك
هياكل
وإغلاق
واستقبال
واستكمال
واقفا
والألم
والتهاني
والحلويات
والمعارف
والمواصفات
وانتقل
وبس
وتؤدي
وترفع
وتسليم
وحد
وختم
وداعش
وسريع
وشهادة
وضعا
وفاتها
وفيتامين
وقناة
وكمية
ويطلبون
يتناولون
يجعلهم
يحاسب
يرحل
يعتبرها
يعلى
##آخذ
##أقاليم
##ألقت
##ؤخر
##ؤى
##إتحاد
##إحترام
##إيجاز
##ارها
##بادى
##بتزاز
##بريد
##تاك
##تعثر
##تعقد
##تعلق
##تفق
##تلى
##تنافس
##جرات
##جلز
##حظات
##حوص
##ردن
##رنج
##زري
##ستعمار
##سوري
##شاي
##شحين
##شفع
##ضنية
##طاب
##عدو
##عقلية
##فئات
##فلونزا
##قترن
##كياس
##متها
##هوته
##واضع
##وديو
##ورود
##وعقب
أرضهم
أكثرها
أمانا
إخوة
اثبت
ادت
استخلاص
استراتيجيا
الأقطار
الإستفادة
الإستماع
الائتمانية
الاساتذة
التسربات
التفاعلية
التفرقة
الدوله
الرجم
الرشوة
الرقيب
الرواة
السهر
الشيرنج
العنان
العيادات
القداس
الكبائر
الكره
الكسل
اللحاق
المؤلمة
المتاحف
المتواضعة
المخاطرة
المسبقة
المطلوبين
المنازعات
المنفذة
الموالين
الموساد
اليسارية
انتبه
اولئك
اوليا
بؤرة
بالجامعات
بالمسجد
بتحليل
برأسه
بنور
بوتيرة
بولتون
تؤسس
تبدل
تتمنى
تجاوزات
تستوعب
تعاملت
تكتفي
تنقسم
جامعه
جريحا
جند
حربها
رمضانية
ريان
ستصل
سديه
سماعات
صدري
ضاع
طريقته
عندو
غيغابايت
فمات
فيصبح
قصي
قطرية
كغ
لايزال
لتسريع
لتقدم
لقطة
للاستماع
للصراع
لواقع
مأكولات
مبيعا
مجانى
مريضة
مساره
مصريا
منازع
منحى
نعاني
نفايات
نقش
نيوت
وأقرب
والأسلحة
والثلاثون
والسرور
والشهدا
والكبار
والمعارض
وتزداد
وحسين
ودليل
ورائها
وعلامة
وقصة
وقضية
وكسب
ونائبه
يدفعون
يزرع
##أجهزة
##أدوار
##أشهر
##أصبح
##أعرب
##ئوية
##برمجة
##تذوق
##تغني
##تمييز
##توريد
##حتما
##حميل
##حوادث
##ديكور
##رائد
##سعيد
##سمين
##شته
##صرخ
##صوا
##ضين
##عطلة
##قدور
##كيل
##لالة
##لاين
##لوس
##نزاع
##نقطة
##هزم
##وبينما
##ورق
##وضوع
##يطة
##يكو
أبيات
أدخلت
أفكارا
أكاديمي
إطالة
إنجليزي
إيمانهم
اخوي
ارفع
الأجنحة
الأخيرين
الأرمن
الإشاعات
الباسط
البالونات
البوابات
البولية
البوليس
التخدير
التعداد
الجزية
الحرج
الدعارة
السل
السهرة
السيوف
الشوفان
الطرابلسي
الطعم
العراقيون
العشرون
الفوتوغرافية
الكريمات
اللائق
اللقطات
المؤسسين
المراتب
المراقب
المربي
الملقاة
المنسوبة
المنفذ
المهاجرون
المهملات
النمطية
الهمم
الهموم
الهواة
باقات
بالحبس
بتصريحات
بجماعة
بجنيف
بحكمة
بلاغات
بيير
تتعرف
تشرب
تشي
تلت
تمنى
جسمها
جوناثان
جوهري
حاولنا
حدوثها
حواره
خاف
خريج
خيل
داون
رحمهم
رم
سعدون
سلب
ضخما
ضيافة
طائفي
طيف
غداة
غوش
فاق
فبعض
فقالا
فيقولون
قاصر
كبد
كسي
كونج
كونوا
لأفراد
لإصابة
لاستغلال
لحدوث
لظهور
للإشراف
للتعاقد
ماركات
مدربة
منكر
موقفهم
نقية
هيهات
وأدت
واش
والأحاديث
والأحيا
والإعلان
والإمام
والتمييز
والحكومات
والعقد
وجلس
وحش
وخيمة
وركوب
وزارية
وعشرات
وفن
وكاد
ومؤسساتها
ومقرها
ونحوها
ونقلها
ونهاية
يأتيه
يأكلون
يتعاملون
يروا
يريدها
##إسهام
##اختر
##اعل
##الد
##بورغ
##تاتورية
##تاني
##تسوق
##تلق
##تهل
##توحد
##حرض
##داب
##دكتور
##ذكرة
##ربيع
##رما
##زمت
##سرح
##سلطنة
##سيارة
##شيف
##صفا
##ضطربة
##طمح
##ظي
##غلقت
##فعي
##فيون
##قراط
##كوادر
##لندية
##ننا
##واعظ
##واكب
##وحذر
##وقية
##ولية
##يعمل
##يفية
##يليا
أكادير
أكانت
احتفلت
احتياجاتهم
استضافت
اقوم
اقيم
الأبصار
الأتربة
الامتثال
الاناث
الاهم
البقدونس
البيروقراطية
البين
التحريم
الجموع
الخلاقة
الخمور
الداعي
الدرامي
الرتبة
السعود
الشاحنة
القراصنة
الكسر
اللحام
المحبوب
المحتجزين
المحذوفة
المحمود
المقولة
المكتسبة
النثر
الندم
الهلالي
الوحشي
باقل
بالشبع
بالوطن
باليرمو
بخروج
بخمس
بضائع
بعمله
بمعالجة
تأت
تبدا
تبرر
تتفاعل
تحتسب
تخليص
ترعى
تصلب
تطمح
تعطيك
تقصف
تمكنها
تنته
تهييج
جانفي
جونغ
خلابة
رايس
سنية
سياسى
شفاف
شمسية
صعدت
عبدالقادر
عزير
عكاشة
علاجية
فرأى
فراشه
كتابك
كتابها
كشك
كفارة
كلو
كوك
لباقي
لربما
للباحثين
للدفع
لمقاومة
ليبدأ
ماتوا
مبدئيا
متوجها
مدحت
مصرفية
مكشوفة
ممرض
منبج
ميسرة
ناشط
ندوات
نقلهم
وأسباب
وأمه
والأمل
والشمس
والفرص
والمتعة
والمرسلين
وبأسعار
وبلاد
وتأثير
وجزر
وسعة
وصعد
وقتلوا
وو
ويوضع
يحكموا
يخطئ
يذهبون
يزن
يمينه
ينتفع
ينسجم
ينعم
##أدى
##أضرار
##إختيار
##إشراك
##إنشا
##ئشة
##اريا
##اريخ
##اعيل
##السابق
##تسلق
##تيها
##ثروبولوجيا
##حاسبة
##حاصل
##حترام
##حدر
##ختصاص
##دوز
##راجع
##راي
##رحة
##رواح
##زلي
##ستفتا
##صطاد
##صناعة
##صنيف
##ضاعة
##ضامن
##ضايقات
##ضرع
##طلاقا
##طمر
##ظالم
##عالية
##عيه
##غتها
##غذي
##فريقية
##كبات
##كتنا
##لاوة
##لحظ
##ناظر
##نتاج
##نجي
##نفر
##نكم
##هارات
##واقف
##وعليه
##يقوم
أتكلم
أقف
ألما
أمرك
أنصاره
أهدافا
إضافيا
إلزام
إنتر
اربد
ارتفاعها
اطلاع
افتراضي
الأشعري
الاضحى
الاهمية
البترا
التزامه
الثانينوفمبر
الحصى
الرحال
السلوكية
الشد
الضحى
الطيرة
العبري
العجل
العلف
العواصف
الفاسي
القارية
الماشية
المعاقين
المفقود
المقرب
المماليك
المنوعة
المهاجمين
المهمه
الموثوقة
النظيف
الهاوية
الهمة
الوجدان
بأمن
باستقبال
بالاعشاب
بالجهود
بالذي
بتقدم
بسقوط
بظهور
بقواعد
بكاملها
بمئات
بيدك
بيريز
تتنوع
تخطى
تصر
تضامن
تضامنا
تعيشه
تنظيمه
تونسية
ثار
جبيل
حلوى
دعمهم
رمسيس
رومانسي
زرقا
سانتا
ستجري
سيتى
شركته
شفرات
شيكاغو
طالبي
عائلتك
عبدالمنعم
عرسال
عسيري
عصب
عمرة
فإلى
فصلا
فنلندا
قشرة
قواتنا
كراج
كرد
كريس
لبنك
لتسويق
لغز
للطعام
لموظفي
لهواتف
مؤرخ
مؤلفاته
مارسيلو
مانديلا
متمثلة
معر
معوض
مواقعهم
مواقفها
موعدها
نائبه
نحافظ
نحوها
نما
وأحسن
وأظهر
واختار
والإقامة
والحاجة
والحل
والرعب
والطبية
والمصالحة
والنمو
وجمهورية
وعالمية
وفضل
وفقد
ومتطلبات
ونقله
ونوعية
وهدم
ويدفع
ياباني
يبادر
يتصف
يتوافر
يحسم
يخافون
يزعمون
يشهدها
يصوم
يقتلون
ينتصر
ينظمها
##آلية
##إرتفاع
##إصابة
##ئعة
##ائض
##ازل
##اميك
##انك
##ايدة
##باشر
##بذ
##تثمار
##تفاوض
##ثلاثا
##جرم
##جلات
##حتها
##حجب
##خبط
##داك
##ذاق
##راديو
##راع
##زايا
##سالة
##سيرة
##شبك
##شركه
##شلل
##صره
##صفقة
##صيص
##ضور
##عاطى
##عورة
##عويل
##عيان
##فأ
##فزع
##قانون
##قتباس
##قدت
##قصات
##قوة
##لحق
##مري
##مطار
##نسخ
##هجر
##هينة
##ويتر
##ويف
##يحا
##يوني
أتاح
أنجزت
إحلال
إسمه
إياك
اجتمعوا
احتياطية
احدي
اداره
اقوي
الاثني
الاحتمال
الاستثماري
الانحياز
البكري
التزم
الجامعه
الجنه
الحمدلله
الخصية
الدكتوراة
الرماد
الروعة
الزقازيق
الزوجان
السليمانية
الشعبى
العاشق
العلماني
العمدة
الفاحشة
الفاروق
المتاح
المتعدد
المجمل
المدعوم
المعادلات
المليئة
اليابسة
امتنع
بألف
بألم
بالبطولة
بالتوازي
بالكهربا
باللغتين
بالهيئة
بدما
برودة
بضبط
بطريرك
بعلاقة
تابعت
تتراكم
تتناك
تريدين
تستخدمه
تلاها
تنظيفها
جدارة
جهده
جيشا
حراري
ذوى
رافقت
رفاقه
رواتبهم
ساري
سليما
شبر
شعبى
شمولية
طابق
طرطوس
عرفتها
فرانك
فلتر
فهمها
فياض
كأداة
كائنات
لأمير
لإخراج
لتجد
لتصوير
لدائرة
لزاما
لغته
للاستشارات
للبيانات
للحب
للحيوانات
للقاهرة
للمرور
متطور
مثقف
مشجعي
مشروعية
معرضة
مقاليد
مقره
منسوبي
مهاراتهم
موسمه
نبيلة
نحل
نزلا
نزوح
نطلق
نقض
نهائى
هزاع
هون
وإظهار
وإليك
والتهاب
والصناعية
والمرح
واوضح
وبطريقة
وتجد
وحمايتها
وزنك
وعاصمتها
وعجائب
وفساد
وكرامة
يابانية
يخفض
يستقر
يسي
يضغط
##آبة
##ؤهل
##إخبار
##إستثمار
##إنفاق
##اوا
##باري
##باعة
##بمجرد
##تبناها
##تجارب
##تخب
##تدهور
##تضاف
##تقرير
##جته
##جتياز
##حراز
##رائع
##سيان
##شتراطات
##شحات
##شرق
##صو
##طارد
##طاعة
##طبات
##غلوطة
##غمض
##فردة
##قبه
##كبت
##كيز
##لشرا
##لشعب
##مشاهد
##مصنع
##ملابس
##نصيب
##نفى
##وافر
##وتقدم
##وصيف
##ويض
##يحتوي
أخرجت
أخلاقيا
أرسله
أسطح
أسقطت
ألحان
أولادهم
إبداعية
إحداها
إنهما
اتى
اختاره
اخطا
ارضية
اسرائيلية
الاذاعة
الامبراطورية
الانعقاد
البارزاني
الترابط
الثانييناير
الجيب
الحاويات
الحركي
السكران
العربة
القرطبي
الكنز
الكواليس
المتشدد
المراسل
المساكين
المعينة
المقبولين
الموجوده
النجمات
النفع
النفق
الهازيدية
الهيثم
الواقعي
انثى
بالتركيز
بالتوجه
بذريعة
بسلوي
بسياسة
بطاريات
بفعالية
بقطعة
بمنتهى
تحولات
تدخلت
تغييره
تغييرها
توبة
جدن
جراند
جميعنا
خبيثة
دخله
دينك
رايت
رتب
رود
ستؤدي
ستون
سمعان
سيدني
شبوة
شددت
شكوك
صراط
طوعا
ظلمة
عدوى
عضويته
علوش
غريمه
فارغ
قفزة
لائقة
لاس
لاستكشاف
لثورة
لحس
لسلطة
لقبه
لكانت
لكلية
للأمراض
للضرب
للغرب
للغير
لنمو
ليخرج
ليرى
ليهم
مايوأيار
مجلدات
مسببات
مسميات
مشروبات
مصدره
مضمونه
مظلم
معاهد
معتصم
مقاولات
نظريا
هجومية
ههنا
وأحداث
والسجاد
والعلاقة
والغبار
والقتال
والمطالبة
والمكاتب
وحدد
وخارجه
وشبه
وطلاب
وعمره
وقوية
يختلفون
يستعيد
يشق
يعلو
##أهالي
##ؤازرة
##ؤسسات
##إبراهيم
##إيقاع
##اخل
##اسك
##اسى
##باركة
##بحر
##بدت
##بره
##بلاغ
##تأثير
##تند
##تنزل
##توح
##تيلا
##جموع
##جهز
##حتقار
##حريات
##حياة
##ختبارات
##دوم
##ذو
##ركون
##زاح
##زاي
##ستعداد
##سكينة
##شتراك
##عسير
##عناية
##عيرة
##غصان
##فعاليات
##فلين
##قاسم
##لايت
##لكه
##مكين
##وانية
##وفين
##ولن
##ونز
##ياح
أتاه
أزواج
أسبوعا
أسطوانات
أصلح
أميال
أيه
ارهابية
استحالة
استعاد
الإخلال
الإلكترونيات
الاوقات
البيطري
التأريخ
التحمل
التصميمات
التقيت
التكفيري
الجزائية
الحرق
الحسا
الحصانة
الدش
الساحقة
الشهرين
الصدقات
الصدمات
الطبقي
الطوب
الطيارة
العجلات
العصيان
الفهد
القمعية
الكاريكاتير
الكورد
المانع
المثبتة
المجفف
المدريديستا
المظلم
المقطم
الممرات
المنافع
الموزع
الناخب
النزيف
النظارات
الوسطية
ايار
بالأمراض
بالجيزة
بالرجوع
بالمرة
بالمعهد
بثها
برفق
بطلان
بكسل
بلير
بليون
بمحرك
بمفهوم
تحاكي
تحث
تحذيرات
تستثمر
تستوجب
تشغيله
تعامله
تفويض
تلقاها
توقيعه
توني
ثقتهم
جناته
حامي
حذرا
دخولك
رسامة
رقمي
ريشون
سنتيم
شاليهات
شباطفبراير
صحن
طوني
ظلام
عده
غوريون
فاقد
فاننا
فجوة
فخمة
فطيرة
فعالا
فنانة
كرت
لأخيه
لأهالي
لاجرا
لايمكنك
لتحديث
لتعود
لخطة
لقوانين
للعاصمة
للمسرح
للمكتب
ليبقى
ماركو
محرمة
مزعجة
مسؤوليات
مسافات
مشاعره
مشى
معلمات
مكتبي
ميفو
نعمه
نهاد
وأعلى
واردة
وتضمنت
وتضيف
وجديد
وزارته
وشعب
وعده
وفقه
وليا
ومثلها
ويقدر
ويقلل
يؤكدون
يستهلك
يعيق
يقدموا
##أحكام
##أدوات
##أعتقد
##أني
##اشى
##افى
##انس
##برح
##تثمر
##ترأس
##تقارير
##تقنية
##توفى
##خاذل
##خيف
##رئ
##رخيص
##ساهم
##سمو
##سوم
##شتا
##شتمل
##شفت
##طاس
##غرفة
##مطابخ
##مواقع
##نجا
##وشددت
##وهة
##يقا
أبريلنيسان
أختها
أستانا
أفيغدور
أيوفي
إسرائيليين
ارطغرل
اقدر
الأرثوذكس
الأعمش
الأنيقة
الإختبارات
البثور
البنفسجية
البنكرياس
التسامي
التشطيب
التل
التوصية
الحوكمة
الخلقية
الراعية
السعرية
السلط
السميع
الشقيقين
الصخرية
العلنية
العلويين
الفاخر
اللتان
المؤيدة
المتاعب
المحب
المزيفة
المفروش
المفصل
الملحقات
الناشئين
الوافدة
الوردة
انتقا
انذاك
باطلاق
بالتوقيت
بالثقة
بالحزب
بخبر
بدنية
بريش
بسنة
بصوته
بعلاقات
بقرارات
بمال
بمقاطعة
بواسع
بودرة
بيج
تايوان
تداخل
تذكير
تراوحت
تربوي
تغادر
تلبس
تمثله
تنفذها
تنقطع
ثمينة
جزيلا
جلاله
جلدية
حاكما
خصبة
خمسمائة
ربها
رحت
رسولنا
سبلة
ستواصل
سحابة
سكوت
سيدفع
سيكونون
شاف
شجاع
شرائها
شفافية
طبيبا
طبيبة
عزلة
عصري
عمرا
فنقول
قفص
قوامها
كاميرون
كدا
كونا
لتمرير
لضحايا
لليلة
ليوسف
مؤمنين
ماجدة
مبررات
مثيرا
مرخص
مستر
مسلية
مصريين
معايا
معرفية
معنويات
مفاجآت
مقنع
ملتزم
مناطقهم
نائبة
نجوى
نرسل
نوفرها
وألقى
واستمتع
والإخلاص
والإعلاميين
والتجاري
والدراجات
والشقق
والفقه
والفلسفة
والمهني
وتعليمات
وثقافيا
وجرائم
ورشات
وسد
وظيفية
وعرضه
وفعال
ولاكن
ومبادئ
ياهو
يتمسك
يحفز
يدعمه
يرحب
يقوي
##أدب
##ألعاب
##إشعال
##إطعام
##إيذا
##ابانا
##ابز
##اصة
##اطس
##اطين
##الخبر
##بص
##بنات
##تجاوب
##تخبط
##تسليط
##تغيرات
##ثلج
##جاور
##حتساب
##حضار
##خالفة
##خدير
##ذته
##رتك
##ريين
##زعت
##زهر
##سرية
##سود
##شجرة
##شهاد
##شيح
##صابة
##عامة
##عتراف
##عقار
##غواي
##فضح
##قاعة
##قدا
##قطب
##قوام
##مبي
##مرا
##موها
##نقاط
##هانة
##وائل
##واجهة
##وبر
##وفاة
##ولها
##ويس
##يئات
أبدأ
أجدد
أخف
أرضنا
أسبابه
أسقط
أعرض
أعرفه
أمامة
أمريكيا
أمواج
إخضاع
إرادته
استلم
اشتغل
الألبوم
الأنا
الالكترونى
التا
التفعيل
الثرا
الجارودية
الحزمة
الخلوي
الخمسينات
الخندق
الربحية
الزائفة
الزهد
الساقين
السباقات
الشعائر
الغرق
الفوليك
الفي
الكترونيات
الكنسية
اللاجئ
المتصفحات
المحيطين
المدرج
المدرجات
المذيع
المرخص
المشفى
المعدلة
المفرق
المكلفين
الملاحظ
الممتعة
المندوب
المهبوله
الوسوم
بالألوان
بالبحر
بالبريد
بالثقافة
بالدعوة
بتفجير
بطي
بعام
بلدك
بمكتبه
بموقف
بوجوب
تدرج
تعرفون
تفشل
تقاوم
تلد
تملكه
تنضج
ثبتت
جاؤوا
جالكسي
جبارة
جديرة
خارقة
خزينة
دخولهم
دقيقا
دلتا
رافضا
ربا
رهان
ساحر
ستعقد
سخر
سكاى
سكايب
سمعتها
ضمنهم
طبيعته
طوائف
عزيزتي
عهدا
غرفتي
غنائية
غنم
فتهنئتهم
فرحان
فشله
فشلها
فصارت
كذبا
كروس
لاتزال
لانتاج
لتدمير
لقائمة
للإتحاد
للإجابة
مستدامة
مصاف
معبرة
معزولة
مفوض
مفيش
مقاييس
مكتبات
مواجهتها
ميعاد
ميغا
نشط
نضمن
واحدث
واط
واعية
والأخلاقية
والالعاب
والتقارير
واللوائح
والنباتات
وتعطي
ورعاه
وسكون
وليام
يجذب
يحتم
يحيا
##أبي
##أثار
##أسلم
##إمكان
##ئيس
##تحريض
##تساقط
##تطلب
##تعال
##تعليقات
##تقرب
##تنظيم
##تورا
##جليس
##حادي
##حوار
##ختراق
##خمة
##دنية
##ديب
##راقة
##رال
##رحب
##رنب
##روسية
##ريكا
##زاع
##سديد
##شتد
##شهدا
##شورى
##ضيت
##طاحة
##ظيفة
##عوم
##غما
##فقا
##فيز
##قرون
##لكاتب
##مبر
##مقابل
##ناقش
##نسب
##نما
##واحد
##ولأن
آمنت
أراضيهم
أعجب
أغرب
أقاليم
ألماني
ألواح
أنجز
أوم
أوهام
إتفاق
إتفاقية
إرث
احرص
اكتشفوا
الأنفس
الإعراب
الاخلاق
الاستفهام
الاستقلالية
الامازيغية
التجويد
التحسينات
التحفيز
الحاسم
الذبح
الرشد
السائح
السعدون
السفرا
الشطرنج
الصبغة
العضوي
العيني
الغيط
القناع
القناعة
الكتابي
اللاب
المتقين
المتنبي
المحققين
المخروطية
المعتقد
المقاولون
المنتخبة
الموديل
النفقة
الهارد
الوتر
اليميني
اليوسف
بألا
بأنواع
بالاضافه
بالرجال
بخلق
بخيبة
بدايته
بقوات
بمستقبل
بيرو
تايجر
تبليغ
تتحسن
تدقيق
تزخر
تشوه
تطبيع
تقولون
تكفيرية
تهاجم
ثعلب
حجرا
حديدية
حصتها
حلما
حمال
حمامة
رساله
زهر
سائقي
شرير
صاروخا
ضابطا
ضحى
عبدو
عداوة
عصفور
فرحات
فطائر
كعادته
كمصدر
كويت
كيت
كيد
كين
لأربعة
لأنظمة
لتظهر
للعدو
لمصالح
لموقف
ليبي
مئير
محاولا
مرضي
مظلمة
مقتضيات
منفعة
موانئ
نتفق
هوت
وأعاد
وأعوذ
وات
والتعمير
والجرافيكس
والجهود
والخطط
والسينما
والطفولة
والعائلة
والمقالات
وتربية
ودوليا
وسلطة
وشبكات
وطلبة
وكفى
ولديهم
ونجحت
ونظيفة
ويرد
ويكشف
يرزق
يضفي
يعدو
##آمال
##أسى
##أظهرت
##أغلب
##أوا
##إجبار
##إحلال
##احل
##اختار
##ازم
##الإمارات
##الته
##بتكر
##تجد
##تحريك
##تزام
##تسديد
##تسلط
##تعاطى
##تعظيم
##ثها
##جاي
##جرأة
##حظي
##خصائص
##خصوصية
##خليج
##خيال
##دائرة
##داس
##درجات
##رسم
##رعي
##رفية
##ريات
##سرقة
##صان
##صعة
##صناديق
##طاني
##طبيب
##طمئنان
##عراف
##عرفت
##فث
##فضلا
##فيك
##لتهم
##مؤمن
##معات
##مناخ
##نتائج
##هدا
##هولة
##وأن
##وحيات
##وردي
##وعب
##يعية
أؤكد
أسلوبه
أشكاله
أطياف
إجبار
اترك
اجانب
اجتاحت
ادنى
اساسية
اصدارات
الأطلس
الأنفال
الإجابات
الإستخدام
الإعتراف
الإعفا
الاستيطانية
الثقفي
الجذعية
الرئيسيه
السطر
السقا
السوفيتية
السياسيون
الطاهرين
العروسة
الغامضة
الكورة
الكوفي
الليكود
المتقاعد
المحاكمات
المحتجون
المختطفين
المسرحيات
المصاعد
المطورة
المنوي
المهارة
الموفق
النازية
الواعدة
ايل
بأذن
بأساليب
بالذنب
باول
بتكريم
برأي
بركاته
بعلبك
تانية
تباين
تحرق
تزرع
تزل
تصرخ
تعرضهم
تعرفي
تكيفات
تلا
تماشيا
تنعم
جدال
جزاك
جوابا
حاويات
حقيقتها
دينكم
راضية
ساسكي
سبتمبرأيلول
شهادته
صحبة
غرفته
فأنه
قتالية
قهر
قي
كليهما
لازمة
لاطلاق
لاكن
لتحفيز
لدين
لصفوف
لفتت
للايفون
للتحرك
للصين
لوصف
لونا
لينكس
ماكان
محاولته
محترم
مركزة
مشاة
معلمي
مكوناتها
منتزه
مهتما
ناقلات
نتابع
نجحوا
نظامها
نوبة
وأظن
واجبا
والأدبية
والأسماك
والأفضل
والأموال
والإعلامي
والاستبداد
والامن
والتجار
والتعب
والدقة
والزوار
والعام
والفريق
والفوز
والمباني
والنور
والهدايا
وتنشيط
وتهيئة
وخط
وداعا
ودعمه
ودمشق
وزرع
وضعهم
ويشترط
يبتعد
يتخلص
يجهل
يديرها
يرمز
يسرا
يشكرون
##أر
##أعدا
##ؤسسة
##احات
##بتدئ
##بتسامة
##بشير
##بصار
##تعطل
##تفادة
##تكثر
##ثرا
##ثرت
##حادثة
##حشوة
##حضرة
##ختر
##ديوان
##زكى
##سائقين
##سيد
##شاعات
##صويب
##ضرة
##ضلال
##طلعات
##عاطفة
##عايش
##فارق
##فونية
##قابة
##قصى
##قضت
##قنص
##قوس
##لست
##ناي
##نن
##هامه
##هته
##هرت
##هرجان
##هيم
##واختتم
##وتشمل
##وضيح
##يانا
##يديا
أبشع
أجري
أفريقية
أنصح
اختلفوا
استجواب
استكمالا
اعترض
الأساقفة
الإباحية
الإستقرار
الارانب
التراجم
التطوعية
الحرفي
الحقن
الحميدة
الحواس
الخاسر
الخالي
الدفن
الربيعي
الريش
الشحنة
الشوكولاته
الظلمة
الغسل
الفائق
القدوس
القسوة
الكثيف
الكشفية
المؤمنة
المتجهة
المتفجرات
المجمعات
المحمدي
المراسلة
المسيب
المصممين
المطبوعات
المطهرة
المهنيين
الميكروبات
النجدة
اند
ايت
ايجابي
بالألم
بالتفاصيل
بالفترة
بالنفع
بالوكالة
بترا
برمته
بسببه
بمراحل
بمواصلة
بوليوود
بيراميدز
تتعاون
تتلخص
تتماشى
توطيد
جثته
حارثة
حولون
خراسان
دوبلكس
ريمون
ستعود
سفيرة
شغال
شموع
صائم
ظهورهم
عبثا
فاقت
فسأله
فيلق
كيران
لأنهما
لاجئين
لتبرير
لتسيون
لجمهورية
لخادم
لسياسات
للأراضي
للفتيات
للمسافرين
محي
مستحيلة
مضغوطة
مضمونها
معارف
مفترق
مكتملة
مكعبات
موضعه
نرفض
نضرة
نفعا
نفوذه
نقدي
وأعطى
والأدوية
والتحريض
والتشغيل
والحضور
والدراسة
والذهب
والستائر
والشجاعة
والشوارع
والشيوخ
والعسكري
والمراقبة
وباسم
وبسيطة
وتبني
وتوضع
وجهود
وساق
وكأنك
ولون
وممثلين
ومنتديات
ويتطلب
يؤدون
ياخذ
يكف
##أنبيا
##إلغا
##ئول
##ااا
##اصير
##اكة
##بالطبع
##بتعد
##بتكار
##تبدال
##تجنب
##تصف
##تفاهم
##ثابرة
##جلترا
##جليزية
##جمهور
##جنبى
##حاك
##حذا
##حصى
##حياز
##دوس
##دوش
##ذجة
##رغام
##سامح
##ستهزا
##سكة
##سيت
##شتت
##شخصية
##صباغ
##صيغ
##ضاربة
##طني
##عجاب
##عضلات
##فوت
##قائد
##قارة
##قالات
##كاري
##لفظ
##ماط
##ندت
##هاي
##همين
##وإلى
##واشنطن
##وصية
##وفو
##وقت
##ولون
##يزا
أحدها
أضرارا
أنغام
اختصاصات
از
اصلية
اضافه
الأشقر
الأمسية
الإثبات
الإخباري
الإدارى
الابواب
الباطنية
البنكي
التدمير
التزمت
التقي
التمهيدية
الجر
الجنان
الجوزي
الحيل
الخطوبة
الخفاجي
الدؤوب
الدقي
الريق
السومرية
الصادقين
الصيادلة
العقارى
الغرائب
الغفور
الفراخ
الفوارق
القيروان
الكعك
اللاصقة
المرضي
المشتقات
المكسيكية
الموقوفين
النسر
النوادي
انتما
انصار
انظروا
بإسرائيل
بالاهتمام
بالقوات
بتغير
بسجن
بعشرة
بنزين
بيتار
تزين
تسريحة
تشيلي
تعلو
تلفزيوني
توالت
جرادة
جولد
حدوده
خرجنا
دشن
دعائم
دكتر
دمت
ذوق
سادة
سعيها
سماح
سماعة
سماها
سيؤثر
شادى
شاقة
شنودة
صاعد
صفي
صنعه
ضبطت
عاتقها
غرة
فبعث
فجات
فضائح
فينبغي
قرآنية
قرنا
كدة
كلمتها
كييف
لأنو
لتسليم
لسهولة
للأجيال
للطائرات
للظهور
للعقل
للقيم
للوحدات
لوكا
متواجدة
متوازن
مختلطة
مران
مرفوض
مستوحاة
مصدق
مقصورة
منحهم
موتورز
ميلادها
نبضات
نعى
نعيد
نقصان
نيكولا
واتقوا
واجمل
واخرى
واعتبرت
والأراضي
والأفلام
والتأمين
والتعايش
والثبات
والجمهور
والخضروات
والدروس
والمادية
والنقابات
والوحدات
والوزرا
وتحدثت
وتسعين
وتسلم
وتغليف
وثقة
وحملت
ولايتي
وملابس
يأخذون
يتشكل
يرقى
يشك
يظنون
يمنعه
يموتون
يومى
##ؤنث
##اوح
##تباه
##تضافة
##تعدي
##تفاقم
##تقاطع
##تكار
##تلم
##تمرين
##جبهة
##حتجاج
##حتفا
##حرجة
##حمال
##حنة
##حيى
##خش
##خطئ
##خلفية
##درز
##ديث
##راش
##رشاد
##زوال
##شيخ
##صحافة
##صحه
##ضاهي
##ضرائب
##طالي
##طلال
##غش
##غلف
##فتحة
##فسح
##فقط
##قدار
##لتفاف
##مجد
##نشيط
##واتها
##وسم
##وندي
##ونس
##يزانية
##يشن
أخطار
أخلاقي
أسبوعية
أستطع
أغسطسآب
أنزلناه
أيامنا
أيسر
افعل
الأجتماعي
الأضحية
الإقدام
الادعاات
الاشتغال
الافارقة
البارزين
البرغوثي
البلازما
البلوغ
التعميم
الحامض
الحكما
الخصوبة
السبق
الشات
الشرسة
الشمسي
الطبى
العاطلين
العظمي
العقم
الفساتين
القتيل
الكلفة
المتوافرة
المحاماة
المستورد
المصلي
المصيرية
المناورات
الميرغني
الوعرة
الية
انصرف
بادية
بالأطفال
بالإشارة
بالفكر
بالنبي
بحزم
بصمت
بطانة
بكرا
بمنطق
بوزيد
تردي
تلوح
تمكنهم
جامد
حافلات
حده
حزبي
خزيمة
دافيد
دكة
ديزل
رجلان
رعاه
رغبتهم
زخات
سلس
شاة
شعوره
صدرها
صن
طريف
طلابها
عاوز
فاسو
فرضية
فه
فيراري
قاض
قالو
قبولا
قداس
قضيته
كبيرين
لاقى
لحالات
لصلاة
للراغبين
ليعمل
محبوب
مخصصات
مساعدتك
مستند
مقرب
مقطوعة
مكارم
ملزم
وإياكم
والتنظيمات
والدم
والرسول
والشمال
والصحافة
والطريقة
والقهوة
والوكالات
واين
وتدعو
وجيه
وردا
ورسالة
وسعد
وشاهد
وظيفتها
ومالك
ومقالات
ونش
ووجهت
ويفتح
وينظر
يختم
يرتدون
يسبح
يستمتع
يسمونه
يطير
يغفل
يغلي
يفشل
يفهمون
يقبلون
##آفاق
##أشغال
##إحدى
##إعمار
##إكراه
##اثة
##اخي
##الأربعا
##اليب
##بغى
##بقة
##تحضير
##تريا
##تشابه
##تكيف
##تنظر
##توافر
##توق
##ثيقة
##جيني
##حتجز
##حروب
##حضن
##خريطة
##دبندنت
##ذت
##ذكيا
##ذهاب
##رادي
##رسة
##روج
##ريكي
##زامن
##زمي
##ستين
##سحق
##سلا
##شريف
##طاقة
##طمس
##عادت
##عراس
##عصب
##عقيب
##فاصل
##فوتوشوب
##كاديمي
##كسيد
##لوث
##مؤسسة
##مارين
##نسخة
##وانه
##وزع
##ونغ
##يدى
##يقته
أحصل
أربعا
أفراح
أكملت
أنيس
إضفا
اختاروا
ارجا
استئصال
استحضار
اشتكى
الأثريا
الأنبوب
الأوكرانية
الازمات
البرتغالية
التركيبة
التشابه
الحديبية
الخرسانة
الخطابات
الخلوية
الرتب
الزيادات
السلفيين
الطبيبة
العوضي
الفراق
الفلم
القذرة
القوارض
القوافل
الكوني
اللتي
المسيرات
المسيلة
المصابيح
المصريه
المعيشي
المنفعة
المهلة
النضر
النوعي
الوردية
باق
بالجانب
بالحقيقة
بالذهب
بالنتيجة
بخار
برأيه
برنابيو
بسؤال
بضاعة
بعضكم
بقميص
بمفردها
بيدها
تأخرت
تصنف
تغرق
تفسيرا
تمزيق
تنبع
تهامة
توفره
جاهل
جولته
حرمها
رأيها
راع
زملائي
سائح
ستحتاج
سكت
سيشهد
شب
شبيبة
شفرة
صبايا
ضغطا
طازجة
عضويتها
فرحين
فمها
فنظر
قصفت
كاتبة
لشن
لفرع
للأسلحة
للأمام
للتعارف
للصيد
لمحبي
لمديرية
مستحيلا
مستودعات
مصفاة
مضيئة
معنويا
معى
معينه
مقدس
مناورات
نائم
نابليون
نرجع
نفطية
هاذا
هديل
هزت
وأشاد
وأشكال
وأننا
والإحصا
والبيوت
والتغذية
والحجر
والسنغال
والطائفية
واللجو
والمفعول
والوعي
وبغض
وبنى
وتخصيص
وتداوله
وجبل
وجذب
وحجز
ودرس
ودين
وضعته
وعنه
وقدرات
وقلب
وكبير
ومهمة
ويحب
ويست
ويعلن
وينتظر
يشيد
يعودون
##أصالة
##أليف
##إرهاب
##ئجة
##بدة
##بيحة
##بينة
##تأسست
##تاتو
##تاع
##ترافق
##تظام
##تفرد
##تكرار
##تيت
##جبا
##جوي
##حالف
##حتضن
##حنجرة
##خوان
##دمات
##رطة
##روك
##سامي
##سمك
##سواق
##شعة
##صاروخ
##صنة
##طاولة
##طلون
##طوى
##عثمان
##عنون
##غادرة
##غته
##فرا
##فرت
##فقر
##كرار
##كلت
##كمال
##لاة
##لمين
##مينا
##نجوم
##وسيقى
##ومان
##يفات
##يلان
آفة
أحدى
أشهرها
ألبانيا
أيديكم
إرهابيا
إمكان
اردوغان
اشارت
اطلقت
اظهار
الأخبارية
الأصناف
الأعمدة
الألواح
الأمنا
الأموية
الإخراج
الإستقبال
الإشتراك
الإعتقال
الإنس
الات
الاحتقان
الاخيره
الاعمار
الاغلبية
الباكالوريا
البطريركية
التبول
التقصير
التماثيل
التونة
الحقة
الخلاط
الديكتاتورية
الذكري
الذكورية
الرطب
العلن
الغانم
الفخامة
الفرض
الفرقا
الكيس
المالحة
المترشحين
المتغيرة
المسئولة
المشنوق
المنتظرة
النفاذ
انهارت
بألسنة
باكالوريا
بالعيون
بالقسم
بثلاثية
بحقيقة
بخيت
برحيل
بلاستيك
بلاير
بمهرجان
تأكيده
تتزوج
ترشحه
ترفيهي
تساؤل
تستقر
تشلسي
تضامنية
تعقيد
تكسر
تواجهه
تواضروس
جهر
جوست
راسه
رباح
رمية
ريد
زامبيا
ستنطلق
سرعتها
سلسة
شاع
شرك
شروق
شوربة
شوفوا
ضاعت
ضوئية
طبعون
طير
عاصي
عزالدين
علموا
عنزة
فديو
فسخ
فلفل
قصيدته
كأنك
كابور
كوهين
لاستلام
لصاحبه
لعيد
لفريقه
للأرصاد
للأمير
للبنوك
للرواية
للظروف
للغات
للقسم
للمتر
للمعايير
لمسيرة
لموقعنا
مايخص
متشابهة
مجرب
محددا
مصادرها
مغارة
مكتوبا
منبع
منسقة
منوعه
نتسال
نحرص
نسعي
نسيم
نشيد
ننصحك
نورث
نوصي
نيف
هواية
وأنك
واعلم
والاجنبية
والبيض
والحرام
والفضة
والقصة
والكلمات
والمساعدات
والوظائف
وتصحيح
وتمتد
وثيقا
وجبهة
وزيري
وشوف
وطالما
وعددها
وعليكم
وفقط
ولوج
ومساندة
ومعروف
وملك
وممن
ومميز
ونسب
وهيئات
ويبعد
ويدل
ويسبب
ويعزز
ويكتب
يبنى
يتأكد
يحكى
يستدل
يسع
يفعلوا
يقبض
يقضى
##أطير
##إصبع
##إضاة
##إلحاق
##ئيم
##احت
##ادم
##افيا
##الجيش
##اندو
##تحلل
##ترنيت
##تزاز
##تساوى
##تفاعل
##تقت
##تقريب
##توازن
##ثلاجات
##جراثيم
##جرت
##جنى
##جواب
##ذاع
##روة
##زائر
##سليم
##سنس
##سوريا
##صحة
##ضياع
##ظفات
##عدي
##غنيه
##فتات
##فضة
##قح
##قضا
##قفت
##قلم
##لتقي
##لود
##لور
##مونا
##ناة
##ناغم
##نكا
##نوات
##نوب
##وثائق
##وثي
##وطالبت
##وظف
##ولود
##ياك
##يجا
آثارا
أجره
أنهن
أواسط
أورده
أيهما
إجمالى
إخواني
إعلانها
اثبتت
اجمع
اصطدام
الأملاك
الإلحاد
الاحاديث
الاستقطاب
الاكتتاب
التدفق
التصنيفات
التعافي
الجفن
الجونة
الحسبان
الحميمة
الحوارية
الرباعية
الرشيدي
الزحف
السحور
الشريرة
الضالة
الطيبي
العراقيل
العطرية
العقاد
العيسى
الغرور
الفرعونية
الفصح
المحورية
المراقبون
المساعي
المصرح
المعامل
المغلي
المنافق
الموقر
اليماني
بالأستاذ
بالانجليزي
بالحجز
بالعام
بالمحافظات
بجمعية
بغزة
بقيم
تبريز
تبنت
تخلت
ترسيم
تركته
تزود
تسيل
تضحيات
تعليقه
تفي
تكررت
تلعبه
ثانى
ثلاثمائة
جراحات
جروح
حاملي
خروجها
ذهنية
راقيه
رامون
رمادي
رواجا
زرعت
زمنا
زواجه
زوجات
سلفيت
سياساتها
سيماكلوب
شفاه
صدقي
عبقرية
علمك
غر
فروا
قتلا
قطعتين
لأشخاص
لبلدية
لتحضير
لتكريم
لتوجيهات
لغايات
لقوم
للأخبار
للإحصا
للاستعلام
للحملة
للشبكة
للعلامة
لمناسبة
لولي
ليواصل
متابعيها
مجهولون
مرجان
مسلمي
مشرقة
مظهرا
مقادير
مقرات
منقطع
موتور
موشيه
ميكس
ميلانو
نتوقف
نشب
هيتاشى
وأشهر
والترجمة
والصيد
والمصانع
والمعالم
والموردين
وتحفيز
وتركت
وخمس
وسكة
وسياسات
وشاركت
وفتحت
وقصر
ولجميع
ونضع
ونظامه
ويقصد
يدرسون
يطمئن
ينافس
يهرب
يومك
##أئمة
##أرخص
##أقسام
##إجابة
##إرشاد
##إمساك
##ابهم
##اجم
##ادن
##اشد
##اظر
##اعر
##السيد
##بابة
##بريدة
##بود
##بيوتر
##تئناف
##تحذير
##تضامن
##تطرق
##تفت
##جستير
##جيش
##خلة
##دراسة
##رأى
##ربو
##رست
##رنين
##رود
##رونة
##سنجر
##شأت
##شفا
##طائر
##طاير
##طوارئ
##عباس
##عليم
##عموم
##غرا
##ففة
##قتراع
##قوية
##قيمة
##كتيك
##لترتيب
##مجلة
##مناقشة
##هوية
##وازن
##وحا
##وفد
##وكة
##ينيا
أسرتها
أعترف
أنسى
إتقان
إستلام
احزاب
اراضى
اسلاميات
اطلاقا
اعتبارات
اعترافات
افراح
الأذهان
الأسطول
الأعراب
الأمصار
الاساليب
البريدية
التجارى
التحليلات
التكافل
الحصيلة
الحطب
الحلي
الدواسر
الراقصة
الربا
الريفي
الشراكات
الشلل
الطريقه
الظهيرة
العبدي
العدائية
العشب
الفلكي
القذائف
القيوم
الكلاسيكو
الليبرالي
المثانة
المجيدة
المخدر
المرتضى
المستخدمون
المسلمات
المنتجعات
النوبية
انتظام
انفراد
انقطعت
بإسناد
بإنجاز
باري
باطلا
بالدعم
بالرسم
بباريس
بذاتها
برجر
بط
بقرة
بلحظة
بنظرة
بولي
ترانيم
تربة
تسفر
تصدرها
تضعها
تطرأ
تعطيه
تعقب
تقصد
تقويض
تماسك
تمنحها
تهبط
جذع
جنوده
حسبي
حوافز
خلفت
خيالي
دافئة
دبر
دروب
دعوا
دكان
ديبي
ردها
سحاقيات
شح
شذى
شغب
شلومو
شندي
صادمة
صحار
طلق
ظلموا
ظهرها
عطف
علمهم
عمدت
فاير
فخرجت
ففيه
فلكل
فنى
فيبوناتشي
قباني
قريظة
قلقه
كأنهم
كوت
كيكة
كيوت
لآل
لابنه
لاكثر
لتأهيل
للآيفون
للبشرية
للراحة
للشروط
لمقابلة
محقق
مشروعك
مغفرة
مفهوما
ملئ
منهجا
مواطنة
نورج
وأخرجه
وإدخال
وارتداد
واكبر
والبيت
والتفاهم
والتكامل
والجمعية
والفعل
والقول
والمقرر
وبرغم
وبناتها
وتكريم
وصحته
وعلاقته
وقفوا
وكلهم
ومجالس
ويتمتع
يحكمون
ينزع
##أستاذ
##أله
##إتباع
##إخطار
##إدماج
##إيمان
##ارو
##اصي
##اوس
##بخر
##تامين
##تحويل
##تمى
##تنى
##توجب
##ثروات
##ثيا
##حبي
##حسا
##حشر
##ختصاصات
##ديسمبر
##زارات
##زكاة
##زيع
##ساهل
##ستمتع
##ستيلا
##شابه
##شبث
##شهادات
##صحفي
##صقل
##ضاب
##ضغ
##عوي
##غراف
##غريم
##فاخر
##فاوضات
##فزاز
##فسدة
##فيم
##قصير
##كافئة
##كرين
##كلا
##كوع
##لتزام
##معالجة
##ملت
##ناد
##نصح
##وأردف
##وازنة
##واك
آبأغسطس
أطفالنا
أقاربه
أوردته
إخطار
إهدار
احترافي
استثماري
استدعت
الأشرار
الأملاح
الإسرائيليون
الإضرار
الاجيال
الارضية
الاسبق
البساتين
التشبيه
التغريدات
الجبرية
الجواهر
الحجج
الحكومه
الخدم
الخيوط
الشفرات
الصارمة
الظفر
الفروض
الماسة
المحاربين
المديريات
المستأجر
المصاحب
المعروفين
المغذية
المقلاة
المناورة
الواعي
الوطنيين
انتخب
انتفاخ
انشطة
انهار
بإخراج
باستغلال
باعتبارهم
بالانترنت
بالسكان
بباقي
ببيت
بتاتا
بحمامها
برسول
بريكة
بعشر
بفك
بوعشرين
تايم
تتزايد
تحريف
تديرها
تراقب
تستعيد
تصدرت
تصنيفها
تعلمنا
تفرز
تقليدي
تكره
تملكها
تمهيد
تنتهى
حاشدة
حلمى
حيزا
خامسا
خصوم
خمسات
دائري
دوي
رابح
رحال
رواق
ريت
زحل
سابقين
سجنه
سكين
سميع
سيسمح
سيعرض
سيول
شاكرا
شعلة
شهوة
شوب
صديقتي
طاقتها
طقم
ظاهره
عائلاتهم
عالى
علاجا
فأتى
فكرا
فيزيا
فيض
فيوتشر
قبلية
قوسين
كاتبا
كارثية
كورية
كوستا
لأصحابه
لإكمال
لاسلكية
لايك
لتقنية
لعقود
لقلة
للاعلان
للتأثير
للجماهير
للحالة
للحرس
للصورة
للعثور
للكلمة
للمشتري
مؤسساتها
متبادلة
مجتمعا
محدودا
مطارات
مقوي
ملجأ
ممتدة
منابع
منتسبي
موضوعة
نائمة
نتناول
نجامينا
نحت
نسير
نلتقي
نوفل
هاجمت
واتهم
والأبيض
والإنجليزية
والعشا
والفرات
والمستثمرين
والمعروفة
والنفسي
وتر
وتعدد
ورقية
وسعت
وسمعت
وضعي
ومسؤول
ومصطفى
ووعد
ويقيم
يجبر
يحث
يختتم
يسرنا
يعانيه
يعملوا
##أجرى
##أراضي
##أشخاص
##أكمل
##إنقاذ
##إيطاليا
##الدكتور
##اهر
##باز
##بشن
##تارية
##تراه
##تسلل
##تعاطف
##تفاضة
##تكتب
##تلاشى
##تمت
##تنتج
##تنفذ
##توطنين
##توعد
##ثابت
##ثمار
##جادل
##جده
##حراسة
##خدش
##رجات
##سبق
##شاركت
##صابه
##صافي
##صدم
##صطياد
##طالبة
##ظرية
##عتصام
##عراق
##عناوين
##فراغ
##فعلى
##فوذ
##قاليم
##قسوة
##قني
##قوائم
##قوال
##قونة
##كمن
##لقت
##نسى
##نصب
##نهاية
##هجم
##وتطرق
##وجبات
##وسوف
##وظيفة
##وهل
##يئته
##يرن
أتاني
أحداثه
أسرهم
أورام
إحصا
اتباعها
اتفقنا
احتياج
اختلافا
اختيارك
اختياري
اشتمل
افاد
الأغنام
الإعتبار
الإنصاف
الادنى
الارشيف
الاطمئنان
البحيرات
البلوتوث
التسرب
التشكيلات
التقييمات
التلقيح
الحزبين
الحيز
الركوع
السجين
السماع
السوشيال
الصقر
الصليبيين
الطاعات
الطقوس
الظلمات
العربات
القدوة
القروية
الكسب
الكمون
المؤخرة
المتاجرة
المحسنين
المرفوعة
المعد
المقاس
المنتزه
المنشطات
المهددة
النسق
النشط
الهضبة
امانة
امرئ
انة
اندونيسيا
اهمها
بأصواتهم
بأمانة
بادرت
بالتاريخ
بالطريق
بالملح
بالوضع
بانهم
بجانبه
بحرى
بعون
بغيره
بكركي
بكشف
تبتعد
تجي
تربى
تضرر
تعج
حاولي
حمايتها
حيثيات
داعمة
داي
دعني
دلك
ذمم
را
رباط
رفاق
رفوف
روحك
زبد
زكى
زوجية
ساتي
سانشيز
ستتمكن
ستيل
سجين
سوسن
سياسته
سيرجيو
شيخا
عاطفي
عاملين
عزيزة
عفو
عمولة
عيال
غالبيتهم
غنيا
غيتس
فدعا
فضلت
قطن
قيادتها
لأهداف
لأيام
لإيصال
لاحظنا
لترتيب
لجبهة
لحوالي
لربط
للاستمرار
للتعبئة
للتقاعد
للسودانين
للشعوب
للصحيفة
لمتطلبات
لنكاوي
لوازم
متجددة
متنوع
مجلسه
مرفوعا
مروا
مروحة
مروى
مشتريات
مقدمي
مها
موافقته
موريس
ميلادي
نجمه
نحقق
نسألك
نوى
هضم
هونج
وأغلب
والأهلي
والبصل
والبقا
والتحالف
والتحرير
والتطبيق
والتعليمات
والحال
والسيرة
والشخصية
والصفات
والعنصرية
والقائمة
والهرسك
وبطولة
وتجارب
وتوثيق
وزارتي
وصفاته
وطلبوا
وقليل
وكذالك
ومثال
ومدارس
ومساحة
ومناسبة
يبدي
يتفقد
يثرب
يعيشه
يكتبها
##إجرا
##إرسا
##اتون
##احقة
##اقته
##اقل
##الأمر
##المهم
##بداد
##بهة
##تبعاد
##تخصيص
##تصريحات
##تعة
##تقلص
##تلوا
##جتثاث
##جماعات
##جيع
##حتي
##ختصر
##خلية
##دبا
##دراك
##ذيل
##ربه
##رتهم
##رنت
##زهرا
##سلطات
##شاط
##صدارة
##صقة
##طبقة
##طوائف
##طوم
##عصابات
##عفاف
##غراب
##غندا
##فري
##فضيلة
##قتضيات
##قذائف
##قرى
##كتشاف
##كلمة
##كنه
##كومة
##مخ
##هانا
##هرب
##هير
##وضاع
##ياض
##يتر
أجسام
أشكركم
أصح
أطفالها
أعدائه
أعلنه
أنوار
أوجب
أولادها
ابتدائية
احس
اخطر
ازدهار
استقال
استيفا
الأسطوري
الأنسان
الإرسال
الإغاثية
الإيدز
الاستعراض
الانثى
الترغيب
التسبب
التشويش
التنويه
الخدمه
الخلاصة
الرخيصة
الرعاة
الشرج
العمد
العناد
القامشلي
المؤسف
المؤلفين
الماكياج
المصغرة
المعاينة
الموضحة
انطباعا
اوائل
ايا
بإصلاح
باجرا
بالأسواق
بالبنك
بالبيئة
بالتجمع
بالديمقراطية
بالشرق
بالشفا
بالشي
بالقدرة
ببرامج
بترجمة
بسب
بلازا
بيكسل
تتخلص
تترجم
تتوزع
تحالفات
تخفض
ترضي
تصغير
تظاهر
تفقدية
تمارسه
جاكرتا
جالاكسي
جسديا
حركتها
خاطب
دافعا
رواندا
روبين
روت
زوجين
سال
سبعون
سريان
سود
شيب
صبيا
صدورهم
ضاقت
ضعفه
طريفة
غض
فالذي
فخم
ففعل
فيني
قاسيا
قضائيا
قلقها
قوام
كارتر
كراسة
كريمات
كيفان
لاتفاقية
لة
لشبونة
للانسان
للتطور
للتنفيذ
للربع
للسير
للصناعة
للعقارات
للفنانة
للمسيح
للمشاركين
للنفس
لمدرسة
ماعدا
متطابقة
محللون
محمولة
محيطه
مساعدته
مستقرا
مشاجرة
مشار
معتقلي
معن
مقتنع
مقدرات
ممرات
نسبي
نسج
هيلز
وأقوى
واستعمال
واصابة
والسويد
والفلسطينيين
والمادة
والمقاييس
والمنتخب
وانطلاقا
وباب
وبعث
وتحولت
وتعيش
وتقرير
وتمنع
وتوزيعها
وحلب
وسلسلة
وشدة
وشعبه
وضيق
يترأس
يداك
يرأس
يفتقد
يقدرون
يمهد
##أسود
##أعلام
##أفلام
##إسراع
##ابت
##تألم
##تتابع
##تمان
##ثلاثة
##ثيق
##جالية
##جبات
##جبان
##جرائم
##جمه
##جموم
##جنين
##خلت
##دوب
##ذخائر
##رزق
##رقي
##روسيا
##زهار
##ساط
##ساند
##ستن
##سطح
##سمن
##شبكية
##شرد
##شريد
##شطب
##طرائف
##طراف
##طنبول
##ظه
##عشي
##عكاس
##علوم
##غرامة
##غلو
##غمس
##فلل
##كركم
##كلات
##لوي
##مجال
##معدل
##ندم
##نفوذ
##هالي
##هذب
##وبهذه
##وقعات
##ييف
أدبا
أرمينيا
أسمائهم
أفراده
أمواله
أوتي
إبداعات
إستعمال
إفادة
ابوبكر
ازا
استفهام
استقلالها
اكتشافه
اكتشافها
الأجندة
الإستفسارات
الإنتخابية
الارهابيين
الاستجواب
الاولاد
الباص
البلقا
البودرة
الجاز
الجسيمة
الدفاعي
الدنماركية
الراب
الربانية
السباكة
السكندري
الصخر
الصراف
الصكوك
العبر
العقيق
الفضول
الفلاحي
الفنانات
القش
اللحن
المدرسه
المساهمات
المعابد
المعتدين
المعكرونة
المقيمة
الموقعين
الناقورة
انعقدت
بإسناده
بالتوقيع
بالحرف
بالخط
بالرجل
بالهدو
بة
بسورة
بمجمع
بمعايير
بوصول
بيرى
بيلو
تبي
تتخلى
تتذكر
تستضيفها
تعديلها
تنفق
تواضع
توصيف
جرس
جواهر
حاصلة
حظوظ
خلقنا
دراهم
دمعة
دهن
ذويهم
رحبوا
روائح
زورا
سليماني
سنقدم
سيدأحمد
سيشكل
سيناريوهات
شراكات
شيخه
ضلال
طبيا
عبرها
عمالقة
فحين
فقيرا
فنيين
كردية
لحجم
لخمس
لسماع
لعن
للسلع
ليؤكد
مأدبة
مأوى
مبسط
مترجمةمشاهدة
محبته
مدغشقر
مرسيدسبنز
مرفأ
مسرحيات
مسيحيي
مقدونيا
مكناس
ملابسها
مواطنه
موجودين
ميكانيكية
نبقى
نحاس
هاجس
وأبرزها
وأصدر
وأولئك
واختلاف
وادى
واعد
والاعلان
والبشرية
والترويج
والتشريعات
والجزيرة
والدهون
والذهاب
والرياضيات
والصدق
والفشل
والمرض
والمغامرة
والميليشيات
وبلدات
وتعاون
وجهتها
وحلفائه
ورفعت
وستة
وفور
وكريم
ونريد
ونشاط
ونيك
وهمي
ووحدات
يتحلى
يسخر
يعجب
يعم
يعوض
يوازي
##ؤد
##إتصال
##إرهاق
##إشهار
##إطالة
##ارع
##الاتحاد
##المياه
##اومة
##بحيرة
##بركة
##بوينت
##تبرز
##تداخل
##توية
##ثقف
##جيز
##حتقان
##حنان
##ديكورات
##رخ
##زراعة
##زيون
##ستسلم
##ستها
##صارهم
##صديقه
##صطفى
##ضاة
##طموحات
##طواقم
##عانه
##عانى
##عقاد
##فاجأة
##فم
##قاش
##قوق
##كورسات
##كيني
##لغة
##مرين
##مكان
##هبط
##هوب
##واعيد
##وتك
##ولوا
##ويتها
##يفر
##يندوز
أجراه
أحدثت
أشكالا
أعمار
أمورا
إعداده
إعدادها
إماراتية
إنشائها
اجتهاد
استخدامك
استمتعت
اصغر
افتراض
افتراضية
اكاديمية
الأعرج
الإثيوبية
الإجرام
الإستقلال
الازدهار
البطش
البلاغات
البي
التسول
التصفية
التعبيرية
التمدد
التنازلات
التهجير
الثرى
الجرجير
الجمعه
الحارقة
الحديثه
الحموضة
الحيلة
الشحنات
العريان
العشاق
الغرام
الفرامل
القديسة
الكاردينال
اللفظي
المجتمعون
المحدثة
المعتقدات
المناخي
المندوبية
المنزلة
المنيل
الوهابي
امتيازات
اوف
بالانسحاب
بالتساوي
بالتغيير
بالطفل
بالكلمة
بدوام
بشأنه
بشئ
بشراكة
بقتله
بقولها
بلاستيكية
بيرك
تتجنب
تستمد
تصورات
تضعف
تفوز
تنطق
حافظة
حجازى
حساباتهم
حلفائها
دمحمد
رؤوف
رضاه
زاده
سيساعد
شان
شغلت
شمر
شوقى
صارخ
عبس
عسفيا
عقبات
غاضبة
غرامات
فانت
فريسة
فسيتم
فضاات
فل
قريته
قريمان
كاذب
كتابيشات
لإقناع
لشخصية
للاستثمارات
للتجميل
للشرق
للوزرا
لينك
متعمد
محتواها
محسوبة
مخرجا
مرضا
مرنة
مصابين
مضطرا
مطرب
مليانة
مندا
مواقعها
موظفة
موقعي
مولر
نقلوا
هدر
هرتسليا
هنية
وأولاده
[...]
