[PAD]
[UNK]
[START]
[END]
ا
ب
ح
د
ر
س
ص
ط
ع
ف
ك
ل
م
ن
ه
و
ى
فى
من
على
ان
الى
##ه
##ا
عن
البى
##ى
او
ما
مع
لا
الله
##ب
هدا
##ها
الدى
##اب
هده
##م
##ىه
كان
##ىن
كل
بعد
##ن
##ون
هو
بم
دلك
##ك
بىن
##نا
##وا
بن
لم
علىه
انه
##ر
حلال
كما
اى
حبى
حىب
فبل
اكبر
فد
الىوم
##هم
ولا
له
الا
##ل
فال
##د
هى
محمد
##و
##س
وهو
عىر
الدىن
كانب
ادا
##ف
##ان
##به
بعص
##ح
العام
به
عام
العربىه
بها
فىه
فىها
##ع
ومن
اىصا
عبد
ىكون
وفى
وفد
احد
ىوم
رىىس
سركه
وان
مبل
بسكل
لها
ىمكن
العالم
عند
الاول
انها
##نى
هناك
وهى
فان
العمل
ولكن
بل
منبدى
حمىع
احرى
حول
مند
بان
مصر
بلك
عدد
علىها
منها
احر
لكن
صلى
دون
ودلك
عبر
بكون
الناس
سى
كبىره
ففط
بحب
المبحده
كبىر
والبى
وسلم
فسم
الاولى
الكبىر
محلس
ال
حدا
العامه
الرىىس
لىس
ىا
ابو
افصل
##فى
الدوله
موفع
ىبم
الان
احمد
مدىنه
ىحب
لان
امام
ابن
بسبب
وكان
بما
الامر
##بها
الحكومه
فىما
البانى
ففد
وما
احل
اما
الانسان
العربى
##ط
##كم
السىح
عندما
منه
سنه
##ىا
حاصه
السعودىه
مما
الوفب
انا
اول
واحد
##ص
عمل
وهدا
الحاصه
ابنا
عنه
##ما
لهم
سوف
الىه
##بى
ولم
السلام
داحل
##ره
حدىده
ام
محموعه
هنا
منطفه
صد
وعلى
صور
برنامح
كنب
ابى
طرىف
عدم
الحرب
وفال
مره
رفم
لك
نحو
##وه
##ور
ورىر
النطام
بنا
عملىه
وراره
الماصى
حرب
العدىد
الف
حدىد
رسول
بعالى
##ىاب
الوطنى
الحدىده
اداره
الحدىد
نفسه
##بىن
الدول
الاسلامىه
ىفول
والدى
حىن
لن
داب
الدولى
لدى
هل
ملىون
##ىر
المحبمع
مسبوى
المنطفه
##فه
الحىاه
الارص
وفب
حاله
لما
اد
السركه
العرب
##حه
لى
##له
الدكبور
السعب
الامن
صمن
كبىرا
##ول
منهم
واحده
وحود
لو
اهل
##ار
##ده
سهر
المدىنه
##وى
##وب
احبار
السىاسىه
مركر
العراف
نطام
عمر
بالاصافه
الفران
الوطنىه
ففال
الابحاد
النبى
امس
لكل
دوله
عده
سنواب
ىعنى
الاسلام
صىانه
كبب
الولاىاب
الاحرى
الامرىكىه
##نه
اىام
الحاص
الملك
الدولىه
##ىل
البانىه
البحرىن
بارىح
بحمىل
##وفال
العاب
موصوع
المراه
##ىب
فهو
السبب
المنبدى
##عه
ىمكنك
الحىس
نفل
نفس
اسراىىل
##ال
كىف
##مه
فرىف
المصرى
الاحىره
دولار
المملكه
ىكن
العالمىه
لنا
محال
اسبحدام
حدمه
هم
السعر
بفوم
عنها
الحارحىه
المحلس
السنه
فلا
ولىس
مسلسل
لانه
للبىع
سورىا
كافه
السىد
اللعه
الاعمال
الحصول
عسر
بحفىف
عاما
بكل
##لى
الفانون
حسب
لدلك
البعلىم
مكان
بىب
##وفى
##من
سوا
دور
البلاد
وصع
مسروع
نحن
حا
##وس
اصافه
امر
الاحبماعى
لكم
باب
الموفع
رمصان
الحدىب
انب
السورى
المسلمىن
الحمعه
السىاسى
ىرىد
وفف
الانبرنب
بالنسبه
الاربعا
لفد
طرىفه
السباب
بعمل
##رى
اهم
كباب
مدىر
الوررا
رعم
علىهم
ىفوم
بدون
الفرىف
سحص
بىنما
فبره
وكدلك
البحب
حانب
برامح
بفدم
لبنان
بلابه
حسن
##لا
الاطفال
البالب
اللحنه
ابراهىم
انهم
حامعه
وبعد
سعر
الابنىن
الكباب
المالىه
ىوحد
السودان
الفبره
حال
نهاىه
الموسم
البواصل
فام
محبلف
المصرىه
دول
رد
باسم
الاحد
البارىح
الىها
##دا
الاكبر
مساهده
السابف
الحلفه
##اه
##دى
الامام
بى
البلابا
نبىحه
علىك
هولا
لهدا
اسعار
حل
بداىه
##ود
مساعده
##سى
اسم
اىران
المعلوماب
الرحل
كدلك
بفدىم
وسط
داىما
اعمال
حد
الكرىم
الحمىس
معه
حلف
حف
السركاب
بانه
بنطىف
##وم
صوره
##بهم
الفاهره
الاعلام
المركر
هابف
##وف
طرف
##ىم
دى
كانوا
الاسلامى
عرف
الاحبماعىه
مباسره
الاداره
عالم
مفابل
عالىه
لحنه
الاحر
##كما
طل
صاحب
بهدا
##بك
البرنامح
المىاه
لمده
كامل
النسا
الداحلىه
الفدم
حاص
لىسب
السرف
الساعه
رحل
سكس
عرص
نسبه
##رب
الكوىب
كلمه
انواع
رىاده
البىب
علم
مسا
بدا
حفوف
##ىىن
الامم
لعبه
احدى
الحدماب
عرفه
الحر
الوطن
حركه
اطار
للاىحار
محبلفه
حى
فىلم
درحه
البربىه
موافع
وحده
رصى
فلب
الما
فواب
الحكم
##ام
احدب
العلم
احرا
بنطىم
##ىد
وادا
ىبعلف
الموصوع
السلطه
وكانب
السعودى
برىد
وكل
الافبصادىه
اعاده
بدلك
فهى
الصور
الامرىكى
فرار
اسهر
بىان
البعص
فانون
مباراه
نوفمبر
طلب
الفصا
الحمىع
بك
##ىف
اىه
الصلاه
الدفاع
الفواب
بنى
احهره
سركاب
محافطه
سبىل
بهدف
الاماراب
المعرب
الامور
الصحه
البحر
اعلى
فطاع
السورىه
الىمن
رىال
اعصا
حارح
المرحله
الفلسطىنىه
الحف
فرص
حنوب
فانه
##حى
كاس
الطرىف
السىاراب
وحه
ملىار
الفدس
حر
صحىفه
المناطف
السرطه
اهمىه
اننا
وهم
الاسبوع
السوف
##سه
ىعد
صالح
اكبوبر
حدماب
المحبلفه
فوله
الصوره
اكد
فناه
فوف
##بنا
حالد
##را
ارص
حرا
##ىس
هىىه
الرىىسىه
عبدالله
بد
وانا
افل
ىعمل
لله
الوافع
وبىن
##ابه
الفرار
ساعه
##حا
اصبح
الطرف
الفرن
المرىد
فالب
##ىها
وساىل
الحامعه
العملىه
الحبر
بلاب
وحبى
حهه
الوصول
فوه
الحالى
عره
وعىرها
الهىىه
النار
عملىاب
نسر
بماما
انسا
##وىه
الاسباد
النطر
ابحاد
##طه
حدب
سوى
بطبىف
بناب
حىاه
بداب
فبح
##واصاف
العسكرىه
اله
ىعرف
حمله
الوسىط
##اف
انى
دكر
##راب
نادى
اون
بطوىر
المسروع
البعاون
بحدىد
نوع
حالىا
فاىمه
محمود
الاحىر
بهده
منبدىاب
وففا
الحركه
العاصمه
الانبحاباب
دعم
لهده
الطافه
مكافحه
حوالى
##اد
ساب
الاىام
حلفه
وانما
حهار
لانها
سكل
الحسم
موسسه
المال
مباسر
الاعصا
بسان
العالمى
مناطف
سىىا
فلسطىن
ولو
الالكبرونى
البحارىه
حكومه
حدىب
##انى
لكى
سىاراب
حىر
المكان
المواد
مدى
##حب
الطفل
علىنا
ىوسف
الاسراىىلى
##اح
##فال
##عى
والله
العلافاب
روسىا
الامىر
##حر
بركىا
السهر
كبابه
الحمهورىه
بحسب
معلوماب
بعرص
الطعام
بنفىد
سمال
المحلىه
المساركه
بحاهله
انك
مصادر
سىكون
الامه
فصىه
بنسبه
بحىب
نفطه
برامب
الدم
حنىه
نباىح
الصحىه
##وها
##ىك
الفلسطىنى
الرىاص
البوره
رساله
الاحبار
##با
ابر
الاهلى
لاىن
الوصع
الدورى
فىمه
##حل
##فا
الاحبلال
عفد
فطر
راس
الحهار
المواطنىن
ىابى
الدنىا
مصدر
حكم
فامب
رفع
السعبىه
وبالبالى
علما
سرا
نفسها
فادا
##بر
الحفىفه
الافبصادى
رحمه
الفصل
الفوى
فصه
العرىر
صباح
ىعببر
المباراه
وعدم
اعلن
سبه
افلام
مطار
منطمه
الاردن
الماده
ومع
رىاره
##بم
سبكه
سعىد
مبرحم
افرىفىا
المنبحب
اطلاف
الفطاع
اوروبا
عصو
بصمىم
البالبه
الموافع
السلطاب
السحصىه
دبى
الاحهره
بهم
وهده
اصحاب
بلا
برى
طوىله
##كى
معطم
دراسه
رحال
سرف
الاف
الرسول
الامنىه
اللهم
السابفه
الماصىه
عرب
وكاله
الموبمر
دار
##لب
الفسم
الاسد
سفف
ربما
راى
ىوما
سببمبر
علافه
عامه
##ىى
مرحله
صعىره
الحوار
فرصه
مسىرا
##فد
عباره
كره
طالب
الاوسط
امن
البفافه
البرامح
عىن
حفىفه
##ىح
##فب
احبىار
اصبحب
النفط
##مى
بكن
الارهاب
ىودى
##عب
الفرنسىه
المفبل
اربفاع
الافبصاد
الاسحاص
المحال
المصدر
اولا
سورىه
عربى
الابىص
الحدمه
ناىب
الطلاب
المسبوى
فعل
الكبىره
بحد
مكبب
اللى
البعامل
لمن
عربىه
ىحدب
المنرل
بفول
الانسانىه
الفنى
فرىه
فلم
الرعم
سىاره
الرحمن
بعرف
لىله
وبم
اعلنب
حلب
كم
بحمل
مسكله
انما
المعرفه
العىن
مهمه
الالكبرونىه
الامىركىه
العلىا
العلمىه
حماىه
لدىنا
حسىن
##وفد
الوراره
داعس
عر
محانى
الصفحه
حده
الكبرى
الحالىه
الحب
بعببر
الحدود
لكنه
الاساسىه
بناول
احمل
الدور
بطوله
فدم
صوب
##اس
حصوصا
المدنى
لكره
اصل
##لم
النادى
بصل
حمال
مبلا
باسبحدام
بطرىفه
مدرسه
الدراسه
بىنهم
حمىعا
سبب
بعىىر
وعىر
نصف
الابصال
ىبدو
##صه
##ىبه
الحمعىه
فكره
لدا
اللفا
##واب
فىدىو
ىونىو
صروره
علىكم
فصلا
##ومن
فما
فمن
بوفىر
حساب
كسف
مارس
المساعده
انباح
دمسف
فصص
الموسساب
بفرىر
مبر
موسى
الرسمى
الفلب
##كر
الاوروبى
ىناىر
وطاىف
البحارى
كامله
البنمىه
بواسطه
المعارصه
والى
للعاىه
ىفدم
##فر
##فل
الكمبىوبر
البابعه
عىد
بوفر
كلها
محاوله
عسره
مصطفى
الفىام
الدعم
المحموعه
الكابب
معها
عدا
عباس
الفىدىو
فاىلا
الاحرىن
سارع
اربعه
ححم
الفور
المدرسه
العلمى
الفنىه
العلوم
ىسبطىع
الدوره
ابدا
الحسن
الحدىبه
بلعب
فصل
##وح
ببارىح
##اما
البلد
سىبم
مساركه
بعدما
وانه
الرحال
ولد
##وره
الحراىر
سعد
لمادا
ادى
مواحهه
السرفىه
##ىىه
الحلىح
اعداد
الحاله
وكىل
بحباح
الارمه
الرسمىه
بفسىر
حىدا
معرفه
كلىه
##بان
##ونه
بصوره
صحىح
وهناك
ساعاب
الحكومىه
الرىاصىه
الصىن
النواب
ماده
ىولىو
طهر
العلاح
فهم
العمر
كىفىه
وصل
العرص
##سب
الالعاب
العرافى
بسىر
ىصل
محام
سلمان
الكلام
حب
بكر
محرد
المحكمه
بنب
وحاصه
ونحن
السكر
اعلان
الاسره
ولاىه
الفدىمه
بفرىبا
الفصىه
دوره
الدىنىه
لحمىع
النص
##على
##هما
اسما
البنا
العلما
##بب
العوده
##نب
الام
بحدب
فىاده
##كه
معروص
حعل
الاسراىىلىه
عمان
محالاب
##صى
سحصىه
دفع
موبمر
الاحمر
##صر
فوى
ابرىل
صلاه
##حاب
العلافه
فول
السىاسه
صحه
السمس
اب
بىع
بمدىنه
نسحه
سىاسىه
موفف
ىرى
روىه
فطع
##رح
الرابع
كى
امراه
سلىمان
لفا
حلالها
مكه
##مر
مدرىد
مساحه
احداب
بانها
##كان
الطبىه
امرىكا
امىر
سفه
ىنبعى
البسرىه
الفرنسى
حمام
الاعلى
النفل
البىاناب
السحص
دفىفه
##نىه
بعىر
فرنسا
حمعىه
الراى
كله
لبحفىف
علاح
بوحد
حاحه
عبمان
مراب
المسلحه
العنف
الموافف
ماىو
ممن
وحهه
ىومىا
الدىمفراطىه
وىمكن
##وكان
لاى
دورى
ورا
الهدف
الاحوان
الحرىره
الحانب
الحسىن
الاب
حصل
دلىل
وعن
الفول
كنا
حىده
بىنها
حىد
##در
موحرا
المدىر
مهما
حط
العرافىه
ارفام
عفب
بطهر
##رف
اساس
##وع
صلاح
مده
الروح
بالرىاص
البنك
المسبفبل
نوم
الامىن
بحربه
العالى
بحرىر
محبوى
الكبب
الانحلىرىه
بسحىل
بعلم
وحل
الافل
البعلىمىه
الاراصى
سان
صناعه
مادا
##دب
عاده
حطه
الطرىفه
الاحداب
الموحوده
باى
حمسه
واىصا
بابى
ىد
الحال
الطبىعىه
حفل
بدل
مساكل
الحهاب
حدود
السىاره
المدارس
انحا
النفس
بحاه
حمع
اللبنانىه
فبراىر
##مل
معا
بس
حماعه
سن
الهابف
الفوه
سباب
رب
##اره
المسحد
عناصر
##ابها
اللىل
راىعه
الموسسه
والبعلىم
حاب
الابفاف
افراد
الدحول
الحسراب
الورىر
سرح
اعسطس
الرىىسى
العسكرى
نعم
بسبطىع
ىحباح
النوع
بمبل
سحل
سهاده
اسباب
الكره
##باب
حرح
الموب
المومنىن
##حد
موكدا
##سا
فراه
السمالىه
بانى
الامىركى
المحافطه
البحاره
##كس
المركرى
بلع
اهداف
حبر
واسعه
المسكله
سلسله
فلما
اننى
سبكون
ىحور
امكانىه
الرىاصه
الاسعار
##عاب
معنى
الفىاده
دعا
الحارى
السنواب
الاحرااب
ىحعل
##طر
لدىه
المنطمه
البركىه
فوىه
البالى
بسرىن
افامه
اسىا
بدلا
لاعب
ملف
البفاصىل
المدن
بب
ابار
الفنان
دحول
الحامس
البركى
##ونى
اىن
بفع
سا
الفىلم
الاىرانى
السعبى
بسرعه
السادس
##بل
فدره
الحد
السما
عروص
ىعود
##كل
عهد
##عد
##بعد
الرواح
الاباب
بفصل
##صل
الانباح
الحمل
المعربى
حوده
معىنه
عنوان
نطرا
منى
السى
سبحانه
الدهب
بسكىل
##لاب
##ىع
الباب
المحلى
##اع
بعداد
حدىبه
للعمل
اللاعب
فدر
لعه
للحصول
البفافىه
وفع
الاحبماع
البحالف
الصعىره
المبعلفه
بحف
الحنه
عمرو
ىطهر
سبف
حطر
المواطن
محله
دىسمبر
المواصىع
##اك
البرلمان
البرىطانىه
السفر
معهم
اللارمه
مفارنه
الحىر
فرع
ومنها
##كا
امىن
دحل
البفرىر
المسىح
احبماع
العهد
ورد
فرب
كلام
اللعبه
الرابعه
الحنوب
الوحىد
بعرىر
المعربىه
ولكنه
البىىه
ولن
حلاله
بالله
منا
##رىه
عدىده
لىبىا
البعرىف
روح
مبحصصه
ىفع
##انه
##عل
رفص
الادارىه
البالىه
الصعط
المفاومه
واسنطن
اطفال
بعدها
عبدالعرىر
##دىه
ملفاب
ىحمل
اولى
بعىد
مسلم
الفادمه
واصاف
السرعىه
اصلاح
بفاصىل
سوره
المدنىه
ىفال
صفحه
الحط
##لك
##مع
سك
الفدره
ىسمى
##وبه
##حىن
ابفاف
الروسى
ففى
كلماب
ححر
اللوا
بفدر
اربع
الفاىمه
بسبحدم
بعصهم
ولى
الدراساب
بونس
دابه
المساكل
حبل
الحوىه
كفر
اللاحىىن
دا
سكان
السىاحه
مسىره
##واكد
العدد
الواحد
عىره
ىحبوى
النباىح
دىنار
فاعده
الاعلان
الفساد
بدور
##عا
بحفف
الحرىه
حوار
سىاسه
##لىه
ابطال
مواد
الحارح
ممكن
مسبسفى
##سم
داىره
الحل
بعنوان
فندف
البحرىه
دو
مطعم
الفومى
بدحل
الطبىعى
افرا
الناىب
الاسىا
السرىف
احرااب
الىمنى
##هل
##اوى
حمىله
حالاب
العداىىه
الاسببمار
البىان
الفصاىىه
حىابه
##فىه
موعد
ولدلك
اللون
بعىدا
نحد
الروسىه
فهدا
البداىه
راىد
الساعر
المهندس
المكبب
اسمه
فكان
المسارىع
اللاعبىن
بحبوى
لحفوف
الاطراف
السحن
فاىد
بالفعل
لدىهم
حدبنا
البسحىل
##واسار
وعندما
لكنها
نىك
بىاناب
محكمه
الحنوبىه
سر
ىعلم
الافلام
ملاىىن
البفافى
احىانا
بافى
الساب
فصاىا
مفبل
الاوروبىه
السمال
واما
النوم
حوله
##هن
الامراص
##فع
هدف
سىما
##داب
طول
ابرر
ببدا
ابصل
وصلب
الفانونىه
مبعدده
الملكى
معرص
نور
اسماعىل
بدر
ىبلع
الاسود
السودانىه
ىحرى
باحد
اىها
الوحده
عما
وحدب
طهور
##سر
الفصاىا
رواىه
اسبمرار
مبارك
العملىاب
ارمه
##ىنا
الاسواف
الافصل
انفسهم
السارع
الاحراب
هكدا
البحرىر
المفبله
عوده
الفراه
السوال
والعمل
الاموال
الحراره
الفن
بوره
الحوله
الحمله
رواه
مىاه
بنفسك
بالمىه
فور
الفلسطىنىىن
بانىه
الفصه
العدل
برح
بمب
رحله
فىام
مساله
الرمن
ىرال
منع
الحفىفى
بسعر
عددا
سىد
##فاب
اصدار
حمس
##لف
الاىمان
البحفىف
البنطىم
حلىفه
سابف
لابد
البانوىه
المهمه
الكهربا
لدىها
##وفالب
واصحه
طوال
البفنىه
مالك
الحوده
اسحاص
الدسبور
سوال
##واوصح
الصف
العصر
العطىم
الاحنبىه
بىروب
مفر
نفسى
ىبفى
الحبىب
بصم
سو
السىسى
وسوف
برك
المالى
المنوره
الاىرانىه
بابىر
بحمع
الحطاب
الصناعىه
الحاحه
ببفى
محانا
مدار
##رع
##طى
المنبحاب
الطروف
الىهود
مسارىع
الارهابىه
بلده
وفبل
اراد
مكببه
حاىره
الوحه
راىع
محل
المناسبه
المبال
المنبدىاب
الاعلامى
السىطره
##ونا
الحلف
الموفف
محالف
نفاط
وبحمىل
للبسحىل
البسر
موافف
الفادم
الفكر
عنهم
احبر
المره
الاصلى
كون
المانىا
لدىك
وبعص
عمله
واكبر
البارىحىه
##ىهم
الطب
الفندف
الاصابه
افول
سرطه
بمناسبه
فطعه
ناحىه
الدفىفه
ملك
##وك
الحىل
حىاراب
حرى
الحنسىه
بطل
حمىل
وحد
بسعىل
حصور
صعف
##ساب
بوك
البلابه
الحح
سابفا
السرىعه
السىده
مبوسط
##هدا
ىمبل
بصرىحاب
البطوله
كبار
البراب
منبحب
وربما
مرور
ارىد
انبها
بوىبر
عسكرىه
مبابعه
##صب
الصحى
بدعم
##ولا
اللبنانى
##فف
##ادا
كمىه
##كب
امه
الحفاط
الحفوف
دعوه
مراكر
وفالب
الرساله
##مان
حلول
##رر
بالبعاون
بعصها
فالوا
نص
الحروح
الفرف
فم
مناسبه
حمل
سىاسى
##هر
احب
##كو
دفاىف
الابار
بالمدىنه
عملا
الىومىه
الحماعه
الملفاب
##وله
مرص
بمعنى
السودانى
بابب
الاسبانى
نطر
الرىاصى
وانب
البنفىدى
##وص
بلد
حرف
العار
##ىبها
ادن
الاهبمام
بودى
برال
الصراع
بحمىع
الطلب
الفدىم
الواسعه
بارىس
بعنى
اباب
وادى
الابصالاب
الداحلى
كرىم
##صاب
الورن
مبارىاب
عىاب
ىحد
محانىه
وكىف
بفوه
بوابه
صعط
العاملىن
بىنهما
صىف
بعود
الصىف
بحكم
كلما
##رك
##رىن
حطوه
لحطه
حلسه
واصح
صو
##عم
بحرى
البصمىم
رمن
البلدان
ىحصل
احى
اعانى
##وان
العا
بعده
الالوان
ىبدا
##بىه
ىساعد
افوى
ىصبح
المصادر
طاىره
الدعوه
الصو
فلىله
فمه
##وحه
الححر
بحصور
بحاحه
الاساسى
البدرىب
##الى
وفاه
المسبركه
##انا
البفكىر
روحها
افرب
الاىه
الفا
فلىلا
صدر
ىدكر
الحالاب
##سف
بصرىح
فعلا
البىصا
المحالاب
دهب
اسلامىه
المسبرك
الملكىه
مطبح
المعروف
النهاىى
ىحىى
ىسمح
اعلب
بمن
الحمد
النهاىه
ىسىر
اعنىه
فهل
الهلال
صندوف
##افه
بحول
العرفه
سىنا
والا
الدراسى
##مب
الاسكندرىه
فرف
الفنواب
الهوا
مرافبه
كانون
واحدا
المسلم
##ماب
الدولار
النحاح
الاسباب
الببلىع
انبا
برسلونه
بسمل
لصالح
احرىن
عسراب
بساعد
الحرىرى
العرف
بحسىن
ادم
السابع
المعنى
بفبل
الممارسه
الحامسه
لاول
الكنىسه
لوحه
الصباح
##رد
الصحىح
مار
وهل
ىوكد
الاطعمه
##اى
##دىن
مالىه
الاماكن
الممكن
سىح
##ابهم
ىعفوب
للدعم
منك
الفرص
حطا
فصا
بفافه
منبصف
نفسك
لعام
سارك
عادل
##دف
دوى
##ىره
اعبفد
بوفف
ابا
الكلماب
برىاسه
مسبوىاب
طاهره
ىدحل
ابنه
الاردنىه
البطبىف
برىطانىا
ملعب
الاسبرابىحىه
سحصا
منافسه
عاىله
مدارس
الفوانىن
حرىه
فعالىاب
نفدم
للاطفال
بحرح
حدوب
الرابط
بلاده
بعدىل
عىسى
البرىد
معنا
##هى
بمنطفه
رىب
واله
##وكانب
المبوسط
ولكنها
السوون
مهرحان
والسلام
العبد
العبور
ممىره
محطه
العمال
صعىر
ورىىس
باللعه
##انىه
الموارد
##حم
الصوب
بحوىل
حرىره
ممارسه
المهم
بنك
حماس
ابفافىه
نصر
نسا
حلفىه
##رس
ىهم
عنده
عىرها
اسبوع
النىل
المسوره
حفا
وىحب
ىفبل
صحىه
المناسب
الالمانىه
انسان
انبحاباب
مسوول
معىن
وىفول
اماكن
الطلبه
سعود
الاصلاح
الحهود
بعدم
حصر
المبحدب
اونلاىن
نحاح
الكلى
فرر
البفه
مبنوعه
اكدب
منصور
##اىه
اصابه
لمعاىنه
العالىه
واىب
##حن
بلاد
حبره
الحلىل
العدا
الحامعاب
ىعانى
الىك
بفعل
الفرصه
بكبىر
سدىد
فصىره
ارسال
والدىن
وصف
مبى
الداحل
المسوولىن
الفاصى
سرعه
منرل
الطبىب
بورىع
العاىله
المطلوب
لفب
اسكال
المبوفع
بالكامل
المرص
فلىل
مفهوم
##عر
مصلحه
الاهداف
عاد
##بس
الدىنى
الروىه
السىعه
ادواب
بفىاده
##مىه
بفبح
الافكار
الطالب
##اده
الطىب
لندن
اعلم
السىاحىه
المفرر
##ربه
العفل
اىحاد
احبماعىه
السكان
طرح
اسار
الاسلحه
النصر
بمكن
وعدد
المعنىه
الهند
بالفرب
ببم
حىس
##طف
الاسم
الاوصاع
##رو
##وط
اعرف
المفدمه
طبىعه
##سىه
الحرطوم
العداله
اسباد
بفىمه
كلا
كفار
الحماىه
بعلىم
##سن
اراصى
البعىىر
البفدم
بفىه
العىر
##عىه
فبله
وصول
##ند
روحبه
الرساىل
الصحافه
عنى
الحمهور
ىحرح
حبرا
وهكدا
بوحه
احلى
اعلام
صار
وىبم
العملاب
الفاعده
درحاب
اس
بفى
الحدب
العملا
الحى
بلفى
الطىران
المسوولىه
مدىرىه
احىا
الماىه
سلامه
موسساب
##وهم
حفىفىه
الفنانه
حىنما
فىهم
العفارىه
لون
المسبسفى
احسن
##حف
امل
الاحىان
البامىن
نار
السام
لاحد
الكلمه
السلاح
حمهورىه
وهنا
ىسكل
بحدىب
المساحه
بسىطه
نفوم
مطلاب
الدكىه
سعب
فىل
الفىم
نهاىى
السفىر
ببحب
بسهوله
الادا
محافط
واكد
الاعلامىه
الصحف
حرام
عالمىه
##فىن
المىه
سلطه
سلم
براحع
حاول
بفنىه
الرمان
عاىه
حسراب
السر
المرىص
اللعب
الاسهم
ناصر
نطاف
علوم
##بح
بوصع
##بو
##لفد
البعبىر
ساهد
صاله
الانبا
ابنىن
الهحوم
لبعص
مراحعه
احكام
وافع
المطلوبه
سهل
السعوب
روى
العناصر
ىمنع
السهىد
ىسبحدم
الطاىره
رحب
معركه
المركرىه
المسار
المبارك
الملف
ملبفى
الحاكم
الحىواناب
للامم
وىكون
بحعل
سفوط
##كون
درهم
بوكىل
امور
ببعلف
الحصار
بطور
بصبح
طوىل
الرد
الكبابه
سهدب
والحبره
الصىنىه
بنفس
ىعطى
##عىن
الادب
الاساس
العامله
مر
ادب
الاساره
العدو
بفل
فىصل
واى
الصحفى
الصحىفه
نفص
وانها
##سل
ابوطبى
عمره
المباسر
طهرب
فصر
مواصىع
بعطى
حرىده
مملكه
##بون
البنطىف
الهحره
الرواىه
فانها
##ىون
البلدىن
الصفه
##كن
اسبرابىحىه
الاسىله
##لكن
الكامله
مفال
اساره
بلدىه
دكرب
العىد
الكسف
سروط
المصرىىن
النىابه
ماب
اسره
النساط
##طب
مبنى
ىعىس
السىاف
صبط
انطمه
السورىىن
طلاب
ىبحدب
طلباب
الرفم
الفبص
الفرىه
دولىه
مس
##احه
مسوولىه
##رون
الراحل
الىمنىه
سلام
##صور
اسد
لسنه
مبرحمه
البسعىل
النسحه
رىاسه
الفعل
الكرام
بحده
مصىفا
السكل
الهوابف
احدا
البحلص
اهالى
فنواب
فواعد
السىطان
رساىل
##حىب
ربه
روحه
البىع
بسعى
معدل
الكهرباىىه
بنمىه
دىن
اموال
دونالد
رىد
للمره
##صا
حان
طارف
عصر
الم
امراص
بمحافطه
طبعا
بفارىر
الافراد
المسبحدم
عالبا
ىدل
الطبىعه
حوحل
##مىن
فاطمه
وكما
ببلع
صنع
امرا
فدمب
الحره
الحفىفىه
السادسه
الفىامه
ببفدىم
موسم
مسار
##بنى
حمد
السحصىاب
العفوباب
البحكم
حعفر
كسفب
##رىا
ملابس
افصى
الاصل
الوافعه
موحوده
وفعب
فرىب
النهاىىه
انبسار
بعانى
الحسد
النبىحه
##رم
المنارل
الاردنى
البفلىدىه
مدن
الحلد
لانهم
ادنى
الفنادف
حسم
منبحاب
بحوده
فاده
النور
سنوىا
الحفل
الافصى
الاطبا
الرب
الفرد
الىهم
افبباح
السدىد
الرراعه
الوعى
حصلب
دورا
فحر
مىاب
المدرب
الموسىفى
موسر
سوون
نرى
نىور
ىصم
##دم
النفد
سحن
وسىله
الساحه
مدونه
ماسبر
انبهى
حفط
منهما
بفه
الح
وله
معالحه
##حىه
سالم
امنىه
ىحفف
حبه
##دد
##صح
الفومىه
##عن
اراله
الرىاسه
بمبابه
ساحه
باحر
رسمىا
الانحلىرى
فرىبا
الافرىفى
الكلىه
بحصوص
المساهداب
العنوان
منح
النهار
الفناه
##ورى
السن
ولما
##ادى
##اىر
اعلاناب
البرىطانى
نحوم
هما
افبصادىه
المولف
مهم
الالمانى
الدهاب
##اص
النمو
سعار
الحمىله
فررب
ولهدا
السلطان
بصع
حهود
الفمر
صفوف
بعبمد
مبلع
الففر
مناسب
النفسىه
نسرب
وبعالى
##طا
البحبىه
بطلب
ورعم
سلطان
ىحص
##لىن
الحلسه
السبكه
فىس
ومحمد
##فبل
البحمىل
ارا
الحوف
العفد
عاصمه
الملابس
الدىمفراطى
الراس
حدىدا
الحرام
مفدمه
الادارى
دروس
ولفد
الدفع
لىكون
مكانه
سطح
سىدنا
ىلى
الافسام
الاحوال
رواح
##دل
##سون
بعىس
محبمع
سىر
طروف
فبىله
كبرى
وفىل
##طم
عسان
الرحىم
انبهب
فن
مسحد
والاحبماعىه
##ولى
حادب
وكدا
ادار
لبفدىم
محدده
معهد
بوبر
سىدى
فورا
البكنولوحىا
الطبى
مسبفبل
بادن
نطره
الاسبفرار
نفول
الفكره
حرىمه
الروحىه
رسمىه
الاسبفاده
البصره
##ابى
السمو
الفدر
بالدمام
بركىب
الفراراب
الاسنان
بواحه
بوكد
البلدىه
النووى
علامه
لفبره
السهدا
بطافه
داود
راىب
والبنمىه
الامنى
لمواحهه
الحراىرى
البركىر
انحفاص
الحهه
عندى
والده
##بف
الافرىفىه
سمعب
علمىه
مراحل
الدرحه
نحم
حالىه
المسبسار
صمان
العلامه
المسهد
سامل
##اله
ببىن
بحصل
للحمىع
##سركه
لدعم
وعند
##حو
السعور
بحانب
رعاىه
الرراعىه
سرىعه
اسهم
الانبها
البونسى
حراىم
رال
علافاب
نب
الاطلاف
لسركه
لعدم
##حار
اسىله
العدوان
النسر
بامىن
ىبكون
ىوبىوب
##ارى
عرصه
البحربه
الانسطه
عامل
لمرىد
مرسى
ىوفر
##ناه
الفاىم
فراراب
احمالى
البحار
الحرمىن
الفىمه
صرف
للمساركه
##سد
بارىحىه
##صف
ىحاول
الافامه
الانطمه
المبادره
هنالك
صباحا
عفود
مصنع
ىبطلب
اداه
ارى
المنطماب
المفابل
بعدد
احىرا
السروط
ىعبمد
المنافسه
طبىعى
الراىعه
الساسه
طىب
مطلوب
##اراب
ساسه
اطلف
##بع
الاح
المهنىه
العناىه
انبفل
ببب
بسمح
مرىم
##طار
ابل
نمودح
اسبعمال
##اها
##طل
الانسانى
الحنس
المرصى
الصناعه
المبعه
ركن
سب
كمال
وابن
باسىس
بدكر
بنفل
حانبه
سىاف
صاحبه
احببار
الاحصر
صحفى
هسام
مطلع
##فط
##ىله
البسره
الصحابه
##ىو
الاىطالى
الحبل
المسلسل
ىفل
البلاب
بوب
مدحل
وحصوصا
##اط
الادوىه
انحار
حابر
بدرىب
بفلم
عاىسه
لافبا
الحارحى
الكامل
طفل
اصافىه
الافلىمىه
ىسعر
##ىان
محددا
الفاىد
##وىن
لاحفا
بفوله
حدىفه
الصعىر
مبادره
فلل
المنبح
حطىره
رى
السان
معداب
افدم
بحبلف
الحبهه
السحصى
اللعاب
نىوىورك
الححم
بحاور
فل
##رل
البنوك
##نح
الرمالك
ىومى
المسلمون
حلىل
الباسع
الحرىمه
##دون
##مس
فار
وررا
##ومه
المساركىن
المفال
بحر
حرر
رحلا
رىن
الوسط
برحمه
لصمان
اردوعان
حارحىه
العمومىه
##بار
##حان
بواصل
راد
فله
كىلو
الامطار
السهىر
الحدد
بسطىب
فواىد
كدا
حطاب
وطنىه
ىملك
الانبىا
الهندسه
بربىب
سابفه
الموطفىن
كورىا
##حول
البابع
السحر
الفباه
راسه
ىوبر
الحصور
الحطوه
ىفف
اولىك
اسلوب
الاىحار
مفالاب
وبحفىف
لاحل
فادره
فباه
وعىرهم
نساط
العفارى
بسار
سىبى
للوصول
##ناب
السىنما
المسوول
بمر
محلىه
مساعد
##رص
البحطىط
بامر
##امه
ادوار
الافطار
الصادف
سبعه
فمب
لحماىه
اعطم
فسل
حرم
رابط
طن
ىسعى
الالبرام
ببمىر
وطىفه
الفحر
حلاف
منكم
##عرف
الىد
ببصمن
عنا
الاطار
اللىله
معى
##هاب
بعبر
سعبىه
##علم
واسع
علا
بموحب
هادى
وبطوىر
انسى
طبىعىه
ابحاه
الفارى
اللحطه
صرب
الرىاره
الصحرا
الفطر
النحم
مربع
اعلاف
فحسب
##عرص
اصعط
صل
مدرب
الفىه
حطواب
فبىل
الوفد
ىدعو
اصول
الانبحابىه
الحبرا
سهد
اسرع
الامل
السهىره
الكبرونىه
دحلب
بحامعه
ىاحد
سىده
بصوىر
رالب
صفر
الحاح
للدوله
ىدعى
حروح
برفع
فوانىن
الاحره
المحافطاب
سلىم
طهران
ىفعل
ىورو
الدهون
فنحن
وحمىع
الحماعاب
الحوال
الاسما
بالباكىد
منصب
ورسه
بابحاه
بوحود
حسر
المحبمعاب
بعرىف
بعلىف
سبى
معاوىه
الحبره
دكرى
وبفدىم
البنسىف
المدى
ببدو
نهر
ده
##ىفه
الاهلىه
المهدى
لعب
ىبحب
السفاره
مفابله
اسبطاع
الاببداىىه
حون
سدىده
النووىه
ابواب
السىف
الوكاله
اوصح
المبحصصه
بابعه
ببعص
رعبه
الدابىه
فرح
وصعب
##مساهده
المكرمه
مصالح
ابصال
الاربعه
الممىره
الوحىده
بالعمل
بوفعاب
الرىبون
بسى
بالدكر
بولى
وبنا
اسواف
الكل
المسبحدمىن
برعب
افسام
داك
نوعىه
ولىد
وحداب
بمساركه
حصرىا
دىر
رىىسا
نمو
البنفىدىه
المعلم
مال
فكىف
اسبفبال
الابحاه
ممىر
الحماهىر
السرفى
اسفل
الاحابه
السرىع
كامىراب
ىومىن
البطور
الصهىونى
سهله
موسكو
##دو
الفبل
حادم
حلفىاب
حفف
عطىم
ىسبب
البفا
الحراىرىه
السمالى
بالصور
السابعه
العصو
بصدر
عرل
البىار
حفص
البدحل
الوساىل
الاعبماد
المهرحان
بوفى
المفاوصاب
الوسطى
بالرعم
دوما
الحمرا
ىطلب
الاعانى
الدعا
الرعاىه
المساله
الفلسفه
انطر
لاعاده
ورىاده
ىرد
##صار
انبم
بطبىفاب
سعبه
مصى
افلىم
الحطر
اىطالىا
بىد
الفبال
البصوىر
الطاهره
المنرلىه
انس
لاكبر
ماىه
طبىه
للعام
الفصص
المحموعاب
##ىمه
الطرفىن
اسبانىا
الاعلاناب
السهاده
الصادر
المعروفه
بحلىل
##بىر
##صع
بسهد
المعرص
بكم
منافساب
##عبه
احدهم
بوفىع
##وبعد
##ونها
البوم
الحرم
الحمال
ونصف
##نع
حطوط
رسمى
للمراه
انداك
صفه
لبكون
منارل
الاوراف
ورفه
ىكبب
لمكافحه
بنفسه
سكر
مسابفه
ندعوك
##فون
البحمع
الصرف
حىل
السرعه
سعاده
بصفه
فنى
ىعبفد
##حله
اسبحدامها
دكره
سبع
علاماب
الحروب
ىرىدون
الاحكام
البحدىاب
العمىل
امرىكى
##سىر
الطهر
اوباما
محموعاب
بحالف
عالى
الحمام
رانوسى
لمعرفه
حدول
كوب
وىل
اسس
اسطنبول
لحرب
دىب
السلع
فابل
ىسوع
ابباع
بسمى
##حور
##سىن
واعاده
اعبماد
السىر
بعلن
عامر
منطومه
الفهوه
مصرىه
الحلول
الربىع
بنسر
البطبىفاب
العىون
فلبه
ىطلف
الحمىل
الدراسىه
فنىه
فىلا
الاحىا
السامل
##ىط
عبىد
الاحوه
المحدراب
المفدسه
لمحلس
مصرى
##فص
فىسبوك
نرىد
سفر
اسرف
اصلا
المصالح
ووصع
الوطاىف
دابها
هحوم
واسار
##بكم
ابىه
اسابىع
فلبى
مواطن
وحبه
العىس
المسرف
##ىنه
حبهه
هدىه
حلفاب
كافىه
بسده
##وال
بوحىه
ربع
حىار
مرىد
##لو
المرور
الاحبىار
##فول
الصعىد
المبنى
المعركه
اللحو
الهوىه
ىنطر
##حبه
الحىرىه
العروص
الفى
بىىه
نىسان
المسبمر
صرح
موصحا
سامله
اىلول
مواففه
واصبح
وعىره
##ىص
الاسرى
الاسهر
المدنىىن
الدحل
امنه
بفافىه
##هو
فوم
لىلا
##لها
المبهم
عبدالرحمن
##هه
الحطا
بعلىمىه
بكوىن
وصفه
محاولاب
السنوى
الصىنى
عسكرى
ىعبر
الاعراص
الدكرى
العسرىن
المحىط
بعىىن
ىمر
##دن
هامه
الاعبراف
الدار
الناحىه
انمى
سحب
ىفصى
السرىفىن
الفمه
بحارىه
صعوبه
نبنىاهو
##ىنى
ادلب
عباده
وفبها
##هده
العد
المسىحىه
فىد
حىنها
باسبمرار
حراره
مربىن
والموسساب
اللىبى
##اكد
البامنه
الصعب
المحبوى
سىطره
فرد
مبدا
ولىسب
مىل
نطم
الحكومى
النفسى
بنطام
##فس
الابراح
سارب
عطا
##رفه
ببحاور
عالمىا
عرفب
فرىبه
نكون
اببدا
الاصول
الانبفال
بسىط
ربىع
صنعا
معروف
سكنىه
للحنه
الحهاد
الحىاراب
اسحاف
الحطه
المادىه
الواحده
صفحاب
##فبه
##كبب
##وبابع
حدد
مسبمره
##عمل
بالفاهره
الدكبوره
الراىده
اوراف
مفاطعه
نعرف
اصرار
الاسبحدام
البوصل
حرحب
لحدمه
محمع
الاىاب
فابله
معك
وبسكل
وىندور
##هد
اعراص
البامن
البداول
بملك
سىف
اسامه
الحطوط
##سان
بفىىم
عكس
عون
فاله
السودا
راسد
ودكر
ىكفى
ارىا
الاعببار
بعرصب
صدىف
ىسارك
حمص
بحاول
سموه
عفس
##بد
##سك
طبى
##وده
##وعلى
البصوىب
ببادل
فرابه
اسود
الاحبارىه
ىبحاور
احبلاف
البسوىف
المر
ببكون
الحو
فبول
للناس
موحه
الاولىه
بدفع
بىبه
اكبساف
المفدس
ىفولون
وحا
الادواب
الربع
حمره
سحصىاب
ىرحى
##صد
الاحرا
الادبىه
المراكر
موصع
##واصافب
المطبح
##اعه
حبىب
سمس
صعىد
الصادره
الداىم
سرب
ىحبلف
اىحابىه
مىدان
وعلىه
##لع
الرفابه
حىرا
الحلاىا
لوراره
نرل
الفانونى
فانا
##وفه
اهبمام
طالما
الحلافه
الدراما
اىار
ومنهم
الاصلىه
النفاس
بىنه
فعلى
كونه
منصه
الارهر
البارىحى
ببنى
الباسعه
الداكره
الداىره
الافلىمى
الحوى
برىاره
سرىع
عموما
ىفصل
##وبىن
البربىب
الفىس
اىاب
وبكون
##ورا
الحادب
رصا
بلفب
مفاومه
البسىر
اعوام
الاسبفلال
بحاره
البعرف
الصالح
الابداع
المباحه
لبنا
حرىران
والبحب
##كاب
الفكرىه
المساعداب
صدور
الفباىل
المحبله
اهله
سم
فعله
كمىاب
نوعا
وابو
الاىطالىه
سامسونح
الالاف
الحىار
الفبىاب
دىوان
موحود
##سح
رسم
واحر
##هب
الداب
البربوىه
بانهم
سكرا
فكانب
محهر
##حص
نطىره
وهما
الصدر
ىبمبع
الامانه
البنىه
السوارع
الوحود
حورح
ابمنى
حار
الحراىم
العصب
بفعىل
الرفمىه
الفطاعاب
للرىىس
ىده
##ىرى
الاسر
النهصه
نفابه
ابنى
اطراف
المعلمىن
سد
سمع
لبلك
لسان
الحرس
الوحداب
عار
ورفع
الفرى
مفبوحه
ىصع
بصروره
بمنع
سوبر
مىنا
والحدماب
البعلم
بصمن
العوامل
ىبصمن
داىم
السرطان
العادىه
بداول
فرىرر
فهد
واحب
واحرى
##نس
الارهابى
الموحود
##اىل
البسرى
السرعى
##بدا
السىاساب
دارفور
لنفل
ىسبحف
رىىسه
فهناك
انبى
بوفىف
فارس
واوصح
اعطا
الاحبفال
البوحه
لحل
مسبركه
السعاده
حطط
سانها
صففه
الاصدفا
الفرفه
الفوم
##ىدكر
بسعه
رسوم
طه
##حون
البعلىفاب
المكوناب
اندروىد
مالىرىا
##طاب
العسل
رىف
لعرص
ىاسر
##صاف
البحارب
الدكر
السبا
بالب
اساسى
الصندوف
العالمىن
فادر
ففلب
##اىف
العمله
حوص
الحلاف
واحمد
وبوفىر
ىبعرص
##نون
افكار
المسرح
بنبهى
صحىحه
##كىه
السوىس
سانه
طبىب
طوىلا
نسب
المرىح
باس
بربىه
حوا
##عىر
المدكوره
طافه
رمان
اعبفال
المبارىاب
المعده
النصوص
فىم
للسعب
البفارىر
انبطار
بالطبع
سلاح
صعبه
عد
##لد
البوالى
الحوبى
الراىع
وبىفه
الحىوىه
##رن
##فلب
اكمل
المىلاد
##حع
المسىحىىن
بكسف
##رها
##عوا
##ىحه
بنرىل
حلم
الصحىحه
انسانىه
بار
بحدد
بعب
ىبىح
##وحى
والبعاون
ىسمل
ىكونوا
الاكادىمىه
حو
الاحانب
بوس
عسىل
للاسف
وبدلك
المحدوده
بحطى
عوامل
مسافه
والمحبمع
ىمكننا
##ولم
اولاد
دراساب
عىون
لاننا
مسلسلاب
المعهد
امىركا
حمعه
مسبمر
##سوف
##فدم
النمودح
لبنفىد
وسبنحهاوس
##حح
المحابراب
بكنولوحىا
محافطاب
العفار
النفاط
ىعرص
الاحبىاحاب
بكلفه
طرابلس
فلىس
ىحمع
المسروعاب
برس
دىكوراب
فاننا
ادحال
بببع
صله
ورحمه
الفاىده
النحوم
وبدا
الحاىره
الصىانه
ىدفع
##كانب
اسبعلال
بسر
طلبه
وطلب
وفوع
الدسبورىه
سمىر
عفاراب
فانونىه
ىعانون
الراحه
الىابان
بروح
بمام
##احر
بمكنب
وكىفىه
##اول
احراح
السب
بوبىن
كندا
لرىىس
مسبرك
البطرىرك
الفرح
الولاده
علىا
والعسرىن
السفف
الوان
الباحب
الرىاده
الطوىل
الفلىله
حابم
حنىف
الفنون
الاببداىى
الاصواب
السوط
للسباب
##اىا
للبنمىه
بفف
حهاب
والافبصادىه
اكل
بمه
مسعود
الرىاسىه
المحىطه
النصف
وبعرىر
الحطواب
الحكوماب
للحرب
للحكومه
الحساب
احبرام
الابحاب
بحارب
##وراب
المراد
المهاحرىن
بفلىل
مكوناب
البلفرىون
الراىد
عصب
فرىفه
##بفى
افرار
البابىر
البفى
الحفاىف
بسوىه
فاىده
##فوا
الدهبى
الصدىف
الفصر
الوفود
##عون
##ولكن
الالى
الملعب
بسلىم
حادمه
لحم
##افى
النحو
نعمه
ىنبطر
##سو
بالمنطفه
بصحىح
الحلىفه
للابحاد
المبعدده
المحاوره
المسبحدمه
ببحدب
صحاىا
البناىىه
اىفون
نفد
##سار
##عىد
المحله
عندنا
فىاداب
هامس
##بال
البىوب
مسبفله
##كد
اسبفرار
اواحر
بعىده
بولاىه
روسا
كبره
معلفه
انسطه
فكل
كنىسه
نفله
##صم
السارفه
الوارده
حاكم
سحر
كوم
لبطوىر
بمبلك
حصه
رىىسى
احمر
هرىره
ىرعب
حفىفى
راىحه
الفطرىه
كبر
ىدهب
احوا
الكرىمه
بمور
نهاىىا
فرفه
ىرحع
البد
ربى
نسره
نطىفه
واداره
ىبمىر
الحصر
كببب
محلاب
الاسراف
محدوده
وصولا
البالع
الحربىه
المعاربه
بححم
بموىل
بىر
سعودى
لاداره
الاسبانىه
الفدىس
بحل
حامد
##ورد
البنفىد
داحلىه
محرك
ىعملون
احنبىه
ارسل
بمكه
كابب
##حصر
الارفام
سحصىا
موفعنا
##نها
اطلفب
المهنى
بدفه
حسنى
ىفدر
الطبفه
المطار
انرل
بردد
عامىن
البموىل
لهما
مراد
ىحف
للنطام
الرسوم
العمىد
ملعفه
##رىر
##وحا
ابىب
اربفع
اسمها
بمحبلف
روحى
صربه
ساىف
لسب
الفوىه
اهلها
لمنع
بلدان
بمحرد
طىبه
كسر
نسبطىع
##نىن
##ىده
الطاىراب
انطلاف
رابطه
كونها
مدونبك
وبعدها
##مىر
الفلوب
الهامه
رعىم
فسابىن
عم
منرله
وكنب
##حدب
اردب
اساسىه
الحىره
الكبار
بمانىه
مالى
##ىبى
الاررف
البوبر
باحىر
بطرف
للفواب
العداىى
المحبصه
برد
احرون
العاسره
امره
سهور
وفام
ىبمكن
ىلعب
الحنوبى
امامه
حطوره
دىنىه
فحص
##بن
الطاهر
الفباح
النارىه
اوصاع
مبال
ملىاراب
##مون
اعببر
المحرح
ىهدف
##ران
العسا
والبانى
الاسكان
انفاد
بحرىه
المدكور
حفه
معاىىر
اسلحه
الابفافىه
الحنسى
ببمبع
حكومىه
لعدد
ودعم
الىمىن
واصحا
المعداب
نحح
هدى
وحب
الاسبمرار
طعام
مصوره
البىص
وفىه
ىمكنه
فرارا
ولعل
ىحل
بفدىر
المرببه
بعطىه
##دكر
الالم
راح
هدفا
اعببار
الانفاد
الساحل
الفلف
بفرص
سرىك
فلان
للسىاراب
احطا
##لان
الحاسب
الفطع
سباف
صعب
عملها
فهده
لاسباب
العفس
فدىمه
ىحدد
العرس
الموصل
ببطلب
حامل
رىاصىه
عمال
محموع
ورىره
بطن
وعرفه
الرىاصىاب
الففه
المده
المساىل
فاعه
الحصرا
عسل
##فام
الصحفىىن
المفبوحه
بفنىاب
سفىر
فىفول
المباسره
المسببمرىن
سرط
مسهد
الرعبه
ردا
##مد
اىدى
باكىد
حفطه
المحامى
بصرف
منطماب
ارسىف
الببرول
بحرىن
الفنانىن
براه
راسها
اكون
##عنى
الحرىف
الدفه
الروحه
المبفدمه
دحلى
محىم
هاسم
رونالدو
طبفا
لعلاح
السلبىه
بدمىر
سعبنا
مفاطع
البحول
البرىه
البناب
بام
عرىب
موسىفى
وىعببر
اصدر
الدموىه
بلىفون
سرفه
كاملا
معدلاب
والامن
اسبعاده
بصنىع
ىسهد
اراده
الدوحه
مهاراب
##صدر
اطلع
السماح
المومن
ببعرص
دوراب
احدهما
الاحطا
الماىىه
وطنى
احبرنا
الحكمه
النبوى
عملب
مفىده
وبما
##فها
الدابى
الكود
اللىبىه
المرببطه
بسبمر
ىعلن
ىكسف
##مال
الفبول
عفده
##اسى
##ببه
اباره
الاهالى
الساعاب
الطوارى
طاىراب
فصاىىه
مبلما
اسراف
البعدىه
##لبه
##وما
حسد
سرىف
الرىف
سهوله
صحمه
الوفوف
سهم
نبى
اف
الاصرار
السامله
اىفاف
فاسم
فرى
للسركه
ىدى
المبلع
الواصح
بعكس
راوىه
عصوا
احبىاحاب
النبوىه
بعفد
حصرىه
فرىس
ففدان
لبعرىر
للحفاط
والارص
الانفلاب
دفعه
فراب
##نىا
الارىا
الملاىكه
المواففه
النحل
بنحو
رر
ممبله
ىصمن
البونسىه
عندها
##مح
البلامىد
الحامعى
الحرف
الحصاره
الرسم
صحى
مبحر
##كسف
الادنى
امى
حره
راىه
عمار
فواد
##سفه
المدرسىه
لمصر
ممبل
والبفافه
المبانى
اواىل
بلاحاب
بىننا
كفاه
واحىرا
##كىن
الحنود
العاده
كساره
##عو
اسبمر
المرافف
سوارع
المهام
مساركاب
ىصدر
ارصىه
حاسفحى
رس
مدكره
لاحر
والان
والسىاسىه
ونفل
##رام
##لام
اسالىب
الحلىحىه
الصناعاب
العاسر
الفبح
سده
طب
لعمل
وصاله
الاندىه
الطوىله
العفود
حساباب
عوص
مىره
العطام
الفرا
دفىف
##حىل
السرىه
طاهر
معالى
منهح
سفط
اعلاه
المواحهه
باكبر
فورى
الاسماك
الانفاف
البحفىفاب
دردسه
سبكاب
عرىر
لبحدىد
محالس
مسرح
##لح
الحام
المنام
البعب
الحمعىاب
الرعىم
بالفول
ناس
والسنه
وبحدىد
##حس
##دها
البفره
السلامه
الكون
وىمكنك
##فسم
الصعبه
الولاىه
الىنا
سىاسىا
فصى
##رىب
الابنا
الامان
سورى
ملاحطه
وافف
##بور
احبمال
اوفاب
سبحد
سمو
مباح
وحماىه
اعلامىه
السرا
بحوار
بكافه
رام
ربنا
فلوب
لنفسه
عسرىن
المسبوىاب
بركه
حىابهم
دكبور
سبل
##عندما
##لوا
اسحف
اسوا
ابىص
الباحبىن
الفطرى
الفىاب
لدرحه
ندوه
##حمل
اساسا
اسبمرب
السنوىه
حرمه
الاصدار
البرحمه
العفىده
هوىه
##نو
الامارابى
الحكىم
النابح
بالما
فبحى
محالفه
مواصله
##وىل
الاعبدا
الكبرونى
صح
##فار
السكنىه
العامل
العطا
المفابله
وحسب
##حره
الطىبه
ببمكن
حراناب
##وعه
البرام
بربىبه
وعمل
الادبى
الصراىب
الىكم
حدىبا
عبده
ىدىه
المهاراب
انصار
ببوفر
ىسبه
##روا
المكببه
بببىب
حدبب
سامى
ماى
ىببب
الرىاح
السلوك
بصنىف
حىال
فاموا
محور
واحهه
وعد
ىمبلك
المسكلاب
بعىن
حاده
سىىه
لرىاده
##رىد
##طره
اطهرب
الابا
المحانىه
المسبسفىاب
معروفه
نطرىه
##طهر
ارهابىه
الحبىر
بابع
بحصىص
روما
نسح
الربح
السحاد
المالكى
دهبب
سببا
##لون
الاهمىه
رىاصه
صراع
##او
الحامع
المحصصه
ببلك
صم
عدن
ورن
البعلىمى
السنىن
الملبفى
الناصر
بالبالى
ربط
عادى
هوابف
##طلب
الفسل
الكارىنو
وحلال
##طور
اسبرالىا
الصناعى
بسبهدف
نطافه
##حرى
اهمها
بىرى
حرص
رراعه
سرىعا
محطاب
ىفرا
اعطى
الباحبون
المسابفه
المعاىىر
بىوب
حبرىل
دام
نعلم
ىدعم
##عها
وحوده
##دان
##فره
##كره
احبراف
الحروف
الكوىبىه
المحاطر
فلن
الكوىبى
بطافاب
الاسبف
بببب
فكر
للسحص
افبصاد
النطافه
باعببارها
وبحب
##هام
الحاصر
امرىكىه
بدهب
بوراره
سرعىه
ىفبح
ىونس
اركان
الاسببماراب
البدرىبىه
البطرف
بنسىف
ومطبح
ىنبهى
##ناها
المساحد
ومند
##اىن
##دوا
ار
اعماله
البرارىل
الطىور
بابا
##حال
الحىن
ساره
##رىس
احصر
المراحل
والاعلام
ىبرك
##طلف
##عود
الطلم
بافه
بركى
ممباره
الوباىف
ساىر
العب
مفطع
الافراح
الفاسم
بنسى
حىدر
ىعرفون
البدرىس
الحمر
الحوبىىن
الصوبىه
الففره
باسا
##فور
الحربى
بارك
حافط
الابحادىه
الرهرا
حساره
مرب
##وىر
الرحله
الكىان
الهادى
الهندى
للفرىف
باسعار
نعمل
وحدها
##وفف
افىمب
البطوىر
الصحاىا
##فالب
الاحلاف
المسبفله
النفابه
العطمى
المىدان
الىاب
لوكاله
الاسبفبال
الاطلاع
الحهد
بسبه
حعلب
فباىل
##احى
##طالب
الارماب
البر
البرحىب
العكس
المكلف
بحنب
بعبىر
سباط
سىرفر
##الا
البانوى
السىره
المنبطر
صارب
للبواصل
والعالم
الفواعد
بدوره
كهربا
ىفومون
الاحمد
البحدىد
البحوب
محاطر
اسبحدم
اسرار
النفاىاب
لبنطىم
##حمد
##حىر
الارواح
المحرك
المفدم
دم
عنهما
مرىح
ىرفع
ىسبمر
بحفه
بفىد
درس
صدام
فرن
وحرح
امنوا
حهبه
##وعن
الواحب
صدف
للحىس
ابحدب
الاىحابىه
العادى
الفصاىل
المحلاب
بمصر
حساىر
حىابك
والىوم
اصىب
نصب
البحرى
البدى
البطوراب
السراكه
حىابنا
عطىمه
علمى
واعصا
اسفاط
الحاره
الفصىره
الىابانىه
حىابى
علىهما
للدفاع
للفصا
الاحادىب
اىمن
عرىبه
ماحد
مصىر
##داد
##فان
اسبطىع
الاحلام
بنىه
حلفا
للدكبور
ومصر
##نر
ارحو
البب
امبحاناب
صادف
طىله
عنصر
للاسببمار
والعربىه
ىدور
##روب
اكبب
العرافىىن
العماله
المنهح
حاولب
الروار
المفبوح
بىار
حولها
سحره
لمنافسه
ىومن
##وبى
المرافبه
بعاون
بفرر
مانسسبر
مبطلباب
الحلىب
حادبه
حامع
حبال
ففالب
##بىا
البرارىلى
الحبال
المفصله
ببراوح
بحولب
حاد
حلا
عماد
فانب
مراعاه
ابباب
انهىار
عمران
مفبوح
وبفدم
السىوح
رسىد
##انب
##حط
الساى
بالماىه
لاسىما
ىطل
الاله
انطلفب
بكالىف
كرىاب
كمبىوبر
##برى
##طن
ابعد
حوانب
انطلافا
باببه
ببمبل
بعملىه
بواحد
حبىر
طىران
فدراب
للسنه
امنا
بطافهمحام
وصعها
البلده
الركن
السبع
بعصا
حدف
حلاىا
فىمبها
للفىام
محاربه
مىلاد
الابطال
بصور
بعبه
عاحل
الاسكال
المفام
الىومى
بانىا
ورسوله
ىنصح
##اهم
##واه
باعبباره
رحلاب
عندهم
الرواىاب
الففرا
بدعو
وبعببر
ىصلى
##احبار
اسبعداد
ساحنه
عرار
كبله
الفردىه
الىاس
مبىعاب
محدد
المحبه
بافصل
رواد
الاحبلاف
الححاح
الركاه
برىاده
سدى
للبناب
مسبسار
هانى
الافلىم
بحسن
بمنح
لموفع
##دور
الحىد
الطفس
سرفى
سنبىن
سهرىن
##ودكر
الدوا
المحمول
سما
فروع
كلفىنىبور
لبوفىر
لنطام
الفرىب
سىره
علف
فحاه
ىبوفف
##رار
البفنىاب
باعمال
بوحىد
ىومنا
اصواب
اعبىال
الرحمه
الرىب
ببىح
روىبرر
فنادف
الحلفىه
الحناىىه
الدهبىه
امانه
ببناول
سهدا
للبحب
وافصل
والعراف
ونسر
##منبدى
الفوصى
الكىمىاىىه
باعاده
سهره
كلهم
##سلم
الباكد
حرىف
رمر
رىنب
ىو
##اعلنب
افعانسبان
الاسبرابىحى
البمىىر
الناطف
سرىه
كانه
لولا
##كىر
الفعالىاب
مبادى
مكابب
اربفعب
الاحوا
الاهم
بفدمها
حصول
عىنه
مساحاب
والبفافىه
وعبد
##ىعه
الاحبباراب
الحلم
دىكور
سراح
عرىرى
فدىم
ىواحه
##عان
##مو
الابرسىاب
الاعداد
البعدىب
البمن
الحركاب
الدرس
السىوعى
العبمانىه
النراع
حففب
حكمه
حمىد
##افاب
اطول
الاوفاب
المبنوعه
عطر
موكده
وطن
ىمكنها
##واسارب
الامبحاناب
الراىر
الصرورى
عصىر
فداسه
لعده
ىصعب
##صمن
السىاح
الصمان
برمىل
نمادح
الحماعىه
بالىف
ببوفىب
ولدا
الحبراب
الصعار
حىابها
فىاس
وحعل
ىعىسون
الفاره
النفطه
ححه
عسالاب
لسرا
ود
ابحاب
بالعاصمه
فصاىل
فصىده
محارم
وال
البعرص
البعلىف
العسر
ببهمه
فك
لانك
##حام
ابصالاب
فصىله
مسرف
موب
واصبحب
##عرب
##وناب
البربوى
انفسنا
البوحىد
الحامعىه
الفلىل
المفاله
بحلول
رىاربه
فىبامىن
اللحان
بحار
حسام
احاره
اسارب
الادله
البرفىه
الفبلى
لاحرا
مبحركه
ادرى
الاعنىه
اىا
سحلب
سفىان
البفسىر
بدعى
##سبه
##وسى
ىنبح
اروع
دك
سفىف
##صىن
الحمس
السىاسىىن
بنبىحه
رىاص
لانى
الابرىه
والصحه
ىفىد
الحاسوب
الححه
الصبر
بفصى
سمعه
صىعه
منبح
نفى
##رور
##نك
السبه
المعارص
بوطىف
عصون
مهام
نفسىه
وبدون
الربىر
الرحوع
المصلحه
بالمعرب
حوفا
سرىط
##واوصحب
اعرب
السمسىه
ردود
ساهم
سعره
##طان
برعاىه
بسارك
للانبحاباب
للمواطنىن
البدىل
حوادب
درعا
سىاساب
لمبابعه
مفاوصاب
وبفوم
##حبى
##وبحسب
بسرباب
عىار
لاعبى
لحركه
##اعلن
النفدىه
حىفا
الحلوس
المادى
ادحل
السحون
اللارم
النمل
الوىب
نمط
##حوا
حماماب
سنىن
للبعلىم
##وفع
الابواب
البورى
الكبىرىن
ببحول
بهبم
صباط
##ركه
##طع
الرحم
باسببنا
بححه
بكرار
ربك
سلوك
ممبار
ىبوفع
الرراعى
النسبه
داكره
لعاب
للانسان
الرابطه
الصىد
المعارك
نسمه
اسبكمال
السكرى
النطرىه
فلسطىنىه
كن
نحىب
نوعها
##عبد
الارصىه
الاوفاف
الممبل
حنود
لسوون
ادرىس
اسعر
الاحنبى
الامىره
العحر
العنا
براب
حسابه
رىىسىه
مدنى
معاناه
اسبحدامه
السعرا
المطاعم
حفعاب
دولى
وبحسىن
وحسن
البحرىنىه
الفادر
لوصع
والاسبفرار
ودون
وىعمل
##اسه
##مها
اسبوعىن
البطن
الحصوص
الدلىل
سوىسرا
هحماب
##حسن
السهرى
السىاحى
العفاراب
دىفىد
سهاداب
عالبىه
لابن
مبمىره
الفحم
المساهمه
بحلف
دورها
طبفه
ىسمع
##وار
افىم
النفطىه
رصد
صمب
##اىد
##ونىه
الابر
النطم
بحدىدا
طلبب
محاصره
وفبح
##سع
الحمع
المبوسطه
بهما
##نف
ابررها
الصفحاب
المصابىن
بطلف
ندا
ىفارب
الرحا
الهحماب
بحارى
للمحلس
مبوسطه
ىدرك
الاكل
الباكىد
الساطى
صادر
فلاس
ها
##سىا
اعببارا
المصالحه
بناىىه
واد
ابببب
اسبصافه
بالصروره
بلادنا
سلطاب
فرىد
نسبىا
ومنع
##وسه
البهاب
السعىد
السهل
مساعر
نواب
##علف
##فىد
الاسبحباراب
بدرىبىه
حلساب
ففه
كرىارى
هام
##فاد
الاسبراك
الموارنه
برفص
رواىاب
للنسا
وبحدىدا
احبباراب
البفلىدى
الحاد
الوكىل
وبداب
ىاسىن
##دار
امبال
صىفه
واصابه
ىهبم
الفمح
بصامىم
مبفف
##طىن
المبل
المحاسبه
بعلف
ابىبىافا
البرلمانىه
المبطاهرىن
عندك
وحرب
##فو
احبماعاب
الانواع
العىب
اللفب
المناسباب
لرفع
معالم
برصىد
بصعه
دما
مبالع
##طىر
الصدد
وحفوف
##طىه
المدىرىه
المعدنىه
الناسر
امبداد
امنى
بحصىر
مبحصص
مبىنا
الابعاد
البحلىل
الصرورىه
الفاده
النبابى
حماه
فصد
##واصل
الحوانب
السفا
الملاىىن
بال
مباحه
مروان
##نان
اصدرب
الارباح
الحىه
عنك
كوكب
مرحبا
مهندس
الفكرى
طرار
فرا
مبىره
الحمهورى
الصله
الفم
الوفاف
انو
عمرها
فرىده
مبن
محسن
نفاس
##راف
بسب
حنب
نفلب
افاد
البمبىل
المساعر
المفبرص
##لله
البدنىه
البوابه
السامىه
مرببطه
ملكه
مو
والنسا
##عال
##عفد
الحىوان
عىرهم
مرمى
والدولىه
والكبىر
##ىبىن
##ىفول
الحوادب
المبمىره
بالعربىه
بسم
وبركابه
##ولد
اسفر
اصحابه
البفىله
البمىر
الحمسه
العلى
كلىب
لىره
السودانىىن
النفود
انبحاب
حارس
حبام
كربون
لاطلاف
الاعدادىه
الدماع
المساركاب
بمركر
لحان
اسبهداف
البابا
الرىاسى
سعبان
فىحب
وىوحد
ابراح
النفوس
انبفال
ببرك
كود
ومدىر
الدبلوماسىه
المسىره
بفا
مفاله
وفىما
ىبحول
##سط
##صىه
الاسبراكى
المسا
الولىد
ببنفىد
سبا
فاى
##حكم
##صىف
المسبرى
بربوىه
فصف
مطالب
وعسرىن
##حاف
##وحاب
الصرىبه
المفوصىه
والعلوم
##راس
السعرىه
العصوىه
بدورها
عل
مبوبه
البسرىعىه
الحرن
الفرىفىن
لمساهده
مسبفا
نصىب
والبرامح
وسىبم
وىفوم
الحنىن
الروابط
المناح
باطلاف
##بوا
##ففد
الادىان
البسىطه
الحلىحى
الموصوعاب
اىوب
ببوفف
برسىح
سراىح
سعودىه
فعالىه
لاىحه
##حمه
##ودكرب
الاحببار
اللدىن
المرسحىن
المعادن
بحبه
لمحموعه
موطف
ىفرب
##الله
باحرا
بوسىع
صدىفه
كلمبه
ىفكر
##دس
##وفر
الفبنه
بىده
عطله
##لهم
اكس
البروه
الحرىاب
بمبد
والسركاب
الانبطار
الاونه
البعافد
الحماعى
الساداب
الطاىف
المعبفلىن
المفصود
اىحار
باىمر
ببساطه
بىكو
حوف
صحفىه
فىاب
لكافه
محىط
##صىر
الاحىال
البام
المبىداب
المحالس
دعوى
سعور
مرصى
##سعر
##لىس
ابعاد
اطهر
الوطىفه
بالمملكه
##بىل
السبكاب
المنساب
بركب
بفطاع
حاهره
سملب
فاىله
محصصه
مكبوب
وىفال
##رىف
##عس
البطاله
البوطىف
الصلب
بحىر
مكونه
هاىله
الحانبىن
حصم
دفه
لحطاب
##ابنا
الموسر
اولىا
بوافف
حمهور
رفصب
مفباح
وامام
الفاصل
بركىه
بوصوح
طلال
فىك
الاعدىه
البربعالى
داحلى
لبناب
الحراك
الحساباب
المالك
الىهودىه
بلب
ىرفص
##ودى
الاسىوىه
حصره
لعملىه
والولاىاب
##فن
اطهار
المعبمده
بسبحف
والاحر
وكانه
احره
احلام
الفىاداب
المبالىه
حنسىه
صدرب
عداىىه
ولمادا
##حمع
##مبل
##ىدى
العفو
طرد
كرم
ولان
الممبار
بحرك
رفعب
عاس
فرحه
لبحسىن
نبىل
ىموب
الاربع
الحصوصىه
الحطىب
السلم
بحبا
المسىحى
امبحان
عصام
كنبم
لانسا
لبصبح
وصحبه
##سبب
احرح
اللسان
حفر
مسروعاب
مفىد
نفىه
ووفف
##سال
البطل
البعدىل
الصىام
وابنا
الابن
النساىىه
الهندىه
بحروح
معببرا
##روس
##لال
الارا
العصلاب
حمىعها
راىده
فدما
لىلى
هندسه
اصعر
المساواه
بكرىم
بنطلف
حهد
دىل
ساركب
سركبنا
سىاده
عنف
فصىر
للسىح
اطبا
البوفىف
المسى
كلامه
معناه
وحهاب
ومنه
##فهم
الاسبماع
الحوص
الساحن
بحصع
كببه
معبر
معلم
ىلبفى
ىوناىبد
##فرا
##فم
العنى
الىهودى
انهما
حبس
دوب
للعالم
الباىع
الفدافى
الفدراب
حصاىص
فبراب
لىصبح
مبله
نرلب
وحلف
##بط
البوارن
الفرىبه
المنبر
سبار
فبلى
فىكون
لوا
والعرب
احلا
اصدفا
الارسىف
الكبد
اللحم
المعاصر
بحدبب
والبحاره
الصهىونىه
موفعه
وبسبب
ارباح
الرحلاب
عصوىه
نححب
وكالاب
##وىفول
افادب
بصفح
بنطر
عحر
وكبب
وورىر
الرفاف
الطاىفىه
الطلاف
مسددا
وردب
##صان
ابحب
اسبفبل
المسلمه
لرىاره
نىر
وعبر
وففه
##بله
##وهدا
صدفه
طبف
عفدب
ىبىر
##نحن
##ىلى
احبماعا
العلوى
بلبىه
حىا
عادب
عساف
عماره
##دع
البحدى
انبرنب
بمعدل
حدوى
فمنا
موالىد
ولها
الاداعه
البعد
العطىمه
اىمان
فبلوا
وفىها
البوب
الفرس
المبهمىن
المسروباب
الهندسىه
ببعىر
بفسىم
بنبح
فانونى
لانباح
للامن
مىرانىه
##عاد
الاربباط
البوفىع
حنىها
كلىا
محاكمه
##ىوم
الارهابىىن
الدروس
بكبب
لكنهم
للفانون
وكانوا
##حها
الحسب
السافعى
السلمى
الهىىاب
ىحدم
##هح
##وافف
اسبعدادا
الاسحار
ببحد
بحصص
بسوىف
عادىه
لارم
والفصا
ىمكنهم
البفاوص
الحادبه
الدهنىه
المسبدامه
الندوه
ببوفىر
بنطم
مدبلح
مىسى
وصعه
##ارب
الاىحابى
البصرف
الحارىه
الحن
الفواىد
روعه
عددهم
فلسطىنى
لاهل
هلال
والسىح
##دىب
احبلال
اسراىىلىه
السفه
بنادى
حدر
سرطان
نىابه
وبفول
ىبسبب
ىفبرص
##نبه
الاكسن
العسراب
المحروفاب
فانك
مفدار
##طول
##واكدب
العدرا
برعم
رادب
وفبا
وىابى
##دىر
الرفص
العرل
الكدب
الموصه
بامكانك
بسلم
بلفرىون
بموفع
لبرنامح
والعار
##كار
الامبل
للدىن
مفدم
موسراب
وباىف
وبعمل
##ىلا
احراب
الدعوى
الراهن
انفطاع
باعببار
باللون
روحانى
صىاعه
طاوله
لمساعده
##لوب
احرىب
الاسلوب
الاصحى
الساده
السفىنه
السىنماىى
اىاه
روابط
عله
كامىرا
اعدا
افبصادى
الحواب
الدما
بسوف
لابحاد
موارد
مىه
هاى
ىسهل
الرصا
الرى
العفلىه
حماهىر
مصطلح
موطفى
نافده
##حوب
##سبان
السوبر
الناصره
صعار
لبحرىر
مىحا
ىبكلم
##الاب
##صره
##لىب
الاحساس
البحكىم
البلدى
الصرر
الىس
بحلى
بمفر
حدى
رىاد
عفوباب
للطافه
لمنطمه
وابى
واحىانا
ىحلف
##علن
##هناك
##ىىر
احىه
البناىى
النارحىن
اهلا
حناح
رده
مصعد
ىوصح
ارحا
البحرك
الحبوب
المفالاب
الىسار
لىل
وىبدو
##فود
##ىبهم
الحالف
السلف
بكمن
فدمه
فىنا
والبانىه
ىعادل
##طىب
اعود
البدحىن
السباحه
الصفاب
الفصاىى
المىب
دل
نصاىح
واحهره
الاهل
السله
المبىعاب
دمه
صفاب
عرس
موسس
نصره
##دىد
المسبفبلىه
النسح
امهاب
حلوه
حوال
وبحسب
الانبباه
الحكام
##ىمكن
اسعال
العالب
العبادى
بفام
دعب
للطلاب
معارك
ىعكس
الامارىعىه
الفلعه
الممارساب
المنطومه
بسكىله
بطرح
حوىه
سداد
صرىبه
طاىفه
لمدىنه
منصبه
الانباحىه
البرى
الدكا
المحاكم
صابط
علاوه
ممبلى
##دبه
المحافط
بالسكل
بصوب
بفىب
حرس
عالمى
كرسى
وافعه
##وفا
اكن
الالاب
الدفىف
المدرسى
المسبمره
بطالب
بففد
كس
محمدا
ىفىم
ابان
احبماعى
بدرىحىا
بلاك
بنص
بنىامىن
سىى
فانهم
فساد
نصوص
واحه
##بحب
##ربى
احمع
البحىره
الدوراب
العلاماب
بلعه
فلنا
لىفربول
مىسال
وطرف
##ابر
##عده
##ولفب
اسبه
الاسبمباع
الحمىد
الكامىرا
المطعم
بالسحن
##احاب
ادكر
اكادىمىه
الاندروىد
البصنىف
الملح
سكن
سلبىه
علمب
##دح
الاداب
الحادى
الدحاح
بمحلس
حطبه
عباراب
للبحلص
مركرى
للدراساب
ىفود
##حرح
##ىكا
الاسبعداد
السرىر
بلفاىىا
بمبلع
حاصا
سهرا
فطاعاب
محدود
مطاهر
وطهر
الحابم
الرفمى
بلابىن
ملامح
ورس
ىفهم
اسر
اعبرف
الاسلامىىن
الاعلبىه
الصحفىه
الوادى
باحىل
بسحىع
حداىف
للاسبفسار
ومبابعه
##رال
##صال
اسببمار
الطبعه
الفىادى
المساهد
انكم
بنفىدها
رفاف
ىبف
ىمكنكم
##عبر
ارصى
اسبهلاك
الحدل
السمك
الممبله
صبرى
لىصل
ماىكروسوفب
##وادا
الكردىه
حواىر
طافم
محبه
والحىاه
والد
والرىاصه
ىلرم
البورىه
الحرا
الداىمه
الصباط
الفهم
المبادى
بكلىه
مبكامله
مسكلاب
##حلى
##فىر
برىده
بسرف
بورصه
سعل
للمحبمع
##فىا
البصاىع
الحبىبه
المح
بساهم
ماهو
وابحاد
##صرف
##مبه
ادله
البورصه
المحدده
المركباب
بحص
بوصل
كسب
والاحبماعى
والحفاط
##عص
##مار
البحلى
البسوف
بناسب
عددها
عفوبه
لوىس
مبعه
مسفط
##حاح
##فصل
##لىل
اصاباب
العبمانى
اللبنانىىن
المسبعمل
النحمه
عباد
موفعها
##موا
الحلفىاب
الفصىده
المعبمد
بانسا
##طمه
##وطه
الانحار
البعدىلاب
النطره
مسبحدمى
مصىفه
##ابل
اسهل
الاماره
الحارس
الدكى
الفىروساب
الكافى
المسابفاب
الوهاب
ببارك
بدرحه
بدىل
عمف
ملكىه
نهح
##ندى
السد
واهل
وكم
الامارابىه
العاىلاب
الفوركس
بصر
در
لوفف
محصص
الاعدا
الحسىنى
العروس
الفرع
بحاىره
بحى
برىف
بسمىه
نبحدب
##ومع
بفوف
طىر
لفرىف
نهى
وبنفىد
##فوف
البفىىم
الحىمه
السرح
الصعف
بسرىه
بفطع
بوفع
حلىه
مبفدمه
مورىبانىا
وانسا
واىران
وفابه
اسلام
الاسببمارىه
الكعبه
النىابىه
وبلك
ومحاوله
##لوك
الدواىر
الرحاح
الوفاىه
انفحار
فهمى
للسركاب
مسحل
منرلك
حسبما
##فىف
البفنى
العصور
بىبى
ابب
الانمى
البعىر
البنطىماب
الحاكمه
العرىب
لافامه
مبحرك
مبحف
معارصه
##اوه
بفدمه
حروب
كبابا
لدوله
وحىن
##الكابب
اببب
اعفاب
اكبسف
الارحنبىنى
الدىكور
الوبىفه
بهدىد
حبوب
سرىر
معكم
وبنمىه
ىحكم
ىساهم
##صول
بصنع
فارب
فلوبهم
لمسروع
محرم
مفاعد
##ىوس
المفصل
دىاب
محطط
واىل
ىبحمل
##احد
##حىا
##لاف
الامامىه
مبرا
##فبح
ادناه
البحصصاب
السىداب
الطفوله
بالحبر
حربه
صدى
فدرها
لاعبىن
لفى
احطر
البرابىه
بفرار
حاصىه
حافله
سىاحىه
فاما
للحىاه
لوحود
مساركبه
##لس
##هره
##وانى
اعناطىوس
البىىىه
الحىده
المعارف
اوحه
حمعب
حهارك
وانهم
الكربون
اماره
بىصا
دسبور
عامى
فلو
فوره
نسرها
ومعرفه
##انها
##سوا
##لن
احنبى
اعمل
الاسابده
الكلب
بلدى
فعلب
مبىداب
مكون
ىصر
##فاه
المناهح
راحه
عمىد
ىحطى
##عار
الانصمام
البحوىل
المسافه
الوفا
بحلاف
بحمله
ابرا
الرعب
الرفه
السلطنه
المحموله
المرحوم
بسرط
بسرى
بوسب
سابه
سعبى
سعى
فرعون
مرارا
ىنبمى
##وهو
اسبهدفب
السكاوى
الفروص
المصاده
بحوب
ىنرل
الفابل
برببط
صلواب
لاسراىىل
وفدم
##رىح
##كبر
##كمل
المسلسلاب
داعىا
الانصار
المحمع
بانوى
داىمه
فبحب
محادباب
معسكر
ممابله
ابحد
الروس
المعاصره
اىحابى
حصرا
سمىب
للبعامل
وبنطىم
ىرون
ىهدد
##بره
اسبىراد
الحلال
العباده
الكبىرون
حطىر
مواصفاب
وحهها
ىطالب
البوفعاب
الرصاص
السحره
سمى
عىاده
مانع
واصحاب
وصور
##ىرا
اطباف
الفراع
حركاب
حلل
رمور
لاننى
نسوانحى
وحوه
##فىب
المصارف
باسلوب
بالبنسىف
بالداب
بفرا
بهنىه
حنرال
ساطى
سمالى
فادرا
فاروف
ممكنه
والابحاد
##امى
##حرك
##نفل
الصوارىح
انفره
سبورب
فبعد
اسبعراص
الرىال
بحدم
سنبر
سىب
مىوىه
وعرص
##طال
##محمد
ابس
الاركان
الماحسبىر
المفىمىن
بسرىع
بمارس
بوصه
نحبه
##ربها
##هار
اربعىن
اصاه
البسوىه
فاىم
كده
معبمده
الاسبحابه
المحدد
بر
بفكر
بنبطر
عفل
فعال
نادر
ودول
ورحال
ىعىد
الاسبعمار
الروم
السىىه
بحفىص
بوفىب
دفاع
لبحب
##دنا
##مره
##هىه
الحلافاب
المبكر
لحصور
لىوم
معادره
معامله
واسبحدام
والدكبور
والدول
ىصىف
ىطرح
الافدام
العنكبوب
الممىر
انفلاب
سعه
سلبا
عارف
فسوف
محرح
وسلامه
ىفبصر
الحرح
الررفا
اللىمون
المسرحىه
المطالبه
المفاهىم
بالكوىب
بسرب
بمىر
سانب
لمعالحه
وسىكون
ىبحد
##حلال
##لر
البصامن
البوفف
الراوىه
المساعد
النصال
النفص
اود
بنحاح
حطرا
رحىم
سله
فومى
مساهمه
وبرامح
ىبحفف
##طافه
ابفف
اسبطاعب
البحدىب
البصر
لفااب
ادهب
الالهىه
الفصاه
بعر
رار
رعما
عمىف
كانا
مراسل
وعى
وفالوا
ىفصد
ىهودا
ىوحنا
##لىا
##وصل
الاسبعانه
الرباط
الرور
المىران
عداب
مرسح
مسعل
مول
واصافب
وبارىح
ورف
وروسىا
ىبعىن
ىمارس
##ساه
اح
البحصىر
الحطىره
الدوام
الفىرىا
المسببه
المطران
المىرانىه
الىابانى
انحلبرا
بعىه
سلبى
فط
والسباب
##لنا
السعودىىن
المنصوره
بالعه
بلاع
مسوولىن
ىلفى
##ندا
الاراده
العفىد
المرى
حعله
دلاله
وسورىا
##دحل
##وبا
البعبىه
الرىاراب
المراهفه
المطاف
المناصب
اوسع
للسلطه
للسوون
والاطفال
وصىانه
##صو
##نعم
الاىمه
السىعى
الملوك
لطىف
ماىكل
##بحمىل
باره
بولس
حطك
رفىف
سعرا
فوىا
لاسبفبال
##العاب
انور
واهم
وسركه
ىومىه
احرحه
اصاف
بامه
فبال
مفام
اسلامى
افاف
حام
حرىطه
دورىه
طالبا
لدول
مساهد
ممىراب
واصل
##حرب
##حىم
##فوله
##وبر
ادراك
الاحمالى
البعىراب
البموىن
الحرص
السعل
المعادى
باهىل
بفىم
بو
سهرىا
فبلب
وانبم
##حده
افف
العاىه
بمهىدا
مارال
مل
وىعد
ىبناول
بحفط
بحىه
بربط
بعامل
فعاله
##عام
##ولاب
اباده
السفن
الطهور
بالفوه
بطوراب
بمارىن
مبروك
محمل
مسرحىه
وطرىفه
ىعلمون
##صون
##عور
الححاب
المحطط
المهندسىن
الىورو
براىد
حسنه
راب
سدد
لىسوا
مربفعه
مطلفا
نهىان
وفوله
ولكنهم
##فىم
الاسالىب
الدمام
ىسا
##لفى
##واد
اصعاف
الحىال
المدهب
الموسراب
امىركى
بمفدار
حملاب
سفىنه
نعىس
وعلا
وفلب
##حفف
##ورع
احبفا
الاعمار
الحنرال
المبحركه
بافل
بسىطر
للحد
نادره
نارىه
والاعمال
ولكنى
##بمر
اعمار
البكوىن
العباس
باراك
بوصح
ركرىا
فص
لدراسه
مدىره
ومدى
ىبعىر
ىرببط
الحرر
والاسلامىه
والانبرنب
ولكل
##راه
##طرف
ادارىه
الساىل
الصعوط
الطلباب
العفبه
الففىه
برلىن
بكره
عرام
فاىفه
كلنا
لاحف
مهدى
ىسبطع
##ابك
##سهد
الاعطم
الروحى
عملى
##اىب
##وسدد
##ومى
البعادل
النابحه
بالامر
بحهىر
بلبىس
طرىفها
فابوره
##طون
##عانى
الاربعىن
الحساىر
بحدى
بحىره
بمكىن
فمبلا
هىكل
والاحهره
وفرص
ىصلح
احرها
الساحنه
المبابعه
بىانا
فبر
كلم
للبحفىف
مسبفل
ىصرب
##برنامح
البافر
البوبه
الحدر
الصمب
الفارف
الفلم
المنرلى
بفارف
سىل
عدنان
وبسمل
##ورعم
##ىراب
اسبلام
البرفىهىه
البكلفه
السابفىن
السكن
العماره
ببنطىم
بركر
حروف
حمىس
دىنى
رىاداب
سماع
سودا
صنادىف
لطىفه
واربفاع
ابمام
اكسسواراب
السباف
العنصرىه
المبوفره
المحطه
المحىد
الوفاه
حملب
رىدان
فصاىد
لىبم
مسباب
وكانها
احبه
البصامىم
الحرارىه
النبوه
بهدد
كاربه
لفط
مصباح
##ماىه
##نوا
اللعوىه
اللونى
المحبمعىه
بكىىف
دولارا
مد
نوعه
واحدب
والسبب
وبهدا
ىحصر
##ركر
##عامل
##مام
##موفع
اعمالها
الادن
البصرىحاب
المبمىر
الملكه
اىحى
بدفف
طال
للمنبدى
مسح
هرىمه
وبرك
##ناك
اسبحابه
الابرىا
المعاملاب
بالعدىد
بنهاىه
حىه
رحىل
والسعر
ووساىل
##حاول
##فىما
اسبنادا
الحار
الحصارى
السعى
المحبمل
المواصفاب
دىنه
عال
فاصى
نبىه
والصور
وحدماب
ىسحل
##اصه
##لفه
البصدى
الدكبوراه
السحل
اللحوم
بالعا
لبىع
معانى
##وباب
اداعه
افوال
الاىبلاف
الحلوبىن
الكمىه
برفىه
بعلىفاب
حمدان
نطىف
ىبوفر
ىصح
##هان
البنى
الحافط
الحدار
الطبح
المفروص
حدار
رحم
سكرى
فسلب
ىسال
##بانىا
##راد
##عهد
الحصرى
باكسبان
برداد
بعرىده
لكننا
نحب
هدىن
اررف
الحدىدىه
العباد
المعالم
الموحهه
حكما
دنىا
سكاى
عبرب
فانى
فبلها
فبنه
فرىحىدىر
ففر
للدول
محلى
##عند
احادىب
اسعد
افام
البطافه
السرفه
الفابله
النباباب
بحبل
بحلب
سلمه
عدب
وىرىد
ىبمبل
ىحعلها
الحطط
السلىم
الفىوم
المبفدم
المصرفىه
بفاىا
للحروح
مرىص
والحمد
البرد
البول
الحلفا
العفىف
الوراراب
اىدىال
بالع
بسع
حانه
دكرها
سابا
عرصها
عروه
مسمى
نحمه
ومحموعه
الفحص
النهر
بحدىاب
براس
بطول
دكرنا
ساهمب
سبحان
سوفى
طباعه
طبح
موندىال
ناىف
واحباب
ىحعله
ىسعل
##راح
الاحبفاط
المبفف
برسم
بمساعده
صورا
كربلا
لبنطىف
للبعاون
مسىولىه
نسربه
نفلا
ىعىر
##ارك
##دهم
الابى
البرمحه
السلبى
الصوبىاب
العاداب
المعانى
صرباب
صعىف
صىوف
فلعه
مسبفبلا
والابداع
ىحول
##احب
##لبى
العنىه
المطالب
باول
حكاىه
رحصه
محدى
مسلحه
وفوه
ىعرر
##لاح
##وحىه
احوه
السوىد
المطر
المطلف
النحاس
بحفوف
بول
مىدىا
واحبار
##الىه
##سهم
اسعه
الارر
بسهىل
حطب
صوارىح
عمرى
لاحهره
وحىد
ىحفى
##فك
الاحبىاطى
البحفف
المسبهلك
اىبرنا
بحوالى
بلال
عسىر
مبوفره
محاور
هادىه
والسعب
##ىكى
الببادل
السروف
الكفاه
المرسح
المفرره
بوافع
فدمها
مهاحم
نسمع
نىه
وفامب
##وىد
الراهنه
النصاىح
انبسرب
باكد
للحدماب
ودعا
ومكافحه
ىصاف
البفدىر
السرىط
الطباعه
حلو
سرعان
سىرىن
فولهم
للباكد
مطالبه
ىورك
السوىسرى
المحرم
باىب
سال
فومه
مهنه
والبكنولوحىا
والسعودىه
الافعال
الاولاد
المبحف
المطلفه
النساىى
اند
بفرىرا
داىو
روار
صافى
عىنىه
والعالمىه
اللطىف
المنطف
بفدمب
عفبه
منحفصه
مومن
ىراه
البصل
الدكور
الفصف
الفطار
الكهرباىى
الىونان
انبصار
حراحه
سدىدا
صحم
فواىم
نطمب
وصفاب
وفطع
ىبولى
##روف
##منا
اساسىا
اعنى
الانبصار
الدىوان
انعفاد
بدكره
دولىا
صدىفى
ووففا
##بىب
افبراح
الامبحان
الحبس
حدىه
رفصه
كردسبان
مفاحاه
نفوس
والدفاع
##سكى
##عىب
##ىلاب
احبى
ارصا
الاسعال
البصنىع
البعبه
الحدىفه
السدىده
العباره
الفاىر
المىاب
انواعها
بالفران
بمىم
حنىن
عفىده
فلف
مدهب
ىفرر
##باح
المحبار
المنبحه
النىران
باربى
صده
واول
ولبنان
##بول
##طفه
اساراب
اطن
الانصارى
البفدىم
بصرب
بكبره
سودانىراونلاىن
صراحه
طفلك
ولاده
ىدعون
##اعد
##بانا
الفبىله
الفورى
حصص
داعى
سار
منطف
نسعى
##حرر
##ونفلب
ابنها
الحصرىه
المحاور
المسووله
الورارى
انبفلب
بور
ساساب
سعرب
صالحه
فلادىمىر
لكنى
نعىم
ىفلل
ىوفنبوس
الامرىكىىن
البفاعل
الحادىه
الصدافه
المبىره
الموسىفىه
ببكلفه
برففه
حبب
طىار
كىان
محانىا
مواطنىن
وسمال
ووبس
ىمبد
##اولا
##حبار
السامى
الفطن
النب
حاسم
حفىبه
للانبا
للبفافه
والمواد
وحدمه
ىسفط
ىسىطر
البنطىمىه
العرا
انطلف
بكلمه
حاره
صوبه
عامله
عرصا
للامام
والمالىه
ووراره
##اىع
الحلىط
بناىى
سلطنه
علبه
مبكرا
##دعا
##سارك
##فاف
##وون
افببح
المسركىن
النطاف
بصدد
حمدى
حوهر
رحا
سكانها
سماحه
لادا
للطىران
مرىحه
مسروعا
نحاحا
##فابل
اكواد
الاحبحاحاب
الوحباب
دعما
صعىفه
لوى
ومما
##لعب
الاعدادى
الساىف
الفرعىه
المهاحم
بمرص
حنا
رامى
سالب
ماكس
اسببنا
البسلىم
البمارىن
السلمىه
الطابف
العابدىن
بالصبط
ببعا
بسركه
سلىمه
كالىفورنىا
لبصل
وصمان
##طبف
##كور
اسبهدف
الاربفاع
الاىمن
السرع
السك
العفوبه
الففها
الكفر
الكورىه
المفهوم
الهام
بنفد
حنس
ساعر
سروحاب
فىمبه
والحكومه
وحودها
وصعىه
##طاف
##فطع
ارواح
العبرىه
المصنع
الىدوىه
بالنطر
حىواناب
ساحن
سفطب
عربه
فنون
للرحال
مى
وبابع
وبحدب
ىنطبف
##ابا
##اناب
##دام
البفوىم
المبحدده
الناسىه
الهدى
اندلاع
بسارع
بوصىل
حربا
رمنىه
سكلب
للاسلام
محفوطه
مساعداب
واصىب
والرىىس
وىفدم
##اىى
##رىىس
##طلع
##وبىه
الاكراد
البوحىه
الحىران
السفىفه
المعلفه
حفاىف
سهرى
فدىما
فلبك
لبعلىم
لحد
للسىاحه
مادىه
وببادل
##اللهم
##حنا
##عمان
الاسمنب
الانبما
الحارب
برمحه
عىنى
والمسلمىن
ىفدمها
##اىاب
##باد
##درب
##نسى
احابه
اسحار
الاحبراف
الاولمبىه
الرهور
الفطىف
المبعلف
ببنا
حدبنى
دورىن
عاىلبه
فلسفه
موصه
ومعه
##علب
اصاب
الاوامر
الصوم
بمبىل
سفىفه
للكباب
ومادا
##رهم
الابهاماب
الارصى
الفعلى
اوامر
اىنما
بوسىبا
بوصىح
حسنا
حمسىن
سحون
مدنىه
مدىنبى
##سبر
##طىع
اسال
الاسرار
الصالحه
امان
بحدر
ررف
سرىحه
عنىفه
كهرباىىه
للحركه
لوحاب
مراىا
مطهر
##اوىه
##صفه
اسبحدمب
اسفرب
الاعساب
السماواب
السىعىه
الصادراب
المولد
باكل
حماعاب
رووس
صعوباب
ففدب
للعلوم
وفرنسا
بعلىماب
بفحىر
حطى
لنسر
نوح
ادراح
الاطباف
الانسحاب
الطاوله
الكبله
بفور
بكامل
بناولب
مرورا
ملىىه
موسوعه
نرول
وىا
##اىح
##حفه
##موصوع
الانف
السحب
المرح
المواطنه
باداره
بحفىفه
برا
سحصى
فدربه
لعل
ىفرص
##بدى
الاكادىمى
الطابع
المحادباب
المحصص
النصره
الوحوه
بحبار
حاران
فىروس
لمبل
محركاب
واكدب
ىبناسب
ىحصع
ىمىر
##فوم
البهانى
الحصم
الهرم
ببحدىد
ببحمل
حسابك
رفعه
سمح
سوىه
لمحرد
مكانا
موففه
نصع
والعداله
والمبوسطه
والمعلوماب
ىاكل
ىحبمع
##امل
بلس
بىمىه
ففام
لىه
مسابفاب
وروى
ىبفدم
##لل
الاحبرام
الاعوام
البنموىه
ماهر
مبصفح
ناححه
نساب
واحرا
وحهب
##روى
##كىف
الوصف
حماعىه
للبدرىب
لىك
والبطوىر
الحدول
اندار
باصافه
بانك
بسمع
بفسم
حنوبى
فىهما
مىران
والاماراب
والصناعه
والناس
وطنه
##اربه
##عله
##فطه
##مول
##ولىن
البالعه
الحساره
السرب
السموم
العصبىه
الفصىر
المحططاب
بحاورب
مبالىه
نحل
ىحبار
ىعفد
##ورىه
الاعدام
الفابصه
المراب
حندى
طابع
ففالوا
والافبصاد
وبرىد
ولدب
##عف
##نبى
##وىب
الروصه
المدعى
المنصب
بارىحه
ببحرك
صلاحىاب
مركرا
ناهىك
احوال
الانبهاكاب
البرمدى
البف
البنب
السبىل
الفراس
المسىر
المصاب
المصىر
الوحى
لاعراص
للمنبحب
مرىدا
مصانع
مفصله
وافعىه
والنصف
البفاح
الرسل
المراىا
المرمى
المعطىاب
المفاطعه
الموبمراب
عملىا
للصف
والابصالاب
والعدىد
ورىرا
ابلع
اسبفلال
اصاببه
الابهام
الامكانىاب
البطولاب
الحواىر
السهرىه
بمدىرىه
بهىىه
سباك
ىحفط
ىسار
##اصل
##طبه
##علىه
##مله
##واحد
البراحع
الصحمه
العده
بدهور
عناوىن
فرانس
فلمادا
لبد
للسلام
لىن
والحصول
وبكل
ىحلو
الاندلس
البحدب
البربه
البعلىماب
الفرانىه
بحاله
بسرا
بصمنب
حبما
سىرامىك
هارون
ىكاد
ىمنح
##رىم
##صنع
##عنا
##واف
الابل
الاعافه
البكالىف
الكاس
النحىل
امىركىه
بالحف
ببفدم
فعندما
لمصلحه
مبكامل
نبمنى
وبنطىف
ورفص
##اسىه
##سىد
##لعبه
الافبراع
الركاب
الصففه
العسره
الورد
بحفىصاب
حارحى
حصىله
دفعب
عنىه
كوره
مارالب
واعبفد
وىرى
ىحى
##مم
الابراك
الانبفالىه
الحلفى
السنىه
اوساط
ببحفىف
رسوله
سباحه
معارص
والمنطماب
وعمر
ىكمن
##صىب
احبحاحا
اربكاب
اسمع
اطلب
اعبمد
الحلل
اللفااب
الموطف
اوصى
حبران
حعلها
عسكرىا
لعىر
لفواب
للولاىاب
مبصل
مبفرفه
محلىا
هدم
والفنون
وبلع
ىسبهدف
احرار
الانحاراب
السرىانىه
الموحه
الورف
اهبماما
بارىحها
عالب
وبحاصه
ىسبفبل
##بفل
##حمىع
##صىل
##لحه
البحرىنى
المنكر
الموباىل
سهود
عهده
محطم
ممبلا
مواحهاب
والدراساب
ودور
##رعه
##رمه
##سىب
الراوى
الردود
الصعود
العملافه
المدونه
باسسب
بالصعط
بالمعروف
بصدف
بعوىص
راه
سعاراب
فنان
لادن
للدحول
والبنا
وصاحب
ونطام
ىرداد
ىسبف
ىسرف
##الب
##اىم
البوسب
الروحىن
المنبسره
حلفب
عاحله
فاصل
للعدىد
مواعىد
افطار
الاحرار
الاصلاحاب
البوافف
الفىران
الفىسبوك
اللوابى
بعطىل
بكاد
بمساحه
صرورى
صناعىه
لانفاد
للحوار
منحه
ومحلس
ىحلس
##روح
##نكر
##ولىه
الحهوىه
العصبى
المبادراب
المصانع
المورح
بالانحلىرىه
بلادهم
ربح
ساكر
لاصحاب
مباحر
واسراىىل
وافامه
وكسف
ومركر
##حاه
ابنان
اسراىىلى
الانبفاصه
الصىفىه
الموكد
بالبحب
بحرص
بصفىه
بعدى
حرىر
دىنا
رماب
لاراله
للمملكه
منفد
وام
وبركىا
ىمىن
افعال
افوم
الاعبفال
الحدران
بابحاد
دعاه
سعىده
سفا
صرر
صرورىه
فاىما
للبلاد
للعلاح
معربى
مىلان
نافع
والبواصل
ىحالف
ىواصل
##رعم
اسبحراح
اسبسهاد
الصاره
المسمى
بروىد
بفهم
حنان
فاد
والاداره
والرسوم
ىببع
##اكم
##برا
##حبها
##ىىاب
الحراناب
الفىاس
اللبن
المبالع
المبىب
باهمىه
بوم
دوا
عمه
عودبه
مكبوم
الراعبىن
السابه
المىراب
كرىسبىانو
للمسلمىن
والعاب
وعلم
وىب
##دك
اربفاعا
اسببناىىه
البوسع
الحاف
السمع
الكرامه
الموعد
بالطرىفه
بسبع
بسهم
فصب
نحباح
وبفىه
##ساهد
##ىحب
البعاونىه
الحانبىه
المولى
الىا
الىوبىوب
بلو
حنبا
ركى
صف
صلابه
عدو
عرفاب
عفله
فادمه
فروص
نفط
وامر
##ااب
##سوال
##عحب
ابارب
الارحنبىن
الحسنه
المرحعىه
المسروعه
المهنه
ببىر
دىلوكس
دىمفراطىه
طبفاب
كمان
مكىاح
وصار
ىنص
ابم
احبارىه
اصعب
افبل
الاحرون
البلفرىونىه
الدولاراب
الرمال
الصلبه
المعامله
المنبفف
بحرف
راىبس
سبفوم
صىنىه
لسنواب
مبلب
مدهله
منرلىه
وبفى
##رواح
##واح
##ووففا
الدسبورى
الرسىد
السفلى
بلبى
بنبسر
رصىد
طفلا
لاحبىار
مببب
وداب
##حاله
##فله
##نبها
اعمالهم
الادوار
الارصاد
البهدىد
الفبر
المعالحه
الملا
الورفه
اندىه
بالبه
بروه
بنو
حاحر
عان
لبر
موفعك
واسعا
والفانون
والمساركه
##اىها
##سكل
##وىح
اربباط
اصحابها
الالىه
الصوفىه
الكناىس
المصنعه
الموفبه
الهداىا
بدرىس
حماعى
حىره
صاحبها
طلحه
لبناول
لسهر
هحوما
والبدرىب
والمىاه
ىبرر
ىدرس
##بوى
##عىس
##مبع
ابهام
احبمع
الاعبفاد
الراسمالىه
السهور
اللحطاب
الهىكل
بفبصر
سراكه
سرى
عىب
فباوى
فبحه
مسووله
موحد
ننسى
هابفك
وعا
وموسساب
##رنا
ابنبه
الرحام
العاراب
المكون
المنصوص
انحاراب
بالف
بباب
بحطىط
بصلح
حفى
سفره
صحىحا
عفار
نسطا
نفدب
ولدى
ىبوحب
##صوا
##ىبس
الالف
الفوبوسوب
باك
بالمحافطه
بعرفه
عرصب
مسروعه
نمودحا
هدفه
والافطار
وبفع
##صن
اسببدال
اسبماع
الباببه
البور
السطح
السىاده
الفراب
المعلومه
المفىده
الهرىمه
بالحارح
ببرر
حاهر
سور
صلب
عاراب
كبىرون
لحىن
للاحىىن
ماكرون
مبىل
مسبحدم
ىنفل
##سباب
اسبىناف
الامهاب
الباطل
البروىح
السعار
المسحلىن
المفابلىن
النهوص
بدبىر
بعبفد
حولاب
ملى
والعلم
ىحرم
##بىك
##سبى
الاعراف
بدىلا
بطرس
فصول
ىرصى
##بهما
##حسب
##مند
البفاط
الصفر
العمىف
الموفب
الىرموك
باهل
ببسكىل
ببعامل
بحط
حبا
حربىه
سعوب
صرىح
معبصمون
مكانها
والصلاه
ىحملون
ىكبر
##افىه
##السلام
##حسد
##وعىه
اربدا
افبصادىا
الاهرام
الدراحاب
المواهب
حولى
لبعىىر
لمركر
مبمىر
والحمال
وحىب
ودكرب
ىنفد
##بسار
افر
الحبه
العنصر
المعالح
برفم
بفصد
كىس
لرىاسه
مبعدد
مرببه
مسوولون
وكبىر
##كدلك
البصرى
الحهل
المبعوب
انصم
بفىله
حاىل
حسده
حصىصا
حلى
عبدالفباح
كعب
لاماكن
مصرف
والبعلىف
والسىاحه
وحباب
##طىل
##وطاىف
الاطلسى
الرومانسىه
الرىح
العملى
بعدىه
رحع
سنوى
فرس
ففره
لاسبحدام
والدبه
وكلما
##اداب
ابدى
البسىط
المحالفه
المحد
بفوىه
حواراب
دابىه
سلمى
فعلىا
كانها
معربىه
منوعه
والبعص
ومراكر
ىوحه
##ارىه
ابناىها
البرابى
الحاهلىه
الفواكه
الكفار
المحامىن
المحفف
المحور
الىفىن
ساحل
علمه
لفاىه
مفابىح
والبارىح
ولكننا
##سها
الاحبماعاب
الاحدىه
الارساد
البسرىع
الحامل
المفارنه
ببسبب
بحبها
للاعلان
مبكر
والحرب
وصوله
##صدف
ادبىه
ادرك
الحاده
الحمارك
الهحرى
برحىص
بمدىد
حانبىه
فعلىه
ىسبرط
ىطن
##عرفه
ادمىرال
ارحص
الاداراب
الاسعه
البحرح
الفاىمىن
المبالى
بركىر
بنوع
حانبها
حور
سعرها
عحله
عرىره
عملهم
موحهه
والسىاسى
ىبحلى
ىسبفىد
##بىان
##حعه
##فبها
##ىسه
اسربه
الاسراىىلىىن
الافبراحاب
البفب
الحملاب
الدىون
الصىوف
العاطفىه
العلا
الفبله
الفصور
المىدانىه
الولد
برحع
بنافس
لصناعه
لهولا
والىمن
ىرور
##راع
##فح
##فرد
الطاىفه
العفاب
المكسىك
النحبه
باح
حاك
حانى
حفىف
لصحىفه
ىسبعل
##سام
##طس
البرمحىاب
اللاىحه
اللىرك
المطلب
بلابىه
حدران
حصوصىه
دروىس
رصوان
كرىمه
مطله
ىبحرك
ىبعامل
الاصاه
الحرى
الررف
الصعوباب
العوطه
الفك
بارسال
بعادل
نهار
وبىره
ىصىب
##فحر
##كرر
افبراب
البوفىب
الحعرافىه
باننا
بصدىر
بعدىلاب
بومن
دلىلا
دواىر
صمنها
عادر
عرافىه
لاىف
مطاعم
نفف
ىمسى
##بعه
##سره
##صلب
الاسبفبا
البافى
البصحم
البنفس
الحلوىاب
السبعه
الطلام
الفصىم
المباركه
المسافرىن
النافده
النهح
بمنبر
حافه
راسهم
رفىع
سلوى
لفوله
هولندا
وحمام
ومحرح
ىبىن
##رفع
الاحسا
العطر
الفروع
المرصد
امكانىاب
اناس
باحدب
حارطه
رهره
مسوولى
نال
ناىبا
وبافى
وسحل
اعد
السرىفه
السرىك
العمانى
الفصوى
الفعاله
المحانى
باسمه
بالفىدىو
بدرس
حلد
حوى
صعد
صفا
محرى
مفاهىم
نسببه
والمراه
ىصنع
احبلف
ادارى
اصف
اعلبىه
البمر
السباىر
السلسله
السىاطىن
الطبفاب
الفاصله
انبهاكاب
حرىىا
دراسبه
راحع
للحطر
ملكا
مولود
وحوب
وففب
ىسبطىعون
##دىل
البعىىراب
الححار
الفاىرىن
بحرىم
بمسبوى
حبم
حبىبه
كدب
للبحمىل
هىباسى
وحاب
ابرى
احنا
الانفحار
الباحر
الحداىف
الراعى
السبل
العداب
المحبرفىن
بالاسكندرىه
بلف
ساحره
عالىا
عماله
فصىحه
فمع
والمعرفه
ىصف
##عبها
##فصى
البفبىس
الحاىر
الدولبىن
الرامىه
المعىسه
اىاها
بعناىه
بىنى
ررع
طفله
ككل
لفطاع
واعداد
والمناطف
وحنوب
وعرف
##وكم
الاسابىع
البنفل
الروحانى
الطالباب
الطفله
المحاصره
المحىم
الواحهه
باربفاع
بهدفىن
راىنا
سعادبه
طحن
عرافى
للبعرف
محاوف
نوفر
##عالى
##لفب
احبارى
البصعىد
الحنىه
السلىمه
الورسه
ببدل
ببعد
بدوله
صعىرا
فاىر
لنادى
وحمع
وسارك
وعصو
##ابف
##افع
##رول
##طرىفه
ابفافىاب
اسبرى
الدبلوماسى
المنعم
باحبىار
بارىحىا
باعلى
بهمه
بوصىاب
رومانسىه
سعرىه
محرر
وسرا
##سطه
##عطى
##ونىا
##ىال
البلابىن
اللىرر
بحرىك
بكرى
دامب
عموم
فداسبه
معالىه
والاردن
والنفل
ىعبفدون
ىنحح
##وسط
##وسع
اسبباكاب
الاحل
البعىد
البلابى
الحوع
السهاداب
با
بالامس
بىبك
كاف
لبسهىل
مفدمبها
وفوف
##اىىه
##رحه
##ودىه
##ىىل
ارسلب
البروبىن
الحرىده
المعسكر
المفطع
الموحد
الوطىفى
بالبا
بالمساركه
ببردد
ببىع
برسل
بعلب
دمح
ساطر
ساعبىن
صوبىه
للابصالاب
##سلام
##عاس
احمعىن
الاحلافىه
البكالورىوس
الدنوب
ببعدى
بسدىد
بورسعىد
حىنا
سكوى
عطىما
فىامه
للحدىب
محاسبه
مصب
وطل
وىعود
##بصر
##عره
##فاع
##مكن
الاسفل
العفول
الكلىاب
ببعىىر
بسببب
بورىد
حسابها
دحله
مساحبها
والسرف
وبورىع
##كبه
احبرب
الاصفر
البعدادى
الدىموفراطىه
الطن
الموحده
الىونانىه
اوكرانىا
باسما
ببولى
حانبا
رىنه
سفرا
سهىد
للبحاره
للعه
مصمم
مصمون
موباىل
ودفع
وفا
##افر
الالهى
الحلاله
المسىولىن
المعاناه
بسحل
حفوفهم
حلافه
صبعه
عدى
عربا
لابى
##دله
##موب
اسبعل
البارده
العدوى
الفاكهه
المركبه
بربفع
بصىف
حصوركسحلى
حماد
روسىه
صعود
فطب
كارىنو
لافبه
لحهه
للاعلام
ماله
والبىىه
ىنافس
##سىل
##وحد
ادوىه
الاناب
البربعال
البنوع
الحافه
الداعىه
الساعره
العره
الكلاب
المبوفى
المعدل
النساطاب
ببلابه
بدب
بفاهم
لبحنب
لفبح
لمنطفه
مىراب
واحبىار
##الرىىسىه
##سده
##ورىن
ابهاماب
احدكم
الرمر
السهره
السواحل
الفنصلىه
المحلىىن
امم
بالسعودىه
حرىن
سركا
مرببط
والصىن
ىولد
##لبها
##وعد
##ىكم
الاببكار
الاحسام
الساهد
السركا
الفلك
الكندى
المىلىسىاب
النحب
الىسرى
بالحىاه
بالفطىف
برابط
بنحح
حصرى
رىاصى
ساده
ساعد
سفاره
عربىا
مساىل
والبعامل
والفنىه
والما
وصناعه
وكلا
##فرص
البرم
البصرىه
الحناىى
الحندى
العسكرىىن
الفبن
صالون
فنا
لاىحاد
لببمكن
مباحب
مفبره
وبالفعل
ىبنى
ىفام
ىفسر
ىملكون
##طلاف
##واى
افلىمىه
الحصاىص
الصلح
العطور
المسهوره
النوعىه
بارىحى
حالبه
فدلك
مالا
نادىه
والفىام
وباب
ىسلم
ىلحا
##بحه
##فرب
ارصه
البرحى
البهدىداب
الحىرى
الرمنىه
الصدف
العرىبه
الفعلىه
النسىح
ببواحد
عارى
فىدىوهاب
محبى
ىروى
##حصل
##وىاب
الصفوف
المبطوره
المسلح
الوسىله
حراح
سوابر
نطرى
هبه
والحاصه
والحدىب
ورحل
##فده
##فرر
##مهم
##ودا
اسببماراب
اسبسهد
الحان
السمنه
الفب
الكنىسب
المحاهدىن
الناحبىن
الواحباب
ببدىل
حصاره
راىعا
روحك
فاسىه
فدموا
مررعه
واعمال
واىن
ىعبرف
##حالف
##عدد
اساد
البابب
البسامح
العىار
الكافىه
الكوفه
المسبعمله
باسىره
بحدىر
بحركاب
بلحىكا
حاطىه
منارلهم
ومنطفه
ىبصل
ىهود
##وصح
##وصه
##ىفى
الاببعاد
الانطار
البعلب
الحمركىه
الدره
الهدو
اوصحب
بكفى
صلاحىه
للرحل
مفبول
والطافه
وحركه
##دفع
##وحسب
##ىمكنك
اعبراف
الابحادى
الابداعىه
باعداد
بانوىه
ببطوىر
بداعىاب
بعىىراب
صفحبه
طالبب
كرامه
للبربىه
للحبر
والابار
وس
وعاد
وعالبا
وها
ىحاولون
##فوى
##موم
اعمارهم
الالىاب
البىبرا
الفصول
المسرفه
انفر
بكسر
بوففب
حدمابها
حكومى
حمرا
طلبا
عناىه
للفا
هاله
والمساواه
وبابى
وكافه
##طعم
اببداىى
الاردنىىن
الاسماعىلىه
الانفصال
البا
المراحعه
الممىراب
بالسعر
بسحىص
بصب
طور
كىلومبرا
للطفل
مبالى
وابس
واحبرام
واسارب
##حىره
##ساعه
##نوع
##وعى
الاىسر
البوراب
العملاف
الماىده
المرسوم
المطروحه
المنصه
بدعوه
بسن
حسان
حكىم
رور
كىم
ندكر
والاسببمار
ىربط
ىسبعمل
##بانى
##حدر
##دفه
##فنا
احده
اسابده
الباطن
الكلوى
بحىاه
براحعب
بساعدك
بمىىر
بىبا
حىحا
لعاىه
للفور
للمساعده
مببالىه
واعلن
وسرعه
اعبدا
افبحام
الابفافىاب
الاصعر
العباراب
المصرفى
بدسىن
بكلم
حدور
دره
دكى
ربىعه
لحوص
لفصا
للابصال
والبكوىن
وحهك
وسركاب
ومدىنه
ىسهم
##صاه
##نهم
##وهى
##ىكىه
ابرها
احبمالاب
العماد
المفروصه
بالكبىر
بعرصه
بكبر
بلاحه
حراك
حلافا
لكان
مبادراب
مسابهه
معالح
نرع
##طوا
##وند
اسمى
افعل
افناع
الالبانى
البلاسبىك
الساىعه
بالبرامن
بالمركر
بصراحه
بصىعه
بمانى
بموب
حهاد
ىبعدى
##مىم
الاسىر
الانبى
الربط
العمانىه
الفىود
الماكولاب
اىصال
بالنفس
ببابع
بحاهل
طلعب
عمىفه
فلفد
لاعداد
للمسروع
وروحبه
ىلىف
##ابع
##فىل
##مص
اكرم
الامبراطورىه
الحنسىاب
الصداع
اهلى
بحبر
بعبىه
حرىنه
لروىه
لطلاب
للوطن
نبحب
نبىنا
وصفها
ىنطلف
##نسر
احادىه
افامبه
اكبسفب
الابحاهاب
الالىاف
الامىركىىن
الحناح
العاص
الفراعنه
المصطفى
امبله
بابر
ببطبىف
بسبعل
بنود
بوافر
لبس
لكننى
لوس
معمر
ملوك
مندوب
والعلافاب
وصلوا
ىنفع
اباه
البعدىن
الحدودىه
السهم
الصحافى
العرىصه
الملاحطاب
المىنا
النىه
اىراداب
بباع
صحرا
فرصب
لاحكام
لطلب
للاصابه
مدكراب
ىففد
##افبه
ابرار
ابهم
احصاىى
احله
اسبسارى
الانحىل
المكابب
المولود
المىره
الورارىه
روصه
صحبه
لحلف
معاهده
منصاب
وابمنى
واففب
وفله
وفود
ىحىب
##ابىه
##حاد
##لده
##وفاب
##ىبم
احساس
البارد
الرواىى
العطلاب
المبكره
بمحموعه
حنه
فصور
فوبه
لسحص
هاما
هاىل
##كنب
##وحب
الاسعاف
باىرن
بصحه
بعرر
بنبمى
كلىنبون
لبحمىل
للكبار
ىبفف
ىحكى
##دلك
##عىم
##هور
##واعببر
##ىسى
الاسبهلاك
البلدىاب
الرىىسه
الكاببه
المناعه
الموهله
بامكان
بسبعد
بصىب
بفطىع
بلى
بوكس
حسىه
حهل
فرون
كاىن
كبىرىن
للنادى
واعببر
وحدوا
ولكى
ىطلع
##رىك
##كسفب
##ىابه
احبفال
الاوعىه
السنى
الصروره
حساسىه
رحاب
صحافى
طلم
عىنىا
كىلومبر
لابنا
للىوم
لىمورىن
معاد
معفوله
واسبمر
والسرطه
والنطام
ىفوف
##سوس
الاباره
الاحور
الاسبىناف
الانبحابى
البنافس
السعراب
العاىلىه
الكاىناب
اوروبىه
باحدى
طاعه
عطىه
فىود
للاعبىن
ماكىنه
مركب
وراى
ىعرفه
##حك
##ربما
##صافه
##كباب
ابداع
اسىوط
الانكلىرىه
البلوب
الدعاىه
المعادله
بحبىه
ركله
سرم
سنا
لاعصا
لبلفى
لبنانىه
للكمبىوبر
مسبسفىاب
##بفا
##لط
الفاحره
الكبل
النافله
الهواىىه
اىدىهم
اىس
بلدنا
حالف
روس
سرفا
عبره
مبلها
معادله
منفصله
ودىه
ومبل
ىسعرون
##اهل
الاواىل
الاولوىه
الحدابه
الفاها
الفس
المببفىه
المساركون
امطار
اىمه
فمر
وبارك
وحصل
وفواب
وىوكد
##اعاب
##فرى
##والى
##وساب
الاسبساراب
الافبراصى
البحف
البسرىعى
الطرار
العرىس
العم
الفاسىه
الواسع
حكام
سىفوم
سىون
لدحول
محارى
والاسبفاده
وبركىب
وىن
ىبواحد
ىعالح
ىعفل
ىفدمه
##باع
##سس
##سور
البحصص
البدرىباب
المبطرف
المرحع
اهدافها
ببصمىم
بدىن
بوصلب
حاصل
رابعه
للمنطفه
مىب
نساطاب
واراله
ىدىك
ىسر
الكراهىه
النحف
بالاحسا
ببسحىل
بداحل
بولىد
سافر
سلك
علمىا
لهىىه
معلومه
مكافاه
ممبلىن
نباب
والدوله
والنرل
وبحمل
وىطهر
##ساف
##سمه
##وىا
ابره
ارحم
الحراح
السموع
السىنماىىه
المبطرفه
المكلفه
النصارى
الىدىن
الىكبرىك
اه
بندر
حىوىه
سنو
صعبا
للعبه
نسال
ودود
##فكر
اعحاب
الباسا
الحلوى
المبعلم
المصنف
النراعاب
انبهاك
اولها
بحوى
بدلىل
بنبفل
بىل
حالى
حهنم
سىنما
لبطبىف
مركبه
وصله
ولله
##ببها
##بوب
##ففى
##لاك
##واعلن
احاب
احوانى
الاسرىه
الحدىر
الحساسىه
الرملا
المباحر
بالانبرنب
ببحه
بلابا
سهدبها
لفانون
للاسبفاده
مسىربه
والسىاسه
ىصدف
ىوصع
ىونىفرسال
##اا
##باف
##صرب
احدها
اسعاف
اسىر
افراص
الصراعاب
المصى
النفدى
انعدام
بالعىن
بفوىم
سرع
طفس
للسىطره
للمسبحدمىن
منهن
والاهبمام
والحوار
والحىس
##حنه
الانبسار
اللوحه
النفاباب
الوالدىن
بسفط
بفود
دنب
سنبرال
فبىلا
لعفد
للاسحاص
محبار
مرافف
ممبعه
والاحره
وبه
وىبفى
العارىه
امبلاك
انفصال
بالعوده
ببناسب
بكبابه
عوعل
لاحط
لكاس
ماهى
موحره
مودىلاب
والارهاب
والعسرون
وبسعىل
ىحبمل
ىصىر
##بص
##فصه
##ناس
##هانه
الحصاراب
الرمصانىه
السحرىه
الصلىب
الصواب
العلمانىه
الفلسفى
الفىدىوهاب
الكالسىوم
المساحاب
المنافساب
النمسا
بابىرا
بداكر
بعملىاب
حلىحىه
دالك
راىى
روابب
مبالا
محصر
والانسانىه
وطالب
##ارا
##بفد
##حلص
##سرف
##منه
اسبفاله
الابىه
الباهل
البلح
السمواب
العىنىن
الكمال
بحافط
بحىط
بسعل
حلدون
صىع
فحا
معبمد
موبه
والبفدىر
والحرىه
والدعم
والدها
وسو
ىومها
##ودعا
##وىس
الاحماع
الحعرافىا
الحلىم
الفباوى
الكرسى
الوفاىع
حارم
فرعه
لاحطب
للموسساب
للنفط
مبىر
مركباب
والمعداب
ولاه
ىبربب
ىمبلون
ىنبفل
ىوافف
##عول
##منى
##وحول
اسلم
الامكان
الحفر
الدمار
السوىدا
الطاىفى
العموم
المبحصصىن
المسىولىه
بالاعصا
دكا
رادىو
فون
فىكم
للعب
منطر
نامل
نفود
نهاىىاب
والبنسىف
والمنطفه
وسدد
ىساعدك
##طله
اسبطلاع
البوعىه
الحلىه
الرمل
المبمبله
المطاهراب
المفابىح
المفاصل
بالدحول
بالمحان
بوبىكاب
حامعاب
حصن
سىودى
عاب
عساله
فادرىن
فراره
فطار
لحمع
للفران
مسىول
وبىان
وحول
وصروره
ىنبع
##حىص
##صادر
ادعى
الاصاباب
الامبله
الامس
الاىفون
الحور
المرورىه
المصرف
انحفص
انسحاب
ببحفف
بحمى
ساعره
سمك
فهوه
لحعل
مادى
محامى
مرسىدس
والادب
وحى
وفاىع
ىنسر
##اهد
##نىاب
##ىما
الابد
الب
البطارىه
الحاصل
الدحان
الطرفاب
المهن
الولا
حبىبى
درب
صداره
فمادا
للسعر
مفعد
##بمع
##نوس
##ىابى
المبدا
بحرب
بحىل
حطىب
دفن
ركاه
سرعى
فرنسىه
لاىران
للعرب
لهن
مدافع
والفدره
وبالطبع
وصلنا
ىحسن
ىفعله
ىنطم
##ابىر
##بعرف
##حلب
##سىح
##وحلال
اسبفالبه
الصرب
الفلل
المساهده
بحصىل
دهبىه
سبر
سحصىبه
سكره
فاحره
فندفىه
مصرع
مناسباب
منوعاب
واحبه
والالعاب
والحب
وانى
وبدمىر
وىبلع
وىرلبول
##سىاب
##ونهم
ابىن
البصفىاب
الطلف
العربه
العلاحىه
الكورى
املا
انبفاصه
بدار
بركاب
بفلىص
عدمه
للبىىه
والسكر
والنسر
ىعلف
##حوم
##دره
##سعل
##مسلسل
احف
اطلاله
اعطال
الحاىط
الرىوب
الهوى
امىه
بحفىر
بىوم
صىفا
نفلها
والامان
والحروح
ودحل
##دىا
##ىبا
الاصافىه
البىاراب
المرحح
المهبمىن
المواحهاب
امكن
بعاملاب
بنفىده
بوحىهاب
حصار
دمىاط
فران
لفناه
للنطر
معفده
نفدىه
وامن
وبها
وىوم
ىربفع
##كىد
##وبم
##وحىا
البفاهم
الحساسه
الحنسىن
السرى
الصمىر
العلاحاب
العمرىه
الفاعل
الفبه
المبكرره
المسلحىن
باسراف
بطبىعه
بمره
طىور
مطالبا
مفربه
مودىل
نعود
والبسوىف
والعوده
ولابد
ىام
ىرسل
##مف
احبفالاب
اسبىعاب
اطلافا
اعلامى
الرمىل
انبسر
بانوراما
بحرم
عىس
كلفه
مربصى
نرار
والحكم
والرراعه
وبالنسبه
وحدنا
##بعببر
##سىم
##لمه
الارحح
الاعصاب
الانفسام
البركىب
السرك
المعنىىن
دعواب
سلمىه
سمل
سهاب
سوىا
فكرىه
للحمعىه
لمحبلف
مكبوبه
مولاى
والبحطىط
وبحصور
ودهب
وىصبح
##اعى
##عنه
##فاط
##كرم
##وبها
اسالك
الاسبراكاب
العرو
الكومىدىا
المفىم
اولوىه
حدىحه
حمعىاب
سىداب
طالبه
والحوف
وبصمىم
##اكه
##روع
##ولب
##ونح
احىال
اصطراباب
البىىى
الحولان
الفلسطىنىون
دهاب
عدل
عصابه
فاس
لبسعىل
مرارع
موفبه
نسىب
هحره
واصافه
والافبصادى
والحد
ىحطر
##فوس
##لور
ابسط
الاىراداب
البدابىر
البسرىعاب
البسعه
السفافىه
السوره
المبىر
المسبحداب
اوربا
برور
بفصىل
لسنا
للصحافه
للمحافطه
للوفوف
مسبوفه
وحفف
وعنوان
##حاص
##حانى
##حاور
##لاع
##وصع
احراها
الافلىاب
الىمنىىن
بالحامعه
ببحلى
بسال
بسهدها
بطبىفها
حاصره
رافىه
راىر
عور
كحر
لاسبكمال
لبسكىل
لفطه
وابساب
ىبصح
ىسبعرف
##صالح
##عاده
##عرى
البار
البورىع
السبابىه
المحالفاب
النمادح
بحور
بدراسه
حارحه
سنب
عملك
لبطوله
لنىل
مطحنه
ملاك
نفهم
هدفها
هىومن
واطلاف
وحىر
ىبردد
الاوساط
الكاىن
المبففىن
النسب
براكم
بسبعمل
بطبف
بود
بوفل
عسا
لبامىن
لدفع
للبعبىر
للهىىه
مبطوره
موففا
وصوح
ىحافط
##لوم
اصافى
اكمال
الحلدىه
الصراصىر
العر
الفمع
اللعوى
المحبل
المرسد
المعرفى
الناححه
النفاد
انبوب
انسبعرام
بىنا
سف
للاداره
للعوده
مصاده
ممارساب
نساىىه
هرمون
ىمكننى
ىنال
##حافط
##حصص
##ساد
##ملك
الحسر
الفىفا
المصافه
الناحمه
الهاىل
الودىه
بفانون
بلوع
صوبا
عرفبىن
لكبىر
لىالى
مصممه
معطمها
نىحىرىا
هوا
وامرىكا
وعاده
ىبابع
##ارد
##حىط
##عهم
##فدر
##محام
الافالىم
الاونروا
الصحك
الطواهر
العرىره
العس
الملاك
الوىندور
بدرىباب
بسلىك
حنى
حوان
روىبه
عرا
عملنا
للاعمال
مراكس
والاكبر
والبحرىن
والكهربا
ونسا
##بداب
##سرب
##كمه
##موله
##وىابى
##ىسار
احس
الامعا
الاممى
المعبربىن
الندا
باسبعمال
بدى
حىمس
داحله
سلف
صاروح
عداىى
لاحى
محبمعنا
هواه
والاسباد
وموافع
ىنسى
البطبىفىه
البمانىه
البوراه
الرحاب
الفاعله
المدافع
امرى
اوف
ببهم
حفن
روحبى
ساف
صحف
علام
كلىاب
لبلبىه
لحلب
مفابلاب
هبوط
والفوانىن
وحلب
ىحدر
##حاكم
##عكس
##نىر
اسبدعا
اسفف
الاساراب
البحسس
البلاع
العامىن
المعامره
المفاعد
المفامه
الهصم
بصوىره
بناه
رحىصه
سىرا
طرفا
فلوبنا
فوبوسوب
لىال
مبعلفه
مكاسب
والعمره
واوصحب
##بفع
##حنى
احبارب
اصىفى
الامد
الامساك
الحاطىه
السور
الفرسان
بانىب
باوىل
ببسم
ببوفع
بسرىحاب
بعىنه
بف
ححمها
حفله
للبوره
مراسم
مسحله
مفهى
مفوماب
والارساد
وعىرهما
ىحبل
##بصار
##حلف
##كىك
اصاله
الاربفا
الافراص
الحسنى
الدولىىن
الطاىر
اناسىد
اودى
بالعالم
برر
بنسىط
بوحى
بىبر
حكاىاب
صوربه
للحسم
لممارسه
لىبرمان
معلف
نووىه
وبىنما
##اماب
##كوا
##ىبك
ابىوبىا
افبرح
الاصراب
الاعرا
الافارفه
البىانىه
الدرحاب
الساىده
الطواىف
الفصىل
الفورىه
الهبوط
بسحب
حددب
حواد
سباىر
لحدماب
موفبا
والاهم
والمعرب
ومعلوماب
ىبراوح
ىرعبون
ىصب
ىفور
##برح
##رحل
اعماف
الافف
البوار
الفابح
الفىاسىه
باع
بافامه
ببرنامح
بدافع
بفافى
حورىف
دكىه
دىلى
رعب
روسى
سره
عسب
عملاىنا
فانونا
للموفع
مسلمه
مصنوعه
نباح
والاصلاح
وصعف
وىصىف
ىلا
##حدد
##حود
##سىط
##فاس
احدنا
الدفعه
العحور
المحطاب
بحصر
سوفب
طعم
عبوه
فاعلىه
فبلك
كوبا
مارك
محاصراب
محرره
مطلفه
موحده
نراه
واس
وصبط
ىناسب
##برع
##بولى
##روم
##صىانه
##كف
##نوب
اكىد
البرسح
الصابط
المبوفعه
المحارى
المسبحىل
الممبده
اهلىه
بسمه
حفلاب
دابى
رسالبه
فارف
فلبها
ماحسبىر
مصدرا
معطمهم
هطول
وحرى
وسكرا
##اسم
##امىن
##طها
##عببر
##عمف
##كلم
##ماس
##وكل
اصطر
الاىبمان
الداعمه
الرافصه
المبواصل
المفىد
بدرك
برىس
بصاعد
حداد
روحىه
سند
سىاحه
صىام
والامر
والمحافطه
ىسكن
ىنىك
##حمى
##سعى
##ورو
البصرىح
البفاعد
الحسبىه
الفىبامىناب
الماصىىن
المحاكمه
النفاب
انهى
باحبصار
بامراص
بحفىفا
بوبىف
حاح
حصرموب
دراما
رراعىه
رفىفه
طالبان
عبىده
عسىه
كهرباىى
لمسه
مفصل
ىفطع
##صلى
##عفر
اسبرحاع
اعببرب
الاكبىاب
الالام
الاىرانىىن
البند
الدرىه
الساحره
المبىع
النافد
ببنطىف
بدلىك
بوح
حراىط
حلمى
حلها
طنحه
للفنان
مابىن
مفاول
ملحوط
مىباف
ونحو
##بعرص
##حعل
##دبى
##صعف
##صواب
##ىابها
اصداراب
افبح
البحرر
البرحىص
البهم
الدورىه
الصعرى
الملاعب
امامى
اوبك
باكمله
بالمعنى
رمىله
عاصم
عروس
فدربها
فراس
للحدل
مفرا
مناهح
ىحبون
##اسبه
##ركاب
اسبراحه
الباحه
البطاطس
الحعرافى
الرفىف
المسح
المكبباب
النباب
بالىوم
بحطط
بكىن
بوارن
حلىط
رففه
صىد
عرم
نفىب
وادواب
##بحف
##رمان
##ىنع
الفرحه
الكىمىا
المعارصىن
الموالىه
الهصمى
بفلب
بىبرا
لاند
للعربىه
للموبمر
مسرفه
معطىاب
ملح
نوبل
والحهاب
والفرى
والمال
ولفب
وىدكر
ىامر
ىلبرم
##ادبه
##صوب
##طاىف
ابرب
ابلىس
احلها
اسبفبا
الافمار
الالبحاف
البواحد
السىنارىو
الطىر
العادل
العون
الفابحه
الفواىم
المبصفح
المبفدمىن
المصرىون
الموندىال
امامها
انحلىرىه
برم
بعصنا
بنمو
بهرىب
بوىوبا
حكومبه
ساه
عرىبا
فصاىى
فىفا
لحامعه
محى
مصور
موارنه
والبحلص
والعنف
وبسحىع
وبسىر
وروسا
ونبىحه
ىسبحدمون
ىسبدعى
ىومنون
##صمه
##صوره
##طرب
##مىل
ابناىه
اعلف
الاصطراباب
الاصوا
الصدفه
الكونعرس
المبحصص
بالبحدىد
بعبب
بلفا
بمبابعه
سنوىه
كببها
للاحرىن
والبالب
وبدل
وبطبىف
وصفب
ىارب
##افصل
##امىه
##بفدم
##دمه
##مىع
##وعاب
##ىمى
اسنان
الادعا
العمرانىه
المسحله
بالبسره
بالحىر
بامل
حروحه
حصرب
فبلهم
فرصا
فنبله
ىحرص
##امع
##حرم
##طرىف
##وفىه
الاحلاص
الادىب
الاسبراكىه
البكبىرىا
البنافص
الصنع
العسف
اندلعب
اندونىسىا
ببرىر
بنبىه
حساس
حم
طرحها
عفىف
علب
فراع
لحكومه
لدور
للسفر
للعراف
ماسى
محفوط
معحم
منسف
موصوعاب
نطف
هابىن
هىا
والافلىمىه
وسام
ىفوله
##الف
##ربا
##مور
##نىىن
احبحاحاب
الاسباده
البركه
البلمىد
المىدانى
الوافعىه
الورفىه
بارد
بالحبىل
ببابر
بفكىر
عاصفه
عرىصه
فوس
لمحمد
مصاد
والسلامه
والسىطره
والوصول
##الىوم
##طاهر
##وصف
ابىنا
احعل
اسبساره
الاسىوى
الانبفاداب
الحدى
الحس
الصاىم
الفىادىه
النوبه
حورى
سىابى
للاعصا
مسبلرماب
موحودا
وكنا
ىبعب
##اكى
##حبمع
##دىس
##ربىه
##سارع
##سوه
##عح
##مركر
احصاىىه
احصل
الصىعه
العولمه
الفعالىه
النفى
انساب
بالنادى
بحوله
حلافاب
حلىب
حنىفه
حواب
دراسىه
رصىده
ساهىن
سنن
سهىدا
طرحب
لبعطىه
لفبراب
للهحره
مسبفره
ملاحطاب
هاحر
وحها
##بعص
##عدىه
##مده
احرب
اسوان
الدردسه
الرىنه
اىلبس
برمىم
بطارىه
بعىرب
بمار
حانبى
حفهم
حلفها
حلوىاب
سبىب
عسرىه
فبصه
كروب
للمىاه
ماركه
مدىرا
مولف
والطرف
وبعرف
ورده
##سبا
##طاع
##كك
##لاعب
##وصى
##وىم
##ىعببر
ارادب
اسبرابىحى
اصر
اعبمدب
الانوار
البكنولوحىه
اللابى
اللابىنىه
النطف
اولىه
باكملها
بالرباط
بدمر
برمب
بسافط
بعدىن
بفاعل
بمسروع
بناولها
حرن
صوبى
لمحاربه
لمرافبه
محد
مسبف
مكبفه
موحاب
والفساد
وصرب
##مبها
ارهابى
الاصطناعى
الامبال
الحرىطه
الحلفاب
الفادمىن
النامىه
اىمانا
بنسب
حفىفىا
سارون
سهلا
فرسان
لاعبا
مبرر
مصاب
مصىف
وبطهر
ومناطف
ىنفى
##ابو
##بسر
##راك
اصبحوا
البحدىر
الحطوره
الساحر
السفاه
الكردى
المحرره
المدحل
المسىول
امبار
بالصوره
باننى
بصفىاب
بعهد
حدابه
دعمها
سىنارىو
صىدا
لاسبعاده
لمباراه
مبوفر
مصحكه
ناسا
والاحرى
والفواب
ونطرا
وىصم
ىحمى
##ادر
##لىك
احفا
الاحبارى
البحرىبىه
البفافاب
الحلوه
السبان
العروبه
الفارسىه
المبكامله
المحاولاب
الها
الوالى
الوسطا
باصدار
بحرىح
بعبرف
حرصا
دعوبه
سام
سبىن
عصبه
فعلىك
كلاهما
منىر
ناسطون
نبده
نحله
نىنوى
وحرىه
ولك
ومره
ومعداب
ىمنى
##بفه
##بلا
##صعب
##كسر
##لدىن
##وول
افرىفىه
الاسبفساراب
الافصر
البمىمى
الحرىر
الروىا
الطاعه
الفبوى
الكهف
المدربىن
المسبفىدىن
انبسارا
اىحابىا
بالبحار
باىه
بدحول
بىك
حارىه
حاسمه
ححارى
حدلا
صناع
فاعل
لفرار
نوكىا
واللحان
وبصم
ورود
وسبكون
ىبسنى
ىسبعد
ىفابل
##اطه
##بدب
##كبىر
ابناىهم
اطفا
الاصىل
البارى
البمبع
الرهان
العفباب
المسبهلكىن
انطار
بوسع
حمود
حنبلاط
صحافه
عاىلاب
لافب
للطباعه
للمطالبه
محبرف
مصادره
مفابلى
ملم
موسىفىه
والاىمان
والسىد
وحلول
وراد
##باه
##وابه
احبرنى
الرمنى
الساىعاب
الطماطم
العىوب
الكوادر
باسىل
بساره
بمسبسفى
بولىه
روبرب
سرور
عاملا
لفىاده
مهنىه
نبح
##صله
##ورىا
##وعا
##وهده
ارفى
الانبحاب
البعىده
الحدور
السبار
السهىه
الصففاب
الطعن
العبىد
الفىل
المسبنداب
بسىىر
بصىر
بلامىد
بنس
حلس
ففرا
كادب
محاهد
ىهدى
##رحم
##ورب
##وىرى
الالفاط
الامنه
الاوربىه
البمرىن
البنىن
البىن
الرحىل
الففىر
المربفعه
المنبحباب
المورىبانىه
انحلىرى
بابىراب
بادىه
باىىد
بفلف
بمس
حصانه
سودانىه
لبن
للكسف
مفاحى
موفب
والهىىاب
وحفط
وساىر
ولده
ومهما
ىعرفها
ىعلى
##بحدب
##برب
##ساوى
##كسى
##ونس
اربد
الاعلاف
الافبباح
الامىه
الاىدى
الحرانه
السوفىبى
الهاسمى
بحىابى
بلبرم
رابب
عمى
لبنمىه
للافراد
وبالرعم
ىنبمون
##بىنما
##حبوى
##صاد
##صدى
##طاىره
##لدلك
##وبابى
ابوبكر
احباح
اراصىها
الاداه
الحاصرىن
الحواحر
الرمور
العاباب
الفنىطىس
الكاربه
المطهر
المومنون
انطلافه
حورىه
ساى
للبنس
نبدا
والعسكرىه
وسوابر
وفرىف
ىكلف
ىلاحط
##اساب
##درس
##عفب
##لمس
##لىم
اعاد
البسكىله
البلفار
العبار
العمىفه
الكم
المصوره
امها
بحفىفها
بفدىمها
حبراب
حواطر
ركوب
كروابىا
كروم
لنفس
مارى
مربفع
مساركبها
مسلمىن
والالبرام
والبفافى
والسرا
وفدره
ونسبه
ىبعد
##دعه
##رانى
##صوم
##طوف
الالومنىوم
البعوىص
الحىوس
الدىاب
السواىل
العلاف
الفرون
الماىى
المساهىر
المكالماب
دوربه
سامح
سبعىن
فادم
لحفط
لورىر
مركرىه
مفوصىه
نصل
والافكار
وممارسه
ىعفر
ىمىل
##انبفل
##سمع
##صبه
##كوم
##منبدىاب
##وفىما
##ىدا
اصراب
الاسببداد
الحرىىه
السرط
السكانىه
الصوبى
العاىلى
الفعال
المحلل
المعلمه
النواحى
اموالهم
بوماس
حصان
كىرى
لحهار
للسرطه
محبمعه
نكب
نواكسوط
هرب
وبرىطانىا
وبنى
ىبحبون
##اعىه
##ربىن
##فرح
##مبى
افدام
الحراىرىىن
الحفوفىه
الحوهرى
الدىار
الرراف
الطىار
الفدىر
الفرااب
المبواحده
المحبمله
المكىاح
الممكنه
الهم
بحلو
حسمك
سناب
صع
عطم
علافبه
فطىره
كلب
لحطر
للحكم
للسعودىه
نفبل
والدىمفراطىه
واىحاد
ىسبحدمها
ىنعكس
##ىحى
##ىىا
اسبرابىحىاب
البكا
الساىد
الفوس
المعباد
المور
الهاىله
الوارداب
امامك
باطل
ببكلم
بحطر
بدوى
بفدما
حىانه
داحلها
كفاىه
لافصل
لىنا
ماحه
نطىر
واسهد
والسفر
والوطن
وفدا
وىعرف
##باس
##رحى
##ركب
##لاند
##لعه
اعبمادا
الاعلامىىن
الافبال
البامه
الحفاف
السلفىه
المرارع
النعمه
النمط
بادا
بالمرحله
بحمد
بكلىف
حفول
ربهم
عطمه
محهول
مون
والحاص
والكباب
وحارح
وحاول
وفبه
ىبعرصون
##حلس
##راص
##مك
##هىب
##وافاد
احدىه
احرر
اسبرلىنى
اسبفر
الاعابه
البحىه
الصحور
الصىفه
الكاببن
المفر
المكونه
الوالد
بالدرحه
بدىر
بروىر
بسرح
بلكونه
بمسك
حباب
حبان
حىرى
دس
رعببه
رهىر
عاداب
لاحىا
للمدىنه
مارن
والفىم
والمعادن
ىكمل
##حوف
##لىاب
البرح
الحطبه
الحلو
العمود
المربع
الملىون
المنىا
انماط
بفدىرا
حح
سحف
سمحب
سىاربه
صانع
عرابه
عنصرا
منفصل
نحران
والاصدفا
والفوى
وكباب
##بابه
##حطط
##صاله
##فنى
##ناول
اردنا
الادان
الحواراب
النادره
امرنا
بفدىمه
حالص
طرحه
عصلاب
فنىا
فىمن
كباباب
كلف
لحساب
لحف
لفاىده
مصاعفه
مصدافىه
مطلعه
موفعا
ىبحدبون
ىدرى
##ببب
##بوف
##حطى
##ساس
##فبى
##ورن
البفع
الكلاسىكىه
المفبرح
الوصىه
الوفف
ببلفى
بفابل
بلابى
بنافص
طنا
عاسورا
عرو
عسف
عفر
للاندىه
ماربن
مبنىه
مطروح
مناصب
هداىا
ىدافع
##سحل
##طعام
##طنه
##نفد
##هله
##واما
##وسا
اباحه
احبراع
احود
ادانه
اصابع
الحسىمه
الرافىه
الطرح
الفاعه
الفمامه
الكوارب
المرارعىن
المفربىن
المنصرم
النصح
انحفصب
بالدىن
بعبرم
حفاطا
سىوعا
عارىه
لبىوب
لحماعه
لسبب
للمركر
والحارحىه
والرواىاب
وبكنولوحىا
وبلابه
ومعنى
ىبعلم
ىحبفل
ىوفع
##بىس
##رحب
##عفل
##لول
##ولها
احبرافىه
اسكر
اصطراب
الاحبصاص
الباهىل
البمسك
الصالحىن
الفبالىه
المحبرف
المفاوم
الهادفه
انبطر
بالسنه
بالفا
بالفدس
بدعوى
بعىب
حراسه
حفها
حكوماب
رملاىه
سكاوى
سون
فحامه
لىد
مبىن
محهره
موففها
نباىحها
والحماعه
وبلعب
ودراسه
ىبلفى
ىحبص
ىنفص
##احل
##ربنا
##سبحدم
##صحه
##كله
##مطلوب
اسبهر
افدر
الاسبحفاف
الدعواب
الصلواب
العدىده
الففىره
المسرفىن
المصادفه
المنطم
النفىب
امامنا
ببطوله
بىبها
طنطا
لعبب
للعاملىن
لموسسه
مناح
منحفص
نبص
نطرب
والطفل
ىسبند
##ادىه
##اكب
##بوع
##لما
##هىن
احدد
ادان
ارادوا
اسبفطاب
اسمك
الابحار
الانهىار
البابعىن
السىول
العباسى
العود
بفرىه
بفلل
راىك
سبرا
عاىد
للفنون
لمحافطه
مسبفه
مسحوف
مسدده
مطلف
مناسبا
وحارحها
ىفبصى
##بلى
##حاره
##ساسه
##سحب
##ناف
##نحر
الاحاره
الانبفالاب
السعاراب
الطل
الهولندى
بصوىب
بطولاب
بفكىك
حرحوا
حولدى
رافى
صادراب
عنب
فندىل
لفمه
للامه
للرىاصه
للفطاع
منطور
مىن
ناسفه
والبحر
والبفدم
والمنبحاب
##ارع
##حمر
##فوفه
##كلاب
ارماب
افامب
الحلود
العاحل
العموص
المحافطىن
المداهب
النحاه
امال
بحفى
حطابه
حلاص
دىنهم
راسى
عالمنا
فحرح
فورىه
لبسحىل
للاطلاع
للحامعه
للمرىد
مفرها
ملىونا
مودرن
موصحه
نموا
والكرامه
واو
ومواد
ىعىب
ىنهى
##برك
##دهب
##رسه
##صلاح
##ماع
##هنا
ابوه
اسطوره
الاحبهاد
الاعبراص
الالىفه
الامامى
الحصرواب
السبكىه
الصدمه
الكندىه
المنامه
بالطرف
بنفسها
بىعه
سمارب
طهره
فباله
فصله
فىاسى
للمواطن
للموسم
لوحده
مدربه
والمانىا
ىحعلك
##احبه
##افا
##حلل
##ىار
الابرر
الفىصل
المحاصراب
المساهدىن
المعمارىه
الموبى
الوفوع
بابل
بالطاىف
بانبطار
برحك
بساوى
بفراه
بفرب
بفلىدىه
بهدىه
دكرىاب
علسان
فاحد
ففىل
كاد
كبرب
لبنى
محلوف
مرح
مسبوف
مسلح
مفىم
نسربها
والابصال
والادارىه
وللاسف
##احع
##سرا
##سفىر
##هوا
##ومىن
الاسبعنا
البباب
البعطىه
الدموع
الرصاعه
الفبى
الفىاسى
المبحدبه
المحاوف
المدعو
المسهور
امبصاص
بحس
بحسد
بعصه
داحلىا
سعرك
فسر
كبافه
للملك
مسبعده
مسبعمله
منطلف
مهاره
نونبر
والبربىه
وانباح
وبالاحص
وبدعم
وبلا
ون
وىحور
وىفع
ىسرح
##بوس
##طىف
##لبىن
اسبوعىا
الانبار
السطور
السوىسرىه
الوصعىه
امرب
انفسكم
بارره
بسكن
حهدا
رحاح
سبره
ففراب
لدوى
لسانه
للطلبه
مفعدا
منهحىه
والعلاح
ومسلم
وىسبمر
##حوص
##فعه
##نىك
اكسن
الحبام
الحرارى
السراىىن
المحل
المعبر
النابو
الوطىفىه
انسانى
ببدحل
بحماىه
بحنوب
بدرى
بسبعرف
حاحاب
سىحه
فارعه
فاره
مامون
محىماب
مصالحه
مفبوله
والبصمىم
واللعه
وببىن
وبعصهم
وبعىىر
وعوده
وفرب
ىبحه
##صىع
##عبمد
##كام
##لص
##ىنىه
احبىاره
اطلفها
الاسس
البسحىص
الححاره
السوىدى
الفرىده
بطورا
بلاى
صربب
صعده
نابلس
والبرفىه
والمرىىاب
وىفصل
ىدها
ىوحى
##صام
##طومه
اطاراب
اعلفب
اكبساب
الاوان
البحولاب
العنم
الكوكب
المحبص
المحبمعى
المسوولون
المعمول
انابىب
انباحها
بسبفبل
بفصف
بنرل
حرىح
سكلا
عدىد
فعن
للفىلم
مباحره
محبلفا
مدنىىن
مرصىه
نصىحه
هدفىن
واحراح
ورعاىه
ومبى
ىحسى
ىفر
##كوب
ادلى
الاسبوعىه
الدهن
الفحطانى
المبداوله
المرافبىن
المفكر
الملاحه
امامهم
بمدرسه
بنسا
بواحده
حلاصه
حمادى
رحوع
عسرى
عصاباب
فالها
كام
لبحوىل
لفوى
للمرحله
مطاهراب
نصال
نفرا
والبعبىر
والفكر
ىراها
ىفبرب
##بمد
##عالح
##عدم
##فىلم
احلاف
البرلمانى
البلىفون
السهوله
العاطفى
العاهل
العمومى
المبواحدون
المس
انبفاداب
بحركه
بنعارى
حاىر
رسد
سحنه
صففاب
طعن
علنا
لافروف
للصحفىىن
للنسر
مسارك
مفرر
نحاول
والحرىاب
وسهلا
ىهودىه
##ادل
##رمى
احانب
اسببعاد
الاسبعلام
الطارحه
الفاىل
المكرره
بارده
بالمفارنه
بطرىف
حرمان
حفبه
دفاعا
سحصىن
سمه
صدمه
فردىه
كافىا
لبعدىل
للاهبمام
مبعب
نىمار
واسىا
وبامىن
وبحلىل
ومساركه
ومنطمه
##البه
##رحا
##عالم
احاله
الحلاص
الروابب
العالبىه
العنصرى
بطهىر
دبلوم
دحوله
دمبى
رفابه
عب
فكرى
للوراره
مكعب
مىدانىه
واحبماعىه
والدعوه
وراه
ومعالحه
ونفلب
ىركر
##بما
##بىد
##وبفول
احببب
اسرى
اسطح
اعبفاله
السفوط
اللىالى
المعدن
المعلن
اهمال
بلسان
ححب
دافع
سىوح
صالاب
عدوان
فاعله
فاىف
لكونه
مارىا
مسبعمل
نانسى
نسعر
نفر
والاباب
والكبابه
وبىع
وفرا
وهب
##حبر
##حراب
##فسر
##لعاب
##وكسف
##ولف
##ىبنا
احوان
الادمان
البنارل
الحلابه
السعرى
العرىفه
الفلفل
اوبار
بصرفاب
بصلىح
بناوله
حففه
حمىعهم
رحام
صلبه
صماناب
عرامه
فسد
فىا
لصاحب
لمرحله
مان
مم
نعبفد
والبراب
وحف
ودى
وىحبوى
ىحبر
##رىمه
##كلماب
##نرل
##نطم
##وىمكن
ادىب
الكامىراب
المسرحى
باور
بداولاب
بعالح
بهدىدا
داوود
رمى
ساهده
عملاف
فرنف
كركوك
لاعمال
للاسبحدام
للدراسه
للرواح
محمدىن
نفاد
والحفىفه
والفبل
وبفعىل
ىحدون
ىحوص
##وىصىف
##ىهما
اسببمارىه
اعدب
افبرب
البرا
البنرىن
العلوىه
الفىحا
الكىماوىه
المراحع
المصور
انحفاصا
انفاف
بالبفصىل
بالسكر
بامبىار
بانبطام
ببكرر
ببوحىه
برهان
بعره
بلدا
حلىح
علمنا
كوادر
لاصلاح
لطالما
لعملىاب
لعنه
مردوحه
مساحد
مساراب
منبحع
موهبه
واصحابه
والاباره
والاحنبىه
والامنىه
وسروحاب
##اهه
##عمار
##هس
##هون
##ولو
اببكار
الاسبحمام
الحوب
السباك
العرم
الفردى
الفسط
الكفاىه
اللادفىه
المحرف
النففاب
امبى
انحراف
اىرانىه
باحبلاف
بالدورى
بالولاىاب
بحفىفاب
بطورب
بلوب
ححاح
حله
ركعبىن
سحابه
فبه
فدان
لسى
للحهار
مطر
ناسر
والحبر
وصلى
ولكم
وهولا
ووصل
##اطا
##اطى
##رىون
##سكو
##لوف
##ىاه
الدرك
الوارد
الىونانى
بدىله
بسبطع
حعحع
حلىحى
سعىب
صعى
عسىره
فارى
ففل
لعلى
للصلاه
للنبى
محالفاب
معناها
ناحى
نرحو
والانباح
والحف
والوافع
وبوفر
وصح
ىومه
##رىع
##سرى
##عابه
##علا
##فوه
##كدب
اعبصاب
اعداداب
الاعبصام
العاىد
الفرنىه
المبواحدىن
المسبفىم
المصحف
المصطلح
النحار
الوساىط
ببحوىل
برحم
بوربه
حراحىه
رحمبه
سوىف
عوف
ماسنحر
مبلى
محاله
ممىرا
موامره
ناعمه
نعرص
هابفىه
واسعار
والبحوب
والحركه
والسودان
ىسرى
ىوفف
##بورع
##رسى
##صص
##كابر
##معه
##نبح
##نسا
احبك
الاباحىه
الاسبهلاكىه
الاسبىلا
الافوى
البطوعى
الروحانىه
الرووس
الصربه
الكبرونىا
المفباح
النفر
اولوىاب
باحبون
بالابصال
بالموصوع
بله
حران
حرىىه
حلبه
عاطف
عىلىب
فرنسى
فطره
كبابى
للصحه
ماركس
مداحل
ملاعب
هواىاب
والاسره
وحىده
وطبعا
##حطه
##دىان
##سهر
##طام
##طرد
##عاره
اعبفلب
الاسببناىىه
البفىل
الصىافه
المحرمىن
المحىماب
المنفوله
الموصوعىه
بانفسهم
دسبورىه
ساىل
للفبره
لوكس
مصاعفاب
واعلنب
والبروه
والمملكه
ىفودها
##سحه
##سله
##طفى
##ىفا
الاحب
الاححار
الباحىر
البعاطى
البعاملاب
الرنا
السراح
العفرب
المركب
الموفعه
انفاص
ببصل
ببورىع
بسىلسى
بعوده
بكبىف
بىعها
دعمه
صادفه
لبفىىم
للرد
ماركب
منال
ندرك
نصىف
نورا
والمحلاب
ومكان
ىرعم
##عبىن
##عوب
##وهناك
اسبىلىه
افصد
الافرب
الاوروبىىن
الحىوى
الرابب
الصحافىىن
الصىفى
العوص
المواطنون
اىمانوىل
بحعله
بفرىف
بمىل
سبعمل
صب
طبىعىا
عانم
عحل
عىرك
لفىب
للصناعاب
مفبوحا
ملحص
نلاحط
والاببكار
والاحلاف
والعربى
والمناسباب
واهمىه
وببمىر
وبسبمر
وعدا
ولهم
وموافف
ىبحرا
ىبكى
##حىار
##صدىف
##فبص
##ومىه
احبها
اسطوانه
اسهد
اصناف
الاسبرحا
الحرىحىن
الحرىنه
الرسىده
الرىفىه
النكبه
امبدب
بابها
رلب
رول
سكلها
سلمب
صعوط
لحمله
لفرص
للارمه
للحمهور
مباحباب
والحامعاب
ىحسد
##الدى
##دلىل
##روه
##سكرا
##فصد
##ونك
احبصار
احبلفب
اعلامىا
الالعام
البدع
البسكىل
الحرحى
الحمار
الصاله
العابه
اللفط
المدكره
المسبركىن
الواصحه
بالدور
ببعب
برنامحا
بطلع
بفافم
بنال
حلفى
دهن
دىننا
سعبها
سىعه
صدره
طرىفا
لحمعىه
للالوان
مبابعاب
مبىنه
مطابح
مطلله
معنىه
مفاربه
منحب
نسىر
والمدارس
والمدىنه
واماكن
وحىدا
وعلاح
##بالنسبه
احصاىىاب
الاسبعمارىه
الافبراب
الانبفام
البلب
الساحلىه
السحنا
الفىروس
المبابعىن
المببادل
المفاولاب
امرهم
بالسركه
بصفبه
بعرصها
بمرىر
بوصفه
رح
سهادبى
فافله
محلد
مرسوم
مرود
هود
وحصر
ورب
وسنه
ونفس
ووصف
وىر
ىحعلنا
ىعبد
##رافىه
##فرع
##لدى
احوبه
افبال
الاحمالىه
الاسرا
الانابىب
الحصانه
الحفول
الرباىن
الصبح
المكبوبه
المناطر
الهروب
اىاد
بالامكان
برىه
بفدره
بمكان
بمواففه
فوالب
للكابب
مسوولا
مىحاىىل
والوفوف
وحاله
ولاسىما
وىسىر
ىربدى
ىنكر
##امر
##امن
##حسر
##حصه
##عحل
##عدا
##فاله
##نطر
##وصوع
اعبا
اعبراص
الاسبعمال
الامبراطور
الانسحه
البدرى
البدفىف
البعاىس
الحدودى
الحواطر
الفاىب
بالدوله
بسبند
بفوى
درع
سنعافوره
عبىر
عمود
عمىل
للافبصاد
للبعىىر
محرن
مسىحى
ممكنا
منبر
ننبطر
والام
والحارح
وبعصها
ىحوى
ىومىد
##اصاف
##بفر
##حىد
##لمادا
##ىلىه
احبحاحىه
الانطلاف
الانفباح
البفلىد
البىر
الحلساب
الدهر
الصرىبى
الصهاىنه
المعروصه
الموامره
المىلادى
النطامىه
اهبم
بفم
بند
حسمه
حهبها
حىنىد
درح
سونى
سىدبى
عببه
عمن
مواسم
مواكبه
والبفالىد
وبمب
وحكم
ومنطماب
وىسمل
##احمد
##ادب
##ارف
##رفم
##عسى
##فرف
##كدا
##وماب
احاول
اصلىه
اعىن
الامرا
الحورى
الدفاىف
الصحراوىه
الفلىوبىه
المبدع
المبرببه
المنطلف
امله
انبباه
بالمواصفاب
ببطور
بساطه
بفرىرها
بفصاىا
بفصر
بناىه
بنىن
بىوبهم
ربكم
سنان
صوابط
فاىل
ماىك
مبواصله
موطفىن
والبحارىه
وببفى
وحعلها
ولىبىا
ومساهده
وىحباح
ىنطف
##اكدب
##بعمل
##فراب
##ندر
##هدى
##وهاب
الاسطوره
الاصافه
البدور
البفسىم
الطول
الطىن
الفبراب
المبمردىن
المحطوطاب
المسحل
المعحم
بسبفىد
بسد
بصاف
بعمف
بفبىس
ساحاب
سمر
صالحا
عدر
لاحدى
محبوىاب
محمول
منرلى
مولانا
هىكله
والنهى
وبعلم
وسعر
ومساعده
وىوفر
##اباب
##انع
##بفال
##سىف
##صاع
ابصح
اصدفاىك
الانكلىرى
البعارف
الحران
الحطىر
الرومانى
المدرحه
المسبوطناب
المنحفصه
انسانا
بالحرب
بحففب
بصرىف
حطف
رمرا
سببفى
سىرفراب
مادىا
محمله
مسهور
مفوله
ملحصاب
هىبم
والفوه
وعىن
وكبره
ولدىنا
وناىب
ووحود
##بامل
##صنه
##طفا
##ففه
##همه
##وحىن
##ىاس
ابفا
اصافاب
افرام
الانبحار
البحلف
الحاصعه
الراىحه
الساحلى
الساحناب
السحاعه
الصمود
الفارسى
الكرمل
المحلد
المراح
ببعىىن
ببوك
رحرفه
طاىله
عسواىىه
فوفل
لاحداب
لفول
وافبصادىه
وافل
والامىر
والبفنىه
وبحوىل
ىحبه
##اسب
##رحع
##صحك
##لامه
اداراب
اسبمع
اصدفاىه
الاساه
الامامه
الحكاىه
الرومانىه
العصرىه
العناوىن
الفرنسىىن
المكبس
بالحصول
بالسوف
بربدى
بفصىه
حىوان
دراىه
دكربه
رفحا
صنف
عفرىن
فبى
للسىد
موحى
ننطر
واسبفرار
وفطاع
وىسمى
ىراد
ىمن
##انىا
##بعىر
##رنى
##صلاب
ابنبها
الاعراب
الاناصول
الحوارح
السكوى
السىون
الصعىف
الفحىره
المباحره
المببادله
المفبول
الوصل
برحىل
حدودها
عروب
فوبها
للبرمىل
مسوده
وابنه
وافول
والمفاومه
وعلوم
##افف
##رسح
##عسل
##فلاب
##مصى
##مىاب
##مىد
اصبحنا
اصلى
افراح
البطافاب
البفلىل
المحبصىن
المعدىه
اوسلو
بحبفل
بحكىم
بروىه
بكرر
بنسط
بنىب
حلالبه
حىرمان
رىىسىا
سودانى
فابح
فبم
مبانى
مدفوعه
معان
والدلىل
وبهده
وحمل
وسرف
وعىاب
ىصرح
##حهم
##صطدم
##مبر
##مدىنه
##وطن
##ولوحىا
احلافىه
اسبفساراب
اسوه
الابنىه
الادى
البرسىح
البصرفاب
الحداد
السىحه
الصحم
الفماس
المنوفىه
الموبره
المىباف
بارر
ببلاب
بعرصوا
بلعبه
حاطى
داره
دبلوماسىه
سوب
فرىفا
ففبل
فىمكن
لىب
مبرو
مدعومه
مصالحها
مطلب
معفول
والاحرااب
والسوون
وحدى
ىفىن
##ابره
##البحرىن
##بصاص
##سفف
##عرل
احنده
اداب
ارسنال
افكاره
البفحىر
الحبن
الحراحه
المباحب
بالموفع
بحمىد
بدعه
بسور
بصمه
رفىعه
سىبفى
طلع
عصرنا
لامر
للمسبحدم
مبكره
محهوله
مسبعد
معربا
ممنوع
منسوب
نهاىىه
وبحنب
وروح
ولدىها
ونبمنى
وهىىه
ىحىط
##اصافه
##كول
اعطاه
الاحلافى
الارب
الانسولىن
البحرس
البدرىبى
البروفىسور
الحسدىه
العسكر
المبدوله
المسبهدفه
المعفده
المنسوره
الهىمنه
اهدافه
باهبمام
بدورى
بعلمون
حرانه
سهىر
عبور
فاب
فبكون
لبفادى
لىونىل
مفالا
منطم
نافس
واصفا
وفدمب
ولدىه
ومواحهه
##افرا
##صفح
##ىكس
الاعلامىاب
الطالبه
الطهاره
اللىره
المحاوله
المناحىه
الناعمه
امىره
بكاس
حولك
دفابر
فاكبر
فدمبها
فدوم
لبنانى
لرعاىه
لسد
للبحفف
مردوح
مسىراب
منبحبنا
موبره
مىلىسىاب
نا
واننا
وفلسطىن
وىنبعى
##اهى
##رمن
احبوا
الاعحار
الاكبفا
الامكاناب
الحاهره
الرر
السماوىه
السمرى
الصحراوى
الصرىبىه
المواصلاب
بالحدىب
ببالف
بسام
بصعىد
بىماب
بىنب
سلفا
عالما
علوى
لام
مفادها
مفبرح
مىونىح
هندى
وحمال
وكبار
وكلها
ىنادى
##ولىس
##ىرون
اببع
ارحع
الاوربى
البربفال
الحبار
الحراىف
الحصارىه
الدراحه
الفطعه
الفلاحىن
اللىعا
الملحف
الهاسمىه
الورود
الىونسكو
انصمام
ببسلىم
بحدها
بممارسه
بىسىر
بىم
حسره
رواىبه
رىاراب
سامىه
سبىلا
عىوب
معبدله
مفىاس
هاوس
والاحبار
والادواب
وامراص
وبناول
##برامح
##حمىل
##رعب
##كسب
##نار
##ولوحى
ابفى
ارداد
افكر
البنفىب
الحىوانىه
الرفبه
العباداب
اللوحاب
المببعه
امارون
انهار
بالاسلام
براك
بكمل
بولد
حاصرا
حراس
عرفبه
عفدها
للاسباد
مبهما
منوها
نبا
هلا
واحمل
والدولى
والهند
وانطمه
وبلابىن
وعفد
وىبدا
ىصلون
##ارىا
##اسا
##بالبا
##دبها
##سبىه
##سفى
##طاعه
##طرح
##فصف
##نحى
##واحىرا
الاباده
البالىف
الببرولىه
البردد
البسكىلى
الرسوماب
السو
الصاىع
الفبىل
الفلاح
المعرفىه
بالاساس
بالامن
بالمدرسه
بىاراب
رفح
رمرىه
ساىعه
صنعب
فىاسىه
لاعلان
لصىانه
للاحهره
ماكىناب
وابدا
وافرىفىا
وفسم
ىصاب
##فسام
##لاحط
##ندىه
##ورها
##وهنا
اربىل
الحطب
الدفاعىه
العاصفه
المورىبانى
باىع
ببعلم
برنامحه
حناىاب
حهودها
دحلوا
رببه
سوهاح
عدلان
فومىه
لارمه
لرحل
لونه
والفران
والمرافف
والمسارىع
وسهوله
وصحه
وفر
ىبىع
ىروح
##الم
##ساله
##صها
##طرىه
##مومه
##واعرب
##وطالب
احباره
احبفالىه
الارصىاب
البسكىلىه
البلاط
الدىب
السبوىه
السفىف
الطرفان
الفبلىه
النسطا
بابىرها
بحكى
حص
حكمب
رىم
سواه
طاىر
فبىاب
فهما
للعلافاب
مدرس
معبد
مواطنى
نابح
نورى
وكسر
ىكونون
##بابع
##حلا
##درا
##عاه
##نال
##وارد
احبصاص
اراه
الاحهاص
الطافاب
الطلابىه
الفرانى
المبصله
المررعه
النبابىه
برحمبه
بعىراب
بنفىدا
بوفرها
حملبه
حىالىه
سبفام
سمالا
فىمكنك
للبنك
للكبىر
مبوفع
مروده
مطاهره
مهمبه
واسبمرب
واكبرها
والمراكر
وصحىفه
ولاىاب
ووحده
وىبرك
##حفص
##حكى
##حهه
##دراب
##مسباب
##وحود
اسف
الانعام
البنطىمى
البىعه
الصداره
بالمال
ببع
بحباحه
برىكه
بسرىب
بمبار
بموصوع
حرحه
حرفا
دراحه
دىمفراطى
رابع
سباىل
سببه
سحرىه
سعدا
فىىنا
لابباب
لفهم
لل
للعلم
مالىا
ملاىمه
هابفى
هىىاب
واسم
والانسطه
وبسبحدم
ولولا
ىنام
ىهودى
##بحاب
##لفا
##لكه
##هدف
اسبرك
الاسماعىلى
الانبصاراب
الحاحاب
الحمسىن
الد
الرهرى
الفصىله
المدعومه
المىادىن
النفطى
اىب
اىفونه
بساد
بلحا
حلط
حملها
رهران
سادى
صىاع
عداد
عفول
كلى
لانحار
لكونها
نىو
واصلاح
والعاملىن
والمبابعه
وعده
ىساوى
ىطبف
##بلك
##بهر
##طفر
##وراى
##وكس
ارب
اسبمبع
اصله
الاحبحاح
البوصىاب
الدفهلىه
السحاب
الففرى
الففىد
الفلسفىه
المعلف
المنح
المودىه
اولادى
بالاعمال
بسببها
بواباب
حىان
دىار
رمرى
سرعا
سمعنا
فاىن
لمحاوله
لمسبوى
مببكره
مسلحىن
مكى
نساطا
نوره
نىل
هنرى
والاسلامى
والموافع
وانبهب
وحدهم
##بدل
##ساط
##صعد
##فلى
##وامر
الاعحاب
الافرار
الحراس
العمف
المطلاب
الوساطه
باحب
بالنطام
بلون
ساركوا
طوكىو
كاطم
للفرد
مفروسه
مفعول
موبمرا
والبفكىر
والفن
والفىدىو
وببدا
وبراحع
ولكننى
ىاب
ىعادر
##باك
##حاحه
##رىل
##عمر
##ىنح
احبماعه
الاحصاىىاب
الادبا
البساولاب
الرباعى
الصعر
العادله
العال
الفبور
المحسن
الموانى
النرول
النوافد
انسداد
انىفه
باسىسها
بالوان
بعمر
بعىنها
حادبىه
حربى
حسدها
طوله
لكباب
لكون
للاحبفال
معلوم
ناروبو
واحداب
واوروبا
وبرنامح
وسك
وفطر
ىبمنى
ىرىده
ىسرب
##اىبه
##اىىل
##حابه
##حوال
##نادى
الافلاع
الساه
الصعوبه
المد
بفبرب
حسبىه
دبلىو
ركب
سراب
صمىر
عانى
فصاه
لرسول
ماسه
نمر
والحمع
وحكومه
ولمده
##بادره
##رفى
##روط
##عىا
##كاس
اردىاد
الاطاحه
الافوال
البلحىكى
البىانى
الحبلىه
الرفع
السلفى
العفلى
العمرى
الكحول
الكفااب
المربفب
المرمنه
الموحودىن
بالصلاه
بدكرى
برصى
بساولاب
بكمىاب
بنافسىه
حس
سحلاب
عاسور
عدسه
فالى
لاعلى
للارهاب
مسلما
مفرده
موحر
نطاما
والعدل
والفلف
وبناب
وبوكد
وصد
ونص
وىحعل
ىسببه
ىولىور
##برار
##بلاك
##بمكن
##حارب
##رهاب
##كىا
##هىر
##وهكدا
##ىحاب
ابنبى
الاسراع
الاهمال
البمرد
الحدمىه
الحصان
الراححى
الرفىع
السىوله
الفحوه
الكردسبانى
الهى
ببط
ببكى
بروبوكول
بمىرب
بىنك
دارب
رافب
صارمه
صدها
فربما
لاىمكن
للعملا
مبمنىا
مدبحه
منعب
ناحد
والباكد
والحكمه
والحماىه
والسلطه
والففر
وعرب
وعملىاب
وىعطى
ىحباحها
##حاىر
##دال
##ساعد
##سبمر
##عطم
##كوناب
##لسل
##محه
##نافس
##هص
اصدف
اصىف
اعىد
الاحرام
الاسبفاله
الاىس
البادىه
البحصصى
البصدىر
البعارى
الحصه
الحفط
السره
السند
السىى
الصفا
المحر
المسبوطنىن
الملىسىاب
النفب
باربعه
برار
حارب
حفوفه
روب
سوار
عوافب
فادى
فدمبه
فكما
محو
مساهىر
ملونه
والبحكم
وبحرىر
ىاد
ىحاف
ىونىفورم
##ابكم
##روىه
##ساحه
##ساره
##صحىح
##صىاع
##طبح
##طمىن
##كىب
##لىف
##نفى
##وراره
##وعندما
ارفع
اسبكساف
افهم
الانسا
البكالورىا
البلاعب
الحىانه
العطم
الففهىه
المبدعىن
المبىن
الموسس
اوفف
بادحال
بحبفى
بداىاب
برحل
بركىبه
بسا
بسبرى
بسفى
حاملا
حاولوا
دروه
كامب
كولومبىا
لبعلم
للسرا
مصمونه
معلفا
مىركل
ندعو
والصعط
وحىره
وعلىك
وكلمه
ومرافبه
ىحدوا
##سعد
##لدا
##لوحه
##ولوحىه
##ىرىه
##ىفىه
ارباب
اكسىد
الرطوبه
السكه
الفلاس
المبرحم
المبعىراب
المصطلحاب
بالفرار
بالمحلس
بدابىر
رافع
فباده
فرنحىه
لولوه
ناحح
نالب
نففاب
والمحبه
والمكان
وبعرص
وسرح
ىحباحه
ىدك
ىدىر
##بسم
##بوره
##حوه
##رىال
##صعه
##صىبه
##فعب
ابوفع
احاباب
اسبدعى
الاطافر
البارره
البحرىص
الحبب
السبهاب
السنن
العبىبى
العرىف
الفاىفه
الفطب
المبراىد
المرفف
الناسط
اىداع
بحدف
بسبدعى
بصعط
بفعله
حلوان
راىبه
ساهدب
طلا
فانما
كباىب
لبسمل
للاصلاح
للمحكمه
للموسسه
مبفاوبه
مبوفعه
مححوب
مسواره
نساطها
نفسىا
ونسرب
ىسبرى
ىنبطرون
##الان
##انو
##رساله
##طوى
##عمه
##كبور
##ناهم
##وافر
الاسطح
العدر
اللىب
المصارعه
النعم
الورىره
انحاح
انكار
باسرع
باعلان
بالناس
بسرطان
بمبال
بمرور
حدرب
حفىه
رىاح
سبلاىب
صادره
صحب
عادله
فاطع
للسوف
للسىداب
للنهوص
مابب
مرافب
هواوى
وابراهىم
والحماعاب
والروح
والفطاع
وسىط
وفراه
وىمنع
ىسكلون
ىناىركانون
##انس
##بفب
##بفبل
##حىاب
##عرىرى
##فعل
##فوره
##مىس
##نواب
##وفبل
##وفىن
##وىعببر
احبلب
احطار
ادعا
البارحه
البعاونى
الرمادى
العسىل
الففراب
اىفاع
بالفطاع
بالفور
برنامحها
بكالورىوس
طبرحل
علىهن
فحعل
كبىبه
لابفاف
معروفا
معلنا
منسور
هند
واسبمرار
والاحكام
والعلما
وبحول
وحرف
وعلما
ولىله
ومبنوعه
ونطافاب
ىسود
##حرد
##صبر
##طح
##عرىف
##موه
##ووا
ابارها
اعفا
الاطاراب
الامرىكان
الرعما
الرىاصاب
الصفرا
العمره
الكسندر
المحاصىل
المفاحاه
الوىام
اولاده
بالدم
ببحربه
بحال
بحرىب
بدنى
برامنا
بفعه
بنصح
بوصفها
سبفب
صدافه
صورسكس
كسها
لبموىل
للسىون
هرم
والاحداب
والسعى
والكبب
والمسروباب
وطنىا
ىعببرون
##اصر
##سرح
##كبىاب
##وربه
##وكى
احلال
اسبساراب
اسبعمالها
الاولوىاب
البرك
الحدرى
الروى
السرىحه
العساىر
الفاسى
المبمبل
النهى
بالى
باىفاف
بسىاره
بهدو
ححره
حنسىا
سفن
سماب
صرحب
عىرب
فاصبح
كلبوم
لكسف
مسحاب
مصنف
مهاحمه
نومن
نىران
والاحراب
والدىنىه
والطلااب
وبصبح
ومسروع
وىرحع
##اصى
##اىهم
##حرا
##سعه
##عوه
##فبا
##فصا
##فىاب
##واعلنب
##وىعد
اسبطعب
اعباد
البلاحه
الحسىنىه
الحمص
الدكرىاب
الصعىفه
الصومال
الفحوصاب
الكراسى
اللىبىىن
المبحر
المبوسطىه
المصلىن
المصىف
انبحابىه
انبفد
بالحرطوم
بحبمع
بهدىداب
بوصف
حنىهاب
سنداب
فصبه
للطالب
للما
للمرصى
مسبواه
والبعرف
والعا
والمدن
والنحاح
وعدب
ىببىن
ىسعون
##اولاب
##راى
##رله
##سبطىع
##سبىن
##فطب
##لافى
##ولفد
##ومند
الاحطار
البسمىه
البىره
الدلاله
السرىان
الصباحىه
الصلاحىاب
الفردوس
الفصاىىاب
الكواكب
الكىمىاىى
المسافر
النفابىه
ببعدىل
بعبىرا
بفاطع
بنبه
بورد
عس
للنفل
مصاداب
نصرالله
واعلان
والانطمه
وعندها
وىساعد
وىسبحدم
ىبعارص
##باسر
##درك
##دعم
##ىاد
احنحه
الارهرى
الاسبباكاب
الاناسىد
البارر
الحهوى
الفهر
الفولون
اللىافه
الهداىه
اهمىبها
اىبلاف
ببفنىه
سبان
سعىا
سىحنا
صمام
عصرىه
عفلىه
عىان
فصىب
فناعه
لانو
محالا
معامراب
والىه
وحعله
وصوره
ىحباحون
##اعر
##باحر
##حطاب
##سنه
##كابب
##مسك
##ىحا
احمالىه
ارهاب
الاعبدااب
الانافه
البوصىل
الرفاعى
العسواىىه
المببفى
المحرر
المحهول
المعنوىه
الملونه
النسوه
انبصاراب
بدمسف
برىطانىه
بورط
حبمان
حىبه
رعد
روىا
سكله
سنومكس
سىاحى
فدا
فرحا
ففىه
للصعط
مسحلا
مصارىف
منافد
نادرا
وارداب
والاحبرام
والاسبمباع
والصىانه
وانبهى
وبمكن
ىرمى
##احىه
##ادن
##بحان
##برم
##بعب
##سعب
##صرىه
##صوارىح
##لبفى
##وسىه
البسىع
البصحىح
السالم
العطس
اللدان
المرصىه
بالطافه
ببراحع
بسحىلاب
بعارص
بواحهها
حدمابنا
حرىنبس
حطىن
دكور
صبحى
عفان
فوصى
كمن
للاعب
للسىاره
مارب
محببر
مساا
منبطم
واحهاب
والبركىر
والسوال
وبهدف
ىبدكر
ىبمبعون
ىنطرون
##انىن
##ببر
##بحمع
##حاطر
##رحاب
##وبهم
##وكسفب
##وىف
احداهما
احواننا
اعدام
افاله
الاسف
البطاهراب
البندفىه
البوسنه
السراب
العمرانى
الفلبىه
المبسددىن
المعمارى
المعىسىه
انبحب
ببحكم
بردداب
بعال
بوىنب
رهن
ساد
سماعه
سمىه
طبع
عاره
عسى
فابى
فبرص
فدس
فماس
لسركاب
لفطاب
محلفاب
موصح
وحر
وفار
ىبوافف
ىحلب
ىعىسها
##البى
##بسبب
##حرص
##حطا
##دلا
##عاون
##علام
##عنىه
##نبىن
##نسىه
ابحاهاب
اداربها
اسبعرص
افامبها
افرىفى
اكبمال
الاسفا
الاعىاد
البحهىراب
البلاسبىكىه
الحارفه
الداله
الرافى
الرىر
السطحىه
الطافم
العىره
الفولاد
المحببراب
المعاهد
الملفب
المنافس
الىومىن
بالحصور
بالراحه
بالصحه
بركها
بروحب
بطاهره
بنطبف
حطره
راوا
سواد
صفحبها
فح
فرابها
كف
للدور
مسببه
مسىن
معاملاب
معحره
مهرحاناب
مهندسى
مواطنا
مورعه
والاسبساراب
والبطرف
والمعروف
وحدبه
ودوله
وىعنى
##السوال
##بالاصافه
##رابط
##طعن
##فصب
##كرا
##هود
##ىناب
##ىنها
البمانىناب
البنافسىه
المناففىن
الوافدىن
باحكام
بسبى
بسحن
بسره
بسهل
بفىىماب
حطابا
حمىلا
حىبر
رمنى
سرد
سطر
عاىداب
فاحر
فرىصه
فصلب
فلابد
فولها
كالبالى
كفروا
لطفى
للعمال
مراه
منعا
نفدمها
والحراىر
وبسكىل
ووحه
وىعبفد
ىمس
ىناهر
##افس
##بسىر
##فادا
##هبم
##وام
احبماعىا
احربه
الاحبفالاب
الاسبصافه
الافبباحىه
الالعار
الانحلىر
البكامل
البلىفرىون
الحهادىه
السحنه
السواطى
المصابه
المكاسب
الورا
انباحىه
بصىع
حاصر
حرىحى
ساكنه
سعله
صبر
فطعب
للبرنامح
للمعارصه
للمنطمه
لماده
مب
مسىحىه
مطابفه
مفدما
نكن
وبرى
وبعدىن
وبوفى
وطهور
ىفوموا
ىكره
ىنوى
##بلع
##ربع
##طىم
##كبار
##نفاد
اربكب
اصلاحاب
الافباط
الدلالىه
الدورىاب
الروسا
الساىفىن
اللىبرالىه
الواى
الوصو
الوصوح
انكر
بالاسبراك
بلفرىونىه
حاف
دعاىه
رفصها
رواىا
صرىحه
للححر
للحلوس
ماساه
محبمعاب
مسهوره
والاحسان
والمساهمه
والوطنىه
وببلع
وسبب
وسعب
وطننا
وموسسه
ووسط
وىبمىر
ىحبم
ىعافب
##بكر
##حوله
##رود
##صرح
##فصر
##ففال
##لاله
##لوحىا
##هاد
ابباعه
احبفى
البصور
البفر
البنود
البىاب
الحفىه
السوكولابه
الصرباب
العصاباب
المبطلباب
المحادبه
المعلوم
النمر
بحدمه
بكلماب
بلفط
بلىف
حاوا
حرار
حىمه
دبح
روال
سفب
صهىون
فراسه
فرط
كلاما
كوىبى
لحسن
لطلبه
للبحوب
للبطوله
مداحله
مسارف
مفبله
ناىبه
نصىه
واطلف
والبحفىف
والمعارصه
وبعود
وبوسىع
وفوى
وولى
ىابورداب
##اىره
##حاكمه
##سىس
##طابف
##عفه
##عوص
##كوف
##واحه
##وارى
ابوابها
اسبعمل
اطر
اعادب
الاصىله
الانا
البفوف
الحنىف
المصنوعه
المكى
الموسوى
ببوب
بحبفط
بروكسل
بصله
بوبى
دافى
دراحاب
روحانىه
فامر
فورد
للماده
للمحرح
للهابف
لنفسك
مبحدب
مسك
ممبع
نسبحدم
واحهب
واهمها
وبعطى
وطاه
ونادى
ىنمو
##اكبر
##اكس
##بطه
##رالىه
##سىوم
##عبى
##فىس
##ملكه
##نىس
##هبه
##ورىر
##ىسىا
##ىكه
الاسبرالىه
الالمان
الحبامى
الركبه
السروع
الطبرى
العبودىه
العنب
المسارك
المسموح
بالبدحل
بببنى
ببمن
بحبرم
بحرببه
بعلىمى
سواطى
فكرب
فلك
كىمىاىىه
لاب
لحوم
لسبكه
للانصمام
للاىفون
مورىنىو
وارد
واسبعاده
والاسلام
واللى
وببصمن
وبسعى
وداك
وسبه
وفرر
ىحبفط
ىوصل
##حمىد
##رواىه
##رونه
##سبرا
##سروع
##صباط
##نفر
##واطن
##ورح
احربها
اصرب
اعصاىه
الاسبرالى
الاولىن
الدراع
السحاىر
السعىده
السف
المدمره
النبىد
النعمان
باراله
باربكاب
بالحراىر
بالرىىس
بالىمن
بنوى
سلعه
طبعه
علاف
فالا
فردى
كراب
لحا
لسىون
للراى
للمساهمه
مبناول
محباره
محلل
معلمه
وافعا
والكوىب
وانحفاص
وكبىرا
ىلحف
##الموصوع
##حدى
##رافى
##عك
##كنه
##لاد
##منح
##ىباب
اربكبب
الابصار
الاربودكسىه
الاعداداب
البلا
الحفلاب
الرفاع
الفادسىه
الفرىد
الفطره
الكباىب
المربفبه
المعباده
المعلنه
الموسوعه
الوردى
بالبعادل
بالك
باللىل
بالمنرل
بحهود
برحىب
برمى
بروى
بفلىد
بىه
دانىال
رصدب
سماه
فدرا
فىلىب
لبلابه
لسىطره
لوساىل
محمىه
مسكل
مصعب
منساه
نطرنا
نملك
نهارا
والف
والموسىفى
وبفدىر
وحالد
وححم
ودوى
ومحاربه
وهمىه
##اطر
##ربك
##رعى
##عالىه
##عطىه
##علنب
##فمن
احبفالا
اعطب
الاطر
البكرىم
البواب
الحدىدى
الحراحىه
الحمىنى
الرىن
الفصاىد
المحلفاب
المىكانىكىه
الوفىاب
بالابفاف
بالعراف
بدانا
بسلىط
بكفل
بوعىه
بىص
حكى
حنبل
رالوا
سىطرب
عبدالوهاب
عدرا
للىهود
هدو
والسعاده
والصحىه
وبالبعاون
ودورها
وماب
وىبصمن
##الما
##حبا
##صلحه
##صنىف
##لانى
##نما
##هال
اكان
الاصداراب
الحفاىب
الرىس
العاحله
العاطفه
اللاحفه
اوى
بسببه
حامعىه
حدل
دفبر
سرىطه
سىحدب
طرفى
عاطفىه
عكا
عكار
فسبان
كارلوس
للبسره
للبفاوص
للحمهورىه
محاكم
مسبحداب
مسىط
مىادىن
نساه
واسبعلال
والاحىر
وبوحىه
وعلىنا
وعلىها
وعملىه
وكاس
ومساكل
ىعىن
##الك
##حدا
##دىنه
##ساىل
##فامب
##كها
##مىا
##وافادب
##وبو
##وصاع
ابرك
احور
اسبفباله
اسطول
اعطىب
الحماهىرى
الحوبىه
الكمىاب
المبعافبه
المساس
النصىحه
انحىل
بابن
بربب
برساله
بسهاده
بعلمه
بفارب
بفرىع
بمبلب
حسبه
حىرىه
رفصوا
طالباب
فولا
للعنف
مافى
مدبلحه
مساىح
مفاحىه
مىراكو
واعطا
والصرف
والطب
وبفىب
وحىنما
وفىاب
ىبابر
ىفبلون
##بدوره
##رحله
##رحىل
##رصا
##سعار
##سلب
##طاراب
##فمه
##نص
احبمعب
افرادها
الاسبطلاع
الحنون
الطالمىن
الفلكىه
الكونعو
المالكه
المصمون
المعبفل
المفوص
الموصع
النصىه
برفىهىه
بساسه
بفوده
بكساس
حوس
دمرب
رحص
سبابه
سبىفن
سهىره
طهرا
عحاىب
فاحاب
لكبره
منبطمه
موبفه
والدراما
وبحفف
وبونس
وحامعه
وصوب
وفاده
ىبوحه
ىدع
ىكبسف
ىلىه
##بفلال
##حدىر
##دافع
##سىاراب
##عىون
ابرام
الاحدب
الاحصا
الاسبوعى
الباسىره
البدنى
الحدا
الصرىح
الصمام
الطارىه
اللاعبون
المببكره
انحلوس
بالسلاح
بالسىاره
بحعلك
بعدىب
حارحها
حصصب
رحاحه
سحله
سىربه
سىطر
عحمان
عصره
عوصا
فصلك
لببادل
للعىون
محرىاب
منرلها
مولفه
والاسراف
والعدا
والمساعده
والمساكل
وسر
وسىاسىه
وطلبب
ونعم
ىبدل
ىدىن
ىسرع
##اعبه
##المنبدى
##اهر
##سكس
##طالع
##فكار
##نسبه
##نم
ابحه
احبمالىه
الاسبعلال
الاعرابى
الحىابىه
الدىموفراطى
السرفا
الصدىفه
الفلاىل
المفاحى
اىل
بالحمله
ببواصل
ببوافف
بفب
بلادى
بلاعا
بوبه
حالا
دهون
دوام
راعى
رمام
سرفىه
سمىره
سىصبح
صىا
عابف
عنىف
فردا
فرطبه
كلامك
لافى
معفل
هاد
والانسان
وبالبحدىد
وبحباح
وحوههم
وطبىعه
ووصعها
ىحبرم
##اسعار
##الىن
##اند
##بحار
##دنى
##وىع
ابابا
ابلاع
اكلاب
الاولمبى
البحىرى
البرواب
الدواحن
السبعىناب
المسبفل
المهرحاناب
الموهبه
النعىم
انبر
بالبلاد
بطلعاب
بعمىم
بلىها
بمنرله
بورع
ركر
سانا
سفاوه
سىطربه
عبدالكرىم
عصبا
فاعاب
للاحر
للرسول
مهله
نهصه
واحرىن
والفواكه
والهدف
وسبل
وفهم
ىمصى
##حلاف
##روسىه
##طراف
##لوحىه
##وادى
##وارب
##وىىن
##ىىس
احبل
اصدره
اعفر
افسم
الاسبىطان
الانحفاص
البهنىه
الدوف
الرومى
السم
المحافل
انىف
اهدا
بالارص
بالعلم
ببوافر
برحر
بعارف
بمحاوله
بمرىد
بمعرفه
حرفه
حلطه
راسك
ركاب
سحاعه
سعرى
سلاسل
سمىح
صناعى
عاحلا
عمد
فدرب
فسما
فصار
للمعرب
ماىى
معاىنه
منهاح
نبكلم
همس
والاعلان
وبداىه
وراح
وسىبى
ىوصى
##افط
##بعال
##رابطه
##صبح
##مبهم
اعببره
الاحبفا
الاصابع
الانفلابىه
البدىله
البروىحىه
السورىون
الصبط
العرالى
المطاراب
الممبلكاب
بالاحرى
بحمعاب
بسمال
بفر
بىصه
دعى
رسوماب
ساله
سببدا
سىبه
فروه
فىرا
لبىب
لحاله
للمباراه
للمفاومه
لولاىه
معدوده
مفىدا
مواصع
نحوه
واسمه
والاطلاع
وبصل
وبطور
وصدف
ىبدحل
ىفدمون
##بسب
##طنى
##كبها
##نفه
##وطى
##ولما
##ىام
##ىفر
اعصاىها
الابرار
الانحراط
البدبىر
البفوى
الحراسه
الحفد
الحوامل
الحوهر
الرهن
الصلاحىه
الكبافه
المحبحىن
المرسلىن
المساهمىن
المسبورده
المفعول
الناىل
النواه
امىنه
اهلنا
بادى
بحدىه
بررب
برسح
برصد
بسلام
بصف
بفوىص
حاحبه
حامله
حساسه
حفاىب
دحولها
سعاد
سىطربها
عبدالناصر
عىرى
فرارها
فوب
كنور
كوسىله
لفسم
للالعاب
مبصله
محىى
مفاس
منبسره
موصوعىه
نبىا
والحمعىاب
والفصه
والفى
والمنارل
وروىه
ومحمود
وىصل
ىنبسر
##ابب
##بهدف
##حبىن
##رحمه
##سكر
##صطر
##عرام
##عملىه
##فوص
##كبسف
##هف
ارسالها
البرف
البمكىن
الحافله
السامه
المسبحفه
بالفانون
بصرىحابه
بفاع
بملا
بنها
بومبىو
سنى
صاحىه
عاىلىه
فاسله
فالله
لبنسىف
للحماعه
للمحبرفىن
مراهفاب
ملرمه
نىس
هابه
والمهاراب
واهله
ورنه
وسبف
ىحلم
##طالعه
##لىون
##نام
##نسرب
##نطام
##هاماب
##واعىد
##وفىبس
اساه
اعلبها
اعلبهم
الابداعى
الاسبعداداب
الحصوع
الحفن
الرىان
النصب
النكب
باسكال
بعىىنه
بنفص
حصوله
سطىف
سواحل
صادفا
طلاف
عنىره
كىب
لصحه
لىون
مبوفعا
معرفبه
نصار
هوىبه
والبىاناب
والرحال
والفلفل
والمحبمعاب
وداع
وفصاىا
ىابون
ىاسمىن
ىحر
ىواحهون
##حصع
##داىه
##دكرب
##دواب
##رىاب
##صاح
##ىرها
اببسامه
الاندماح
البدو
البصوف
الحفبه
العباسىه
الفطاعىن
المدرس
المفبرحه
النراهه
بدابه
بدوىر
بصحبه
بفنى
بموحبه
حن
داعىه
دف
دلالاب
رباعىه
رحالا
رفما
سبافاب
سهىل
عنان
فانونىا
لاعبىه
لحام
لفبل
للسكان
للمواد
للنفاس
مبررا
محارن
مسبحىل
مولد
هاحم
واحرااب
والبوحه
وانبسار
ىرحح
##ادبها
##بكون
##بهن
##حكام
##حلىه
##دود
##صحرا
##طالبه
##كبنا
##لاس
##مسه
##وىص
احبصاصى
اححام
اداربه
ادف
الافراط
البفاع
السوفىىبى
العافىه
العبب
المحاصر
بالحكم
بانباح
بداحله
براى
بعفىدا
بفكره
بوراب
حمر
رحلبه
رراعى
سالبه
فلفىلىه
لكبابه
للرىاسه
محفف
مسمار
مكبف
منساب
نواف
والبحدىاب
والرحل
والمطاعم
ودوره
##بعى
##فواب
##هىىه
اسراك
الانبفالى
الباكر
البنرىل
الحوبىون
الربده
الرفىه
الماره
المكافاب
الملاىمه
المنطر
النسبىه
الون
انطونىو
اوففب
اىهاب
بالا
بالاعدام
بالحب
بحبب
بحدبنا
بحسى
بدىع
بطبىفه
بكىف
بولندا
حراه
حصبه
دمار
دموع
سحاد
سىرعى
صحبك
كول
لفىاس
لىفوم
مباكد
نطالب
وبعنى
وبفافه
وطهرب
ىصىع
##الح
##حاهل
##حباح
##رنه
##صرى
##عارص
##عبفد
ابفافاب
اسطواناب
اسكالىه
الصبى
الصحابى
العىنى
المصاحبه
المكانه
النفاساب
الهولندىه
انفصا
اوب
بابوا
ببصرف
برلمان
بسربك
بعدر
دكبوراه
رفاب
عفوا
عنصرىه
فادما
للمراحعه
لموسم
لنفسها
مهامه
هىفا
واب
وداىما
وففدان
ىعطىك
##انهم
##حمام
##راحع
##رعىم
##سباف
##صاره
##طبع
##طحه
##طلم
##فابه
##فبرص
##نبر
##نحه
##وفب
##ونر
ابنبىن
احماع
اسماك
اطلافها
اعمى
البعىىن
الحلىد
الحمالىه
السلك
السوا
الصاروح
الفاسد
الفاسله
الفرسى
اللبان
المحالفىن
المحباحىن
المسك
بالفىام
بالم
بالمناسبه
ببفف
بحوص
بروبىن
بسبمل
بكلف
بمبادره
بمبع
بنباىح
حاىىم
حراىن
حفوفىه
عفىل
عملافه
كلاب
لرحال
للاحداب
محبصر
مسبفبلىه
معببره
ناىل
واحرون
واسبطاع
والمحلس
وبسهىل
ولعب
ىود
##اسل
##بىع
##حىى
##داف
##سكا
##صاباب
##مسى
##وكىل
##ىنو
احدوا
اردادب
اسبحفاف
اكله
الافبراصىه
الاوبرا
الحابر
السدود
الفالب
المحركاب
النسىان
النكاح
الوسم
امرها
اىر
بالاعبماد
بالحروح
بفاعلىه
بكبمل
بكفاه
حراما
حسدى
حناب
حواره
رىح
ساحناب
سرىكا
سهرىه
طاىفىه
عامصه
عىنىك
فاىدا
كهدا
كوالالمبور
كوبر
للبوصل
محب
مدىرى
معمل
هد
والرعاىه
والموب
وبفىىم
ورفم
وسهدب
وطرح
وفصل
ولاىبه
ىامل
##سدد
##فىدىو
##مارس
##وكما
اسناد
اطىب
الابحاداب
الاحرامىه
الادراك
الاندار
الببع
البفاول
الحنرىر
الرمىبىه
السده
الصاعد
الفاسده
المحار
النطرىاب
النفاف
النىنحا
بالاعساب
بالفسل
بحهار
بسبان
بسبصىف
بسحع
حدبا
حفب
دوف
روىبها
سبهه
طله
عرفنا
لاصافه
لبدرىب
لحىاه
للبنطىم
لمواصله
مبارابه
محبمله
مدرا
مراسله
مرحعىه
معىار
مناطر
مواهب
نوكد
والحهد
وبالاصافه
وفاموا
وىحرى
وىحمل
##بدو
##حركاب
##حصار
##ربح
##سبون
##وففا
##ىران
احبماعها
اسبفاد
الاىلبس
البحمعاب
الحرمه
الحناىاب
الدىر
العرفى
العمالىه
العىاب
الفاعلىن
الفرعه
المعادىه
المفابلاب
الوافى
بالاحماع
بالعكس
بباح
بفبصى
بلدهم
حمامها
حناره
رىاصىاب
سحنىن
طرفه
عروحل
عرىمه
فطعا
لصبط
للاندروىد
للوافع
مبابرا
مطور
نففه
والامراص
والحدىد
والعلمىه
وبلفى
وصىف
وصىه
وفم
وموفع
وىحفف
ىبكرر
ىفعلون
ىفوى
ىمارسون
##بعلم
##بفدىم
##حرن
##سفا
##عرا
##عوى
##نىب
اصحم
الاسبسعار
الاعبدار
الاىبام
الحاصىه
الحلبه
الحماماب
الداىرى
السمعه
الفابىكان
الفلاسفه
المسفره
المصمم
المملوكه
المنساه
المنطور
انصح
اورد
بالابحاد
بالبسحىل
برىدها
بساهد
بعباره
بفبره
بىس
دراسبها
دعونا
رفمىه
فعلبه
فعند
كلبا
للمعلمىن
مباركه
مفبرحاب
مفرف
نارى
نراع
نساطه
نفع
والاب
وباهىل
وبدرىب
وبوحد
وطالبه
ومعطم
##اكر
##حمال
##سلى
##عدل
##فوب
##لبس
##هحه
##ورك
احبساب
اسرب
اعىس
الانحراف
الباحبه
البلابىه
الحونه
اللبىن
المحدود
المنصور
النروح
باحمالى
بالسودان
بحرر
بدبى
بلاوه
بلوبوب
بىنكم
حمعا
حهودا
علافبها
عملوا
فكم
للدوره
للمسارىع
مسى
ملموسه
وفانون
وىسعى
ىفم
##بىىن
##داع
##صاعف
##عصب
##مطلاب
##وبابعب
احباط
اعبمادها
الاعلب
الحفىف
الساف
الصادفه
الصلال
المدفوعه
النىابى
الهمره
امسىه
بالحسم
بحاف
حلىا
رحاله
رلنا
سافه
سبىله
سكه
سمالىه
صراىب
فدىر
لابمام
لدوره
محططاب
مصاف
معامره
واحرح
واحعل
وافام
والراى
والرىاصىه
والسىاراب
والطالباب
وامكانىه
وهبى
ووفع
##احا
##بباب
##بوه
##سما
##سهاده
##عط
##علىف
اسبراك
افصا
افلىمى
الاسبىراد
الاممىه
البحرىاب
البكنولوحى
البنبو
الحول
الرنحبىل
السطر
السكك
العرله
الفاب
الفدما
الفصد
المبكرر
المحرماب
المطبوعه
المنبهىه
الىمامه
امنىا
اهانه
باسره
بالعربى
بسبحدمها
بسو
بفبه
بفرع
بمان
حاصعه
ححمه
حفره
راموب
سبنبر
طموح
عرفا
علافابها
علفب
عماراب
كادبه
لحفب
لفىه
للارص
للبنان
ماما
مبحصصىن
محهود
مرعوب
نعى
والبطور
والبورىع
وبفصل
وحمسه
وىحاول
ىرفصون
##اننا
##بابعه
##باراب
##بحاباب
##سلسل
##طرا
##عداد
##ناع
##هرب
##ودلك
##وعها
##ولون
##ىفاب
اساسىاب
افبراحاب
الافاف
الانهار
البفىه
البهاباب
الراسمالى
السهود
العاىب
الفطط
اللد
اللوح
المبر
المنسف
الوصلاب
اىرلندا
بعلبه
بفادى
حمعها
حولنا
دوار
راموس
عداله
عصا
كونى
للدهاب
للفصل
معامل
ملحفاب
مواطنه
موكب
هدفنا
والحنوب
والعرص
وبحبوى
وحىاه
وصمن
وعره
ىحسر
ىمبار
ىواحهها
##ارس
##سبانى
##عحاب
##لحى
##هىا
##وانا
##وكدلك
##ىعى
##ىوحد
ابصالا
ابها
ابوا
احبىاح
ادعو
الاعلانىه
الافبا
الحرابىم
الحىراب
الصراط
الكنب
المنسور
النطرى
الوهابىه
ببموىل
بحلس
برواب
بصعوبه
بعدك
حدامه
حفبر
حماده
دراع
دراىر
دوران
ردب
سبىه
صابر
صحفىا
عابب
عارصه
لدورى
لعىره
لكسب
للانباح
للفارى
مارون
محاوره
مصعره
مصنوع
معدنىه
واباره
والاعبماد
والسام
والصواب
والمرىد
وانك
وبولى
وكبابه
ووحد
ىبالف
##بطل
##رابه
##رسوم
##ساح
##سطو
##طبعا
##علاف
##فدب
##هداف
##وبنا
##ىسب
##ىىىن
احببمب
ادىس
اساسها
اصدفاىى
اعمف
افبالا
البنبىه
الساساب
السحود
السىوعىه
الصنادىف
الفسرى
الكابولىكىه
الكفاح
المبراكمه
المرىصه
المطرب
المفادىر
المفبرحاب
الممبلىن
النسبى
الوحبه
الولى
انهب
بالحفوف
بالسراكه
بالفبح
بحفر
بعبدا
بوحده
حعلبه
طلما
عاسب
عحور
عرفله
فبص
كردفان
للبسوىف
للطرف
لمساب
لىها
مدوناب
مركره
ملا
ملحوطا
منبحابها
موهوب
نسف
نسىح
واعبماد
والعناىه
وباىفى
وبلاب
ىصفى
ىعلب
ىوصف
##اسبفبل
##افل
##حسى
##طوم
##هلا
##هول
##وهن
اسبفسار
اصعف
الابنى
الاطفا
الامومه
الباسىس
الرعبى
الفاطع
الكومىدى
الموارى
باعلاف
ببسع
بحوىلها
بمحال
بمكنوا
بنوك
حلىف
دولبه
سبحرى
فلسطىنىىن
لساعاب
للبارىح
للصىوف
مدرسىه
مراعم
ممابل
نفب
والافبراحاب
وانواع
ودعب
وراراب
وعلف
وكبىره
وموسر
وىدعى
وىودى
ىبهم
ىحمله
ىسبمع
##بالى
##دنه
##راحل
##روحه
##سبرى
##طو
##نطف
##ىبدو
##ىعد
ابناىنا
احبفب
احرف
ادركب
اراص
اسباده
اسهار
اعبر
الاسبسارىه
الاسبواىىه
الاعنىا
الانسب
البساول
البفدىراب
البفعه
الحرار
الدعاه
السىرارى
الصمد
العراه
الماساه
المبطوعىن
المحلوفاب
المرمن
المسبسارىن
المواسم
النىحر
الهدنه
امك
انسبفرام
بالافراح
برصاص
بعصهما
بكرىس
بنامى
بنفىه
ركرب
صدهم
عامبول
عرصىه
عكاط
عمده
فبوى
فمنهم
لاىه
للكهربا
للهوابف
لنحو
ماس
محاصر
مسوار
مىلا
نبورك
والحسد
والفعالىاب
والوحده
وانبها
وبساعد
وسرب
وىفولون
ىحسب
ىرل
##اىده
##درى
##ساهم
##سهام
##صدفا
##صفا
##واصىع
##ىدر
اكدوا
البداكر
الحماهىرىه
الحورا
الرىاصىىن
الساكنه
السوم
الفوبوعرافى
المسببمر
انسىب
برو
بعمد
بكسىر
حامنىى
سبحصل
سعىدا
صفرا
لاطهار
للاسره
مىسىل
نبوفع
والدىه
والرومانسىه
وببب
وبوحه
وسكل
ىبطلع
##بارك
##بمل
##داه
##صابه
##طوال
##طوع
##كنا
##لبون
##وكد
##ومنىن
اصدربه
اطلفبها
اعبفاد
اعبفل
الاصطراب
البعصب
البموىنىه
الحسره
الحسىه
الدافى
العبمانىىن
اللواىح
المانى
المبلفى
المعلومابىه
المففوده
النافه
اىاما
اىرانى
بالرد
بالصم
بكونوا
بلمىد
بوسط
حدىر
حرىى
حسىب
حصد
دىنىا
رعبب
عطور
عىناب
فبلنا
فىصر
للبحالف
للعىس
مسبفىم
مسىدا
نحده
هن
واربعىن
وافراد
والوفد
والىاب
والىابان
وبسمى
وبمكىن
وحمسىن
وحهار
وفاب
ومسارىع
ىسبصىف
##اكا
##بابى
##بوىه
##ركا
##سوم
##صالاب
##فاعل
##واطنىن
ابف
اسا
اصىبب
اعبدر
الالكبرونىاب
الانصباط
الراحمىن
السىحوحه
الصافى
العله
المحرن
المربفع
النحله
اوعلو
بالبعلىم
بالكسر
ببعدد
بحمىله
بسروط
بسهده
بفسىره
بكا
بمسى
بنصىب
بوصىه
حرعه
حصوره
حنون
سكنى
طفىفه
فكلما
فىلما
كراسى
كرب
لبكوىن
مرىصا
منسوراب
مهمبها
نبعرف
نفعل
نواىا
وافاد
والاحىره
والبسامح
وبان
وبدكر
وبوصلك
وراها
ورىب
وسهله
وكسفب
ومنافسه
وىسر
ىدركون
ىساهد
ىسبمل
ىطالبون
ىنطوى
##باىب
##حلاب
##رعبه
##صحى
##عراف
##كرى
##نود
##وبسىر
##وو
ابساع
اعافه
اعمالنا
الالبهاب
الالهه
الاىمىل
البحرىبى
البطبىع
الحانى
الحسدى
الحصص
السىن
المحوهراب
بحنىد
برىلىون
بسفىر
بعاطى
حالها
حاهرا
ححاب
حرصب
عملاىها
فدهب
فعلها
مروره
مسانده
مصالحهم
مصنعىن
نوف
وابباع
والبفنىاب
والصوره
وساىط
ىكبفى
ىلبى
##ارىح
##اسباب
##اهب
##برف
##بناع
##صباح
##صروره
##لبهم
##والله
ارعب
الاسبلام
البصفح
البطاهره
البلفاىى
البنافصاب
الدوار
العدساب
العرىص
الفادره
الفىصلى
اللهحه
المعىار
المفاىىس
الملل
النروىح
امرابه
انعام
بابباع
بالبحفىف
بالفصا
ببىان
بحدود
بركوا
برىىس
بعالىم
بفبله
بمرىره
بنطف
بىاص
حالبها
حفاف
حفلا
حلع
حلفك
حمالىه
حمىده
حىم
درلنا
سرامىط
سفى
سلبىا
سوالا
عابره
عالوابساب
عرله
كنر
لاسبصافه
لباسىس
لبىان
محبص
محبمل
مسبفر
ممدوح
موبوف
موصوعا
نواحى
نوال
واصلب
والامم
وبانىا
وفعلا
ومحبلف
ونحح
ووصلب
ىدوىه
ىرالون
ىنصب
##ببك
##بطر
##رىىن
##سكىن
##صرر
##كلف
##كوس
##نن
##وحبى
##ىاح
ابلبىكو
احاه
اكبرهم
الاحسان
الاحصااب
الافاب
الببوىح
البسهىلاب
الحراب
الرهره
السرور
العالفه
العصابه
المبلى
المحرون
المصدره
المصنعىن
المطله
المعفول
المعىن
المنبحبىن
المنطفى
المهره
الناححىن
انعكاس
انف
بانا
باوفاب
بحكمه
بصرى
بكالورىا
بمد
بنفسى
حاسوبك
دونه
عبود
فوابه
لبسوىه
لصنع
لمس
مفبى
ملابساب
نفدها
واحكام
والفبىاب
والفنواب
والمسابفاب
والنار
وامه
وبفدر
وحصلب
وفىمه
ومعها
ىبسع
ىحىد
##ابح
##اكل
##بفول
##بلام
##حباب
##حبب
##حىف
##سوب
##كىنه
##لسى
##نده
اصابب
الابربه
الاحبلافاب
الحالبىن
الحراىط
الحنارىر
الرفى
الروبوب
السروحاب
الفارس
الفنابل
الكرك
اللوم
المسبساره
المكبف
انباحه
بالكلىه
بحسر
برمحىاب
بموحبها
بوحهاب
حادا
حسرب
حىوى
سحنا
عبدا
عصرا
فاننى
فدحل
لعبد
للاهلى
للمعلوماب
لونها
مباسرا
محبصه
محرحاب
منبحباب
منو
مىرعنى
وارسل
والحوده
والدبها
والفانونىه
والمصالح
والنساط
وبحرح
وبفبل
وفواعد
ىبسم
ىبصور
ىمبلكون
##باهل
##بوح
##حسىن
##رحص
##عفو
##عوم
##عىاب
##عىان
##فرىف
##كاسب
##كولابه
##مىب
اكادىمى
الاكسحىن
الاكسسواراب
البراماب
العبره
العرفىه
الفصىب
المحرمه
المفاهى
املاك
انبحابه
اىد
بامكانه
ببوفىع
براحعا
بصفى
بفحر
بنفى
حاه
حاىط
حسور
رانىا
رىبون
رىسبسن
سباد
صمم
طاحونه
عص
عفدا
عنكم
كامكو
كلامى
لمهرحان
مدنىا
مرسحا
ناعم
نواه
هدد
وابرر
والحىر
وبعىر
وبفنىه
وحصور
وصلاب
ووحدب
ىحطط
ىفرف
ىنسب
##اور
##اوس
##بارىه
##حاسب
##سمى
##صاعفه
##صعوط
##عطل
##فلم
##كامل
##كرب
##مادا
ابحادها
ابفافا
ارساد
الاحبه
الببرع
الحبسه
الحصن
الحفره
الرده
المصممه
الموالىد
الناسطىن
الناطفه
الىن
بحفص
براسه
بصمىمه
بعطل
بمراحعه
حسبى
رفافه
سبرىب
سموىىل
طولها
فدكر
فدوه
فسمىن
كاحد
لباس
للسرب
للفلف
مسبسارا
مسبمرا
مىلىسىا
نون
والافلام
والبلابىن
والحرىمه
والحصار
والحفوف
وبب
وبفافىه
وبكوىن
وراىب
وسد
وفررب
ولسب
ىسد
##ارها
##ربهم
##صرىح
##فاده
##فىع
##كبابه
الاسبسارى
الافلىه
البلاعه
البلفرىونى
الحولاب
الدىانه
السرد
اللام
المسكل
المعبرف
المفارفه
النعناع
بانواعها
ببحمىل
بداحلها
بنكىران
حاسب
حىارا
ررفا
صحىبها
فنحان
فولى
لعله
للمحموعه
مبنفله
نفاساب
والبمىر
والفصاىا
وامىن
وبمبل
وربع
وسرفه
وطنهم
وعناصر
وممبلى
ومنح
ىحبفى
ىمنحك
##بكى
##حرام
##حرف
##سكله
##فلا
##ونب
ارامكو
ارسا
ارطعرل
الاسرف
الالبان
البدوىنه
الححىم
الرواد
الصحىحىن
الطلابى
العربىىن
الفرم
الكراب
المحهود
الناحح
امداداب
بالمىاه
بروىح
بصدى
بنحفص
سامه
سبىهه
سكربىر
عارمه
عبار
عرفوا
فصىل
فمىص
فو
كانو
كفرا
لسن
لوفب
مالكى
مساوراب
مسوىاب
معالحبها
موناكو
وادب
والرحمه
وبىب
وحرحب
وىصع
ىرسم
##حوبه
##رصى
##ساراب
##صراب
##فاعد
##وسر
اسرطه
اصع
الاحباط
الاحراح
الاسبسلام
الامواح
البمرىص
البىبكوىن
الحاحر
الحارحه
الحىا
الدمح
الرا
السود
الصابون
الصورهندعوك
الفاراب
المرىىه
المناعى
بالمسبسفى
بالمفابل
بالىد
ببكوىن
بحصى
برنب
بصح
بعطىم
بكونى
بنفع
حالصه
حماهىرىه
ربا
سبونح
طى
فاىبر
لامن
لسو
للفصىه
لمنبحب
لىنىن
مدبولى
ملاعف
موحها
نطاراب
والراحه
والسحصىاب
والطلاب
والفنانىن
والموارد
وسب
وسعه
ولكنك
ىصعد
ىطول
ىنسا
##ببط
##بحدم
##بحىل
##بوسط
##حارى
##حواب
##رفا
##سابف
##سراف
##فباح
##لبىه
##نعه
##وكاله
##وكبب
##وىسىر
##ىكل
احو
ارببط
الاحبرافىه
الاورام
البولىسبر
الحمهورىىن
الحوالاب
الحىول
الدموى
السكوك
العصله
الفلبىن
الكافر
المبطاهرون
المبعارف
المدرسىن
المفبى
المنهاح
الوداد
الوصفاب
باحرى
باللىرر
بالمنبدى
بداوله
بصعف
بنعم
بىدى
حمىه
حىله
دىون
كباببه
كلوب
لانفسهم
لبصحىح
لحفص
للحوال
للسىاسه
للمدرسه
للوفاىه
مبحدد
مسبحصراب
معاون
نطمبها
نود
هموم
وابار
والنفسىه
وبعده
ىحرك
ىحس
ىفصلون
##ركى
##رنح
##صلح
##طاىراب
##طلاع
##نصر
##وافع
ابصلب
احبىارها
الاحماص
البالعىن
الباوىل
البحصىرىه
البطاهر
الحفى
الحفىبه
الداىر
الراىه
السىرفراب
العلىم
المبطرفىن
المرحوه
المعاصى
الوعد
اوفر
بالبرلمان
بامن
باون
ببعاون
بحسىد
برف
بعدا
بعلىفا
بفرف
بواحهه
بوبفلىفه
بوفب
حارفه
حراىرى
حفنه
دىارهم
راماب
سبح
عبىا
عطام
فدرابه
فرىفى
فلفه
فنابل
كرافب
لبسحىع
للمسبفبل
معحناب
مفرداب
منطفىه
موافىب
نصح
نفلبه
والطلم
والموافف
والوفب
وربه
وكندا
ىلبفب
##اطب
##بنع
##سعال
##صحىفه
##عبا
##كلا
##ماد
##نسب
##ىدان
اردنى
اصىل
الحادبىه
الصلىبىه
الطموح
الفار
المبرحمه
المحلص
المحنى
النفال
بابىره
بارص
بروب
بفدىره
حرارىه
حسىمه
حطىرا
حففبه
حلوى
حهوده
دلاىل
عفارى
علىم
فررنا
فلانا
كا
لامرىكا
للفلسطىنىىن
للمنافسه
لمنبدى
مروه
مساكن
مطالبىن
مولاه
هندىه
والحرن
وبدحل
وسحب
وسوون
وفبله
ولمن
وىطلف
ىراعى
ىمسك
ىوىد
##باره
##بده
##داك
##ربب
##رطه
##رنب
##عارى
##فىها
##لكم
##نطافه
##نفس
##وارنه
ابسع
احىب
اسبطاعوا
الابرى
الاسوا
الاصاله
البسبب
الدهنى
الكروابى
الكونىه
اللاسلكى
المانىه
المبصررىن
المسكىن
المفاطع
المفرراب
المنع
الوداع
امىنا
بادر
برامحها
بسهر
بصره
بلبفى
بنارل
ساحر
سرعب
سنفوم
سىحصل
صدىفا
عبدالحمىد
عرفها
عرىص
فوركس
كىك
لدىد
لرم
مصابا
ملحوطه
مله
منبهى
منحها
والدحول
والسكان
وبحد
ودحلب
وعملب
وفل
وىهدف
ىافا
ىفولوا
##حبك
##لبك
##ملا
##ملاحطه
##ننا
##ىبر
اطلاع
افنى
الاحرف
الاسورىه
الببرعاب
البطاطا
الدنب
الرافدىن
المرمع
المعاس
المناصىر
المنعفده
الناسطه
الهه
بالرصاص
ببعاب
بحدىا
بدلب
براها
بربىباب
بطوىرها
حبهاب
رىاسىه
سرحان
سىعمل
سىك
صحك
صعفا
عانا
عمدا
فوفها
للابداع
للاسبمباع
مبوافف
مراوله
مصىبه
معسر
منطفى
موكدىن
هابفىا
هار
واسالىب
والاصرار
والسعوب
والسكاوى
والصرب
والمفىمىن
والنفاس
وانبى
وبىنهم
وحهى
وفاف
وفىاده
وىمبل
ىبعرف
ىحصلون
ىس
##بوفى
##حاصر
##حمهورىه
##حىح
##درح
##دردسه
##رنامح
##صدار
##صنادىف
##طمع
##فعاب
##ىول
ابىها
اربداد
اسسب
اصرارا
اطعمه
الافعانىه
البرار
البفصىل
البوحد
البولى
الرارى
الراىرىن
الرحلىن
السهله
السوىدىه
السىوعىىن
الطبع
العدبه
الكولىسبرول
اللور
المحموع
المساىح
الوابساب
الورابىه
اىامه
بسط
بصىره
بمصى
بنموىه
رمرىاب
سىعود
طمره
عافل
عفلك
كمبل
لاهمىه
لدعوه
للدسبور
لموصوع
لموفعك
محكم
مفححه
مواطنىها
موطن
مىانمار
نحصل
نفدا
والابحاب
والعفل
والنهار
وبعدىل
وىدعو
ىبراحع
ىسى
##اعبها
##اون
##حهره
##رحرفه
##ساهده
##سبها
##صارع
##صامىم
##عبنا
##عراب
##فدمه
##كاد
ابدكر
ابىر
اسبعلب
اسبماره
الاسبرابىحىاب
الاصلاحىه
البابىراب
البوفل
الدماعىه
الدىاناب
العفاىد
الفدمىن
الكرملىن
المهبوله
انبفاد
بالاسم
باهطه
بحسم
برلمانىه
بطلا
بفسى
بفوب
بنطمه
بهدىب
حالس
حفوفها
حلطاب
دحان
سل
فبلا
فكانوا
فلاساب
فوابىر
فىن
كهده
كىلومبراب
لاعبو
لاعطا
لبب
لحو
لمساعدبك
لمسبحدمى
مبكرره
مراحعاب
معر
مفرراب
واربعه
واسما
واعلم
والبفه
وبنفس
ىلفب
##بعل
##بنطىف
##صاص
##طلون
##عرس
##فطاع
##كابى
##ناد
##وبحدب
##ولن
اباد
ابفوا
احبحار
احصان
الابفا
الابم
البسعىناب
البصحىه
الدارحه
الدل
السكنى
السىرامىك
الصاروحىه
الفافله
الفطاراب
المبواصله
المراهفىن
المسالك
المعادره
المعموره
المناصل
املك
انعم
اهلك
بالبفسىط
بطى
بلادها
بلحف
حراب
حىران
دفىفبىن
دوامه
رفعها
سبسبمر
سراىا
عبروا
عفلى
عماده
فبىبه
فىادى
كساراب
لدىكم
لعاىله
للاحوان
للبصدى
للفىاده
محص
محوهراب
مرونه
ممر
منعه
مىبا
نبطلع
واربفع
والحمىع
والفدس
والموطفىن
وبنبهى
وبوىبر
وسحصىاب
وعالم
وىنبهى
##اربها
##حفىفه
##حوى
##رصه
##رفص
##رما
##سمل
##صفر
##كمال
##نوى
##هفى
احبطاف
اسبفرب
اعرفه
الاحهاد
الاصافاب
البسىىر
البفحىراب
الحانبان
الدفى
الدىكوراب
السباعى
السواد
الفوح
المبنىه
المسانده
المنبحع
النون
الوحسىه
الوحهه
انعفد
بالنار
ببسعىل
ببسكل
ببعارص
بحبى
بدوىنه
بصلى
بطله
بنطوى
بوفاه
حالبى
حربها
حعرافىه
حلوس
حوىلىه
صلوا
صىنى
عابفهم
عحىنه
فصلى
لحدب
لسوف
لطرح
للببرول
للسمس
ملىسىاب
نهب
نوب
والاببعاد
والفرنسىه
وبد
وفرى
ومراحعه
ىسوف
##بطاهر
##بوفر
##رباح
##سحىن
##كفل
##منب
##وصىه
##ىدىه
##ىمىا
ارحب
الابدىه
الاسبحواد
الاسفف
الانعفاد
البرىطانىىن
الحلبى
الرواىح
الطالم
العناىىه
الفىبامىن
اللبه
المحلوع
المسبف
امسى
باحداب
بالححاره
بالدار
بفحص
بمنى
بواب
حمب
حوردان
دهابا
رباعى
رحىله
سبكىه
صاع
عود
فدمىه
لحكم
لروسىا
لكنك
للبرلمان
للسودان
للصدا
ماىا
مدبه
مساهماب
ملحه
مور
موصوعه
مولى
هىمنه
والبعلىمىه
والبوحىه
والحرص
والعباد
والعطا
والملح
ووصعب
وول
وىدحل
ىصور
ىعاد
ىمنىه
##بكار
##رده
##عبون
##علىك
##علىن
##عىل
##عىنه
##لحص
##وكب
##ىمن
ابرىه
اسبمرارىه
اعبصام
افببحب
الاعىان
الاكرم
البحنىد
البربىباب
البمار
البوباسىوم
الدرامىه
الدوسرى
السرطى
السنعال
الصالون
العحىن
العطله
الفاط
الفصاص
المالوف
المسماه
المكىفاب
المىدالىه
بالبعامل
بالصرب
بداوا
بداىبها
بنبا
بوسعه
حىوس
دواب
راسا
سهىه
سوران
صعىراب
صممب
طموحاب
عنفه
فوما
لىطهر
لىكم
مبساوىه
مبهم
مسابح
مسروب
معسكراب
مكانبها
ملىونى
مهاحر
نافل
ننسر
نوافد
هارى
همه
وا
والكل
وبفوىه
وحفىفه
وحمعىه
وروحها
وفاىد
ونرل
ىبمكنوا
ىفسم
ىندرح
##براف
##بصرف
##بعىراب
##بفرار
##طافاب
##طمب
##كراه
##كىاح
##نهاىه
##ورس
##ووس
ابداعاب
اسبرداد
الادلا
الافارب
الانحاب
البفارب
البفالىد
البكىف
البورد
الحلىله
الحماع
الحىم
السحلاب
السراىح
الفرب
الكومبىوبر
المبلب
المسىحىون
الوعا
امصى
انافه
انبانا
انبصارا
اىمانهم
بافلىم
بالفبل
بالوراره
بصبط
بصمىماب
بعلمب
بوان
حاكسون
حامعى
حعلنا
دىك
رعاه
ساملا
سبابىه
سىعى
صعر
طهورها
عاىر
عحىبه
عرر
عواىد
فطن
لاىفون
لفراه
للرفابه
مباحرا
نحاه
هوى
هىبه
والاهداف
والعكس
وبركه
وحدبنا
وحسر
وسروط
وممىره
ونفول
ىبصرف
ىبفبل
ىر
ىمد
ىن
##اىبها
##حفا
##حكمه
##ربباط
##ررا
##رفبه
##عاف
##فرار
##كافىه
##وصرح
اسعارها
اسماه
اطلعب
الاصنام
البحدىباب
البحصىل
الدافع
الدرفىه
الرهىب
السداد
العطل
الماركسىه
المحصر
الممباره
المنىه
المورحىن
الموصوعه
اهبمامه
اىحابا
باعبماد
بالحرح
بالمبل
بامان
بامور
بحرن
بحلص
بحوىله
بدله
برحب
برىطانى
بعلى
بفبفر
بلاط
بلوره
بىسر
بىها
حمار
صراعاب
فاع
فحمه
فهمه
كالعاده
كومىدى
لاسبمرار
لانبحاباب
للاحبلال
للبفكىر
مبروح
مبواصل
محبلفىن
مروى
مصطلحاب
ملكى
موطفا
مىونح
واعلى
والاماكن
والانحلىرىه
والباحبىن
والعافىه
والعملىه
وحدىب
وعسرون
ىاس
ىبحكم
ىسافر
ىفببح
##بداد
##براح
##بعلب
##دبىن
##دىم
##ردى
##سهدب
##عبرار
##عرر
##عسف
##فباب
##فورد
احاف
اعر
افبنا
الابىاب
الاسمر
الاكسده
الالفاب
الانس
البهدىه
البوبىف
الدفن
الدنمارك
الرفىعه
السراىىه
الصفراب
الفرنىن
المالىرىه
المسبنصرىه
المطابح
المفكرىن
المنصاب
الىسا
بالسلام
بالكسف
بحبصن
برب
بسلط
حبار
حدع
حعرافىا
حمالا
حىنه
روحبك
روىال
رىىسها
سىبدا
صلىب
طبرىا
عابد
لاىنمساهده
لفبه
للبىب
للساعر
مرىىه
مسوولىبه
ملاىكه
منحى
موبمراب
موعدا
همام
والعرف
واىه
وبصمن
وبفلىل
وفبك
وفحاه
وفك
ىدوىا
ىلعى
##حاىل
##حرىره
##حوان
##رببه
##سمح
##صفى
##صىام
##طاىر
##عبب
##عسر
##عنب
##فبك
##لاحفه
##مرىن
##هكدا
##وداب
##ونىن
##ىعنى
اسرنا
الادعىه
الافصاح
الاكرىلىك
البسعىنىاب
البهمه
الرام
الربادى
الصىدله
الكروى
المعروص
المنحفص
الناعم
الوابس
الوصفه
الىم
امسك
انبصر
بابو
بحعلها
بداىره
برىدك
بسانها
بسبكه
بعىسها
بكباب
بكىىفاب
بوحهب
حففها
حلولا
رمانه
سلع
صفاف
طارى
عاسف
عبداللطىف
عسواىى
فر
فىبنام
كو
لبمكىن
لحهود
لعوده
للمسببمرىن
للموطفىن
ماىده
مهبم
موسرا
موسسى
مىمون
نحوى
نسى
نعماب
والاداب
والاربفا
وبسحىل
وبطوىرها
ومسبفبل
ونفص
##حامى
##ححم
##درىه
##سول
##طاهره
##عاصى
##عدى
##فبىن
##ندب
##نسون
##وسسه
احوى
ادعىه
اسبهرب
اكواب
الاببسامه
الاحبراع
الاحبمالاب
الاعبىال
الاى
البدكىر
البمىنه
الحواد
الساىع
السرطانىه
الفوابىر
المسرع
المعابر
المهماب
النرهه
الهامس
الودىعه
انفطع
باسل
باللفب
بانحفاص
بححر
بداىل
بعلىمه
بفرح
حاطر
حكمها
حلده
رحىص
سمعون
طبىعبها
عادوا
عانب
عاىبه
عاىده
كفىله
لحسم
لعملاىها
للبفدم
للحهاب
للمنرل
مبراىد
مسلك
مصادفه
مطالبهم
معىسه
ملاحفه
مهندسىن
موهل
نبفدم
نراها
نسهد
هادىا
والفراراب
وبحاور
وصححه
وعربىه
ولاول
ومسبوى
##الرىىس
##انىىن
##اوا
##حصىر
##دروس
##رفىه
##رماب
##سكن
##صارب
##صباع
##طلاب
##فكره
##معنى
##مما
##منىن
##نفا
##وسهدب
##ىكون
ارىحا
الامبناع
الامداداب
البفرىف
الحفوفى
السرىانى
المبالعه
المعناطىسى
المفرداب
المفعد
اوردب
بالمحبمع
بحدىباب
بحطم
بحهىراب
بحىاب
بدم
بردى
بفبول
بمبله
بوادى
حاى
حلص
دبابه
دهبنا
سبابى
سرىان
صرورىا
طارىه
طوافم
عاىلبها
عحىب
فسىىا
فصوى
كانبا
كحم
لبارىح
للبكنولوحىا
لهحوم
مارف
مبلك
نحاحه
نعد
نكبه
وارسال
والحاكم
والعمال
والفبول
والمسلسلاب
وبنك
وحروح
وحودهم
وسهل
وطىفبه
ولانه
ومنبحاب
ىبروح
ىسبوحب
##بصمن
##بفرىر
##حاصره
##سانه
##طاس
##طبفه
##وبعببر
##وعبر
اعمده
الاسدى
الاعبصاب
البكفىر
الرىبف
الصحاح
الكبر
الكرد
المنبره
المنسود
النسره
الهرموناب
اىبان
بحباحها
بره
بسحص
بسلل
بسود
بعرب
حطىه
حلاوه
دان
رلرال
رىا
ساعدب
سببها
سبطل
طهوره
فابوس
لاحببار
لبصمىم
للافلام
للسىنما
لوط
محط
مدىرىاب
مروحىه
مكلفه
موىد
نفوسهم
واراد
واصدار
والدىكور
والرد
والكابب
وبالباكىد
وحمله
وسهد
وفول
ولىسوا
ىفىمون
##احون
##احىل
##براب
##بلاب
##ركاه
##رواد
##سفط
##سنا
##صحاب
##عطف
##فامه
##كراد
##واحهه
##وصىاب
##ولان
احرص
احسى
ارد
اردنىه
افصر
الابىوبىه
الرف
الرىه
السوفىابى
الفبطىه
الفصىحه
الكاهن
المحارر
المحاهد
المعر
النارى
الناطور
الهرب
بالطهران
بالمسوولىه
برعامه
برىن
بسبف
بطال
بلىر
بمنها
بوساىل
حىوط
سبصبح
سبطهر
صىحاب
عاىس
فرانسىسكو
فطراب
كارل
كرىىس
لهو
نبمكن
واعرب
والسراب
وبعلىم
ودفه
وصارب
وفنون
ولحنه
وىحدب
ىسدد
ىصادف
ىندر
##اببه
##بحول
##حفط
##عارصه
##فارب
##كرس
##كومه
##لمىن
##نفدم
##نور
##واس
##واكب
##وبس
اباح
احصار
ادوارد
اسبفاده
اسبفبلب
اصحب
اصىبوا
افلىمىا
الاسبحداماب
الافمسه
الامبعه
البامل
الببرىد
البعددىه
الحاسمه
الحسرىه
الحمود
العلف
الكعبى
المرففه
المندر
النبىىن
النفابى
النواىا
امحد
انبفالىه
اورسلىم
اىلولسببمبر
باحبرام
بالبىب
بالحىس
بالسلطه
بحبص
بفدىراب
حصورا
دموىه
ركعه
رىفى
صوبها
عابدىن
لبحرىن
لبركىا
لبفعىل
لده
لفطع
لفىام
للمومنىن
ماصىه
مبلعا
مبنفل
محبرمه
ممبلكاب
نرىف
هابفها
هولاند
والاعلامىه
والامه
والبافى
والدفع
والفرف
والفواعد
والنطر
وسرىعه
ولنا
ومحلاب
ىباحر
ىحملها
ىسفى
ىصطر
##حنب
##روص
##صعود
##عداب
##كسوف
##لحف
##هاحم
##هنى
##وارىه
##وامل
##ىسن
##ىوى
ابكلم
اسبد
اسوار
الانفلونرا
البسلىه
الرفابىه
العاملون
العامىه
العلو
الكهنه
اللباس
المحببر
المساوراب
النصاب
الىهما
انسبحرام
باسس
بالاداره
بالكلام
بربى
بطرد
بفاعه
بفىل
بكبل
بمنه
حرارى
دبلوماسى
راحب
راىهم
رحلىن
رىبسارد
صررا
عاحره
عحب
فرعىه
فنروىلا
فهولا
لاىوحد
مسبركا
مكالمه
ملحم
منرلا
موارىن
نرحب
نكاح
هروب
هسارون
والسعور
والمواطنىن
وامراه
وامنه
وانطر
وبدلا
وصفبه
وصولها
ىفوده
##ببى
##برىه
##ححر
##دماح
##راره
##راىا
##رط
##سبكه
##عروص
##عوده
##ناح
##نبفل
##ندو
ادومىم
اسبطع
اسبودىو
اطلفوا
اعىاد
افبربب
الاحلال
البنموى
الحالده
الرصىع
السفاراب
الصودىوم
الطرفىه
العوام
العىاده
الفاموس
الفلاحه
المبحرك
المحدب
الموردىن
النفاله
الهادىه
بالاىمان
ببعلىف
برابىه
برىب
بسبهر
بطبىفا
بوارىح
بىانه
حارى
حندىا
حوهره
دوربموند
دىرنى
راكب
رعباب
رىاربها
سرحا
صنعه
طوارى
عدوا
عطمى
عمىفا
ففها
لاسعار
لاهم
لمراحعه
لوح
مباحا
مدهل
معاك
مناهصه
نصا
نصىر
نطلب
والمهندس
وبابب
ىراففه
ىودون
##اطىه
##اود
##حمىه
##دعى
##رلى
##روفه
##صاروح
##صنف
##طعون
##فابله
##فررب
##وبدا
##وفو
##ونفل
##ىهاب
الاحلا
الارمن
الاكبساف
البدلىك
الدال
المحفوط
المطاهر
الملاحطه
المنفد
اماما
امامىه
امبلك
انصاف
بالسان
بالموب
بربكر
بسرع
بسمىبه
بسوون
بعمىف
بفندف
بوحهه
حاهدىن
حصومه
دورىاب
رفصا
رومانىا
سمكه
عارفه
فسىح
لبحاره
لفكره
للسعل
للعرص
لمكبب
مارىو
مبفدم
مسموح
ملاىم
نابحه
نبانىاهو
والاسود
والفلل
والفىاده
وبىنه
وحالىا
وسركاه
وكفاه
ونوع
وهن
ىطلبون
ىكدب
##اطع
##افب
##افها
##برر
##بنه
##بواصل
##حنس
##رىاره
##سارب
##طط
##عمال
##لوس
##مسكله
##موع
##نوه
##هدب
ابففب
ابهامه
احراه
ارصها
افساط
افلىه
الافبراص
البماس
الدلو
السبىن
الصامب
الصباب
الصوىى
العحب
العلام
الفدامى
الفىرىاىىه
الكركم
الكنارى
المربرفه
المرونه
المسبهدف
المصلى
المهحر
المودى
الوعود
اىلى
بحرببى
بداولها
برفف
بسكلب
حرىل
دونما
ساىع
سلاله
صحبها
صمىم
فادحه
فوحد
كىنىا
لبفرىر
لروىبرر
لسكان
للعار
للعىن
للمرىص
مادبه
مصىره
معاربه
نسطه
هىك
واحبر
وافر
والحهار
والفنادف
والمعاهد
والمنساب
والوساىل
وبعلىف
وصم
وعروص
وفور
وكببب
وكورىا
ونفوم
وىكفى
ىردد
ىسبطىعوا
##ابىن
##ارىن
##بادل
##ببح
##حالاب
##حدار
##حراف
##حماب
##دانى
##رابعا
##سارى
##ساعاب
##سحاب
##صادف
##طهم
##فالىم
##فولاب
##كبى
##نباح
##وانه
##ولعل
اصفر
اصلها
اطفالهم
اع
اكبفى
الاحبصاصاب
الاعبا
الاعمى
الببعىه
البسحىلاب
الصدور
العامدى
العى
الفىلسوف
المبواصع
المفبره
المكبوب
المنطفاب
المنفول
الوصاىه
بابه
بالانسان
ببرا
بسىطا
بعمله
بفاصىلها
بفصا
بفصىلىه
بهن
حامده
حدم
حورحىا
سامر
ساهدا
سمعبه
سىرى
عبادى
عبب
عحلاب
فدام
فكبب
فهرس
كابل
كبل
كحد
لطروف
لمرصى
محبصره
مطارده
معرف
مناره
مولفاب
نعمان
نفسا
والاسبفساراب
والسماح
والطلب
وبموىل
وسرعان
ىبصدر
##اطاب
##حطر
##عفى
##كامىرا
##كاىن
##نطمب
##وصا
##وىوكد
##ىمان
ابباعها
احسان
اداىه
اسبطلاعاب
اسكالها
اصافب
الاحصاىىه
الاحله
الارهار
الاسطورى
الاعصار
البرفىهى
البوحىهاب
الحسكه
الحفه
الدحال
السوفىه
العصا
الفلوحه
الفندفىه
الكابولىك
المحللىن
المدفوعاب
المعامراب
المعرصىن
المنوىه
الموحره
الواو
امكاناب
انحاره
بابفاف
بالاسلحه
بالفدر
بالمكان
بباعا
برسىد
بماده
بنهى
حصعب
حفنا
حلسب
حمه
حمى
حواحر
درىم
درىه
دفعها
رىو
سفافه
سىعفد
طفلها
فطرىه
فلسطىنىا
كافصل
كونع
لاربفاع
للبرامح
للبطبىف
للحارح
للدورى
للعملىه
لمره
ماىىه
مححباب
مرروف
مصدرها
معده
مفبولا
ملحف
نساهد
هوب
واسبانىا
والادا
والداحلىه
والدوا
والمسبفبل
ودار
ورنها
وروحه
وسعبه
وفصى
وىبوفع
وىسكل
ىسبرك
ىسحع
ىعنىه
ىونىوحرىران
##بفوم
##بىنا
##راده
##ركان
##سنواب
##صامن
##صطلح
##صىد
##لماب
##هدد
##ووفف
##ىبو
احبارها
ادارىا
اسلامىاب
اصحى
اعبرفب
اعرا
افىعدور
اكبرها
الالبراماب
الامارىعى
الاىفاع
البدل
البساطه
الحنان
الدرع
السالمىه
السكانى
الطارح
الفرىفان
الفىدرالىه
الكونحرس
الماركاب
المببالىه
المرعحه
المرعوب
المسافاب
المعنوى
المنافد
امبد
باعطا
باولو
ببرىد
بحلىه
بحملها
بحمىلها
برحله
بفسر
بفناه
بكبافه
بلفاىى
بمكنه
بملعب
بندرح
بنسحه
حصاد
حوفه
سراحه
سموحه
صاره
طافاب
عداه
عرفبها
عمىر
فدمنا
فسح
فسوه
فوار
كاببن
كىوماكس
لصرب
للبسوف
للحدمه
للفراه
لمعطم
مبعوب
معلنه
معىنا
منفول
مهامها
مهند
نطرىاب
نكهه
هاربس
هبلر
هول
وادكر
والبد
والبرمدى
والسفافىه
والصبر
والمركر
والمهنىه
وبحدىب
وحسىه
وحماعه
ودعوه
وصالح
وعصوىه
ولىن
ىصحك
ىعبرم
ىوحب
##بحصىر
##بحى
##بفاد
##بىف
##ررف
##سوره
##كسبان
##نهح
##وابف
##وسكو
##وىدكر
احبفل
ادهان
اسبسعار
اسبعماله
اصا
الالفىه
الامال
البحركاب
البوبراب
البوحهاب
البىهفى
الحادم
الحاطى
الرىسه
السبعىنىاب
السعىر
الصوفى
العلبه
الكافرىن
المطربه
المناره
الموالى
الىدوى
امبنا
امبه
اىدىنا
بالمرص
ببونس
بلاه
حداول
حدىبى
حصرها
حلسبه
ررفه
فرروا
للبد
للحف
للمدارس
للمعلم
لوفا
مارسادار
مبابعى
مبحصصون
محدال
مرسد
مسارها
مسند
نحاحها
ندحل
نوباب
هصبه
وافكار
والبالبه
والرساىل
والطروف
والفصل
والنصارى
وىحرح
ىصرف
##ادله
##اصىه
##الها
##بوفع
##ركبه
##روباب
##عادر
##مانى
##مسلسلاب
##وحبم
اربكبها
اكده
الاساطىر
الاصلىىن
البدحلاب
الحصراواب
الحنفىه
الدباباب
العحىنه
الفىدرالى
المحلصىن
المرروفى
المعحره
امد
باركا
بالموسسه
ببنوع
بحرىرها
بحلم
بطاهراب
بفرىره
بوفرب
حصلوا
دراسى
دولاراب
راحعون
روبىن
سرسه
سرطى
سرىكه
سىمن
صبىحه
عملاب
كبدىل
كدوله
كفه
كلمابه
لروحبه
للابفاف
للبامىن
للروار
لموبمر
لهدف
مبابع
مروع
مسلحى
مصحوبه
مطرف
معصىه
منسىه
ناسىونال
نانومبر
ننصح
والادارى
والالوان
والحلول
والرابع
والرواح
والمحلىه
واىطالىا
وسارع
ومحبه
ىحفر
##اعده
##اوله
##بوفف
##حصىل
##حىس
##صدىر
##عاناه
##عفره
##علما
##ففب
##مصر
##نامى
##نفار
##نفاف
##وسحل
احبره
احوبى
الالبهاباب
البسعىلىه
الحاماب
الحسون
الحلا
الصماناب
الصىادىن
الفاسدىن
الفنىطره
المباحباب
المربى
المهر
المواعىد
اهمىبه
باحرااب
بالروح
باله
ببحسىن
ببفه
بحرىبىه
براعى
بربه
بركان
برىدون
بسورىا
بعافد
بوما
حلمب
حنوبا
دىنارا
سبسهد
سحار
سلل
سىسبمر
صاحبى
صوبىاب
عندىد
فحرا
فسط
فعلوا
فوالله
كانما
لاصدار
لاكبساف
لبفوم
لسورىا
للبطوىر
للبو
مادام
مدبها
معدن
والمواطن
والهندسه
وفبنا
ونفدم
ىدحلون
ىعى
ىونىون
##احط
##ادره
##اواب
##اوصح
##اىص
##اىط
##حرىن
##حلىن
##سبم
##صرار
##طفل
##كبمل
##كنولوحىا
##محموعه
##نفص
ارواحهم
اسبعداداب
اصطرب
اعبباره
الاحبحاحىه
الارانب
الاسعاع
الافبراح
الاموى
البدن
البرحىح
البنفسى
الحافلاب
الحىاطه
الحىام
الرس
الساحاب
الصم
الصىع
الفسبان
المعىره
النبا
الهابفىه
الوحهاب
اىمانه
براون
برفى
بكلام
بمفبل
حبك
حبىببى
حرحى
حولهم
درىعه
رىان
سبهاب
سحاف
سىرحىو
عفاب
عمومىه
فاصبحب
فالنسىا
فصرب
كارىكابىر
لاىفاف
لفحص
لفصىه
للاسراف
للسلطاب
لواىح
لىكونوا
مبروحه
مبهمىن
محبمعابنا
محول
معانا
مفاصل
هابفه
وارحو
والافراد
والبعلم
والبفاعل
والطعام
والعروص
والفرح
والكلام
وبسبطىع
ىعصب
##ببدا
##برىا
##سلط
##سهل
##صىص
##عبهم
##كاوى
##مدىر
##نبىحه
##وبك
##ولدلك
##ىداب
##ىرانىه
##ىكان
اسبفدام
اعدادها
الاححام
الباسىسىه
البافىه
الببه
البعدى
البن
البىبانىوم
الحانه
الحبامىه
السعله
الصافىه
العحمى
الكافىىن
المحكوم
المسركون
المصاداب
الممبد
الممر
الناطر
اىارماىو
بالحرىه
بالسىاسه
بحدىده
بعدهم
بعرفها
بفودها
بلحىص
بنحر
بورىعها
بوطىن
حدبه
حربب
حنسى
رسدى
رهط
صعىفا
علو
كاببه
كاول
لب
لباكىد
لبفلىل
للفن
محاكاه
مصرعه
مطلوبه
والاحبماع
والحبراب
والحسىن
والدعا
والسركه
واللحنه
وبرسىح
وبنرىلاب
ودرحه
وسباب
وسعبا
وفصا
وفوانىن
ىببعها
ىعرفوا
##احىن
##ادها
##ببال
##بسف
##حدماب
##دوره
##سلطان
##صمان
##صندوف
##فوع
##لاه
##وردا
احبحاح
اروفه
اعمالا
البساور
البكىىف
البلوح
الحاصلىن
الحدوى
الحرعه
الحمره
الدا
الرمصانى
الفحد
اللىلىه
الماس
المدحنىن
المراهناب
المصاد
المعحراب
المفدى
المكافاه
الندواب
النمودحىه
الهواىاب
الوهم
الىاسمىن
اهدى
بالامان
بالنسا
بصادم
بعسل
بعنف
حوره
سلوكه
صافىه
عىاس
فاموس
فسادا
فوح
كوالىس
لاحىه
لبولىد
للابحاب
للبحكم
للبدحل
للعملىاب
للفرار
للموارد
مبعلف
مرفف
مسبوىابه
معرصه
منافس
مهماب
هدنه
هربا
هساسه
واعطى
وافعى
والبنطىم
والهىىه
والوفاىه
وبدور
وبمساركه
وحدد
وصعبها
وفىام
وفىم
ومفارنه
وىطلب
ىبسال
ىعدو
##اعم
##افادب
##بسى
##بناول
##حالد
##حوره
##دعو
##رامه
##رسول
##سركاب
##سهىل
##سىىن
##طابع
##عبصاب
##لحنه
##ىمنه
احبرافى
احدر
اربباطا
اكىاس
الاساعاب
الامبرىالىه
الاىداع
البهدىب
الحلى
الحمى
الحىص
السبسى
الصالحاب
الطاعىه
الطوابع
العابره
العنرى
الكفىله
اللبنانىهالكابب
المحمدىه
المدافعىن
المدفعىه
المطلوم
الناصرى
انرال
بالمراه
باىلاند
ببحسن
بدعىم
بفاس
بمرد
بمسىىه
بمورىولىو
بوفعب
حاوىه
حرحس
دوربها
رابعا
رو
سبفدم
سفطوا
سىحرى
عادىا
عبىمىن
عناصرها
عنبر
فاىص
فبحها
فرصها
فولنحىل
للبعص
ماصى
محنون
مربط
مسبنداب
منسفه
نعببر
هحر
واحرها
والاسعار
والمدىر
والنبىحه
وعرصها
وفصص
ىسبحب
ىطلفون
##ببدال
##ببع
##بحر
##بدىن
##حامل
##حرس
##رهر
##سهدا
##طاله
##طوماب
##عىاد
##كركم
##لاىب
##لسان
##لطه
##لندى
##ماله
##نانى
##واحىه
##واعد
ابىاب
ادبى
اسىوىه
الامبىار
الامرىن
الامواب
البالف
البحور
الحراىد
الصحره
الصفدى
العارصه
العساف
الكبف
اللوحى
المباح
المسحعىن
المنبحىن
المىم
باسفاط
بالنحاح
بالوصول
بحركب
بصرح
بلح
بلمى
بمكنك
حرىصه
حسمها
حونر
حىبسون
دهنىه
راعب
سومرون
صحىا
صرحه
صواحى
صىدلىه
عابه
عراىب
عصاه
عنوانه
فارسل
فدف
لبلاب
لبورىع
لكسر
للدعوه
للمببدىىن
للنوم
لمساركه
ماهىه
مرسحىن
مسبعدا
موصوعى
ندهب
نو
نوعىن
هداف
هر
والبعدىب
والبعىىر
والعىس
والمبادى
وححر
وحدك
ودفن
وصعبه
ىرصد
ىعطىه
##بمبع
##داس
##دسه
##رعاب
##سرع
##سلل
##صاعد
##صطهاد
##كرون
##هامه
##هرا
ابحدبها
ابلعب
ابهمب
احراحها
ادارمارس
اساعه
اصوا
اعربب
افدمب
الابنان
الاكبار
الباىىد
البصدىف
البولىسارىو
السفاف
السىرفر
العامرى
العحله
الفنىىن
الكامنه
اللا
الماحد
المعاهده
المفهى
المنهحىه
النبىله
النرلا
النصفى
امانى
بالححر
بامره
بباسىس
بحصصاب
بدع
بسرىحه
بسىىد
بعرىب
بفىام
بلامىده
بمطار
بمفرده
بنطمها
حمالها
دهبى
سارى
صناعاب
طلمه
عفىفى
فدرابهم
فسىكون
فصارى
ففىر
فوكس
فىكبور
كافر
كبىف
لفوه
للحفوف
للسكن
للكره
للمهرحان
لمسبفبل
مرحع
مسكن
موباىلاب
نبانىا
نفكر
والاحد
والاعلامى
والبارىحىه
والبوبر
والحهاد
والسر
والصوب
والمعنى
والوصع
واولىا
وباره
وببنى
وبنسىف
وفعوا
ومحافطه
وملفاب
ونرى
وىسبطىع
ىولىوبمور
##بسه
##دول
##عارف
##فرىه
##كسن
##كىفىه
##مرحبا
##واها
##وفام
##وماكس
##ىمىن
ابد
احبكار
اطلافه
الانبرنىب
البدوىن
البسكىك
الحوفىه
السادلى
السناوى
المفرط
المكبفه
المكسىكى
انواعه
بارى
بدول
بصطر
بعىره
بفصح
بمرحله
بواحدها
بوبنهام
حبىره
ححما
حرحا
دوافع
ربوع
رحعب
سكب
صبع
صلح
طلبوا
عراف
عمرك
عىنىها
فحوصاب
فسره
فمند
فىبم
كافى
لببدا
للحرىه
للعناىه
للمفاولاب
للمكان
للموصوع
لمسكله
مافىا
ماك
معبفل
معهما
مندر
مهدده
مهنى
موبوفه
نبعامل
واحسن
والبابعىن
والبطبىفاب
والحرحى
وبحبلف
وبصوره
وبعب
وبعبمد
وبودى
وحبرا
وحرم
ورسم
وصولهم
ومرىحه
وهران
وىدعون
##اسر
##بطاع
##حاطب
##حدمه
##رىرى
##سىو
##صدافىه
##طارف
##طاىفه
##عبنى
##موفراطىه
##هانا
##هلك
##ىدىا
احسب
ادربىحان
ارباحا
الابىر
الاسعاراب
البدىع
البهرىب
الحرفىه
الروعه
السنداب
الصىدلىاب
الطرد
الفنصل
الفىلا
المهاحر
الوباىفىه
بالسىف
بالطابف
برمبها
بفسل
بلوحر
بنفىدى
بهدم
بوحب
حرنا
حرىبه
حنح
داىرىه
رود
طفوس
عصبىه
علاحها
فصاها
فها
فىادبه
لاسبحدامها
لاسفاط
لالعاب
لاولىك
لسرح
للفوانىن
للنحاح
للهحوم
للوحده
محاهدو
محرمه
مرحصه
معبرا
ملكوب
نسونحى
نطامه
والاسحاص
والبحار
والحروب
والصناعاب
والطاعه
والوباىف
وانعدام
وبسوىه
وبصع
وبوفف
ودهبب
ورحب
وسورىه
ىبب
##اهو
##بلفى
##رباب
##عمد
##مراب
##هنه
##واساد
##ىابهم
ابحهب
احباحب
احىره
اداىها
ادحلب
اسبحمام
اعبدااب
البببىب
البطوع
الحاصله
الحطره
الحماس
الحمركى
الصوف
الطبرانى
العردفه
الفارعه
الفروف
الفنبله
المبعلمىن
المرسحه
انفلونرا
اومن
بافر
بالمناطف
بالوفوف
بالىه
بحمسه
بدابها
برىىن
بفوره
بنصف
بىاب
بىبنا
حداب
حصارىه
حصع
ربده
رواىع
روبانا
رىالا
سوارىر
صفوفه
صورها
فاص
فانرل
فصح
فنانىن
كوىبىه
لافباب
لحن
للبصمىم
للحطه
للرراعه
لمحه
محببه
مومنا
هبطب
هىونداى
والامانه
والبسحىل
والحل
والرعبه
والفكرىه
والفنان
والمحاسبه
والمحافطاب
والهحره
وفىاداب
ولعاىه
ومكبب
ونباىح
ونحوه
ىافوب
ىبماسى
ىسبحىب
ىففون
ىفى
ىكبمل
##باط
##بعاطى
##بفلىل
##بىراد
##حادب
##حموعه
##ساور
##صراف
##صعط
##عانه
##عصو
##فبنىاب
##نسحه
##هىل
##وبالنسبه
##وننا
##ىفدم
##ىوب
احا
اعبدار
افكارهم
البرامها
البسفىر
البمانىنىاب
الحاسر
الحاصره
الحدىه
الحنا
الحواص
الدلاىل
الرحصه
الرحمان
الررار
السبىنىاب
العدوانىه
الفبوح
الفرر
الفصحى
المدىره
المفرطه
الملبوىه
الممنوحه
الواحه
امبدادا
باحهره
باىدى
بحارىا
بعرىداب
بفىىد
بمعهد
بنام
بونسى
بوىد
بىبكوىن
بىرو
حدمابه
حفىفبه
دهنى
راسحه
رهور
سرحى
سعبىا
سىطان
طراىف
طلبك
عدوى
علافابه
فوفه
كنوع
لسعل
للبنا
للمواصفاب
مالم
معبرف
نحلا
نسبب
نفدر
واطفال
والاحىا
والاسواف
والبالع
والبحارى
والبنك
والحدود
والكمبىوبر
والملابس
والنفد
والنىل
وبسوىف
وحدبها
وحعلب
ودو
وصعنا
ومفاومه
ىرحم
ىسببعد
##اسىم
##اكن
##الحدىر
##اىس
##باراه
##حماع
##رىاده
##سىله
##صىح
##صىوف
##طوره
##عومه
ارببطب
اعساب
افلا
الاحبفالىه
الاعبدال
البدىن
البعراب
البعوىصاب
البلال
البهحه
الحرمان
الداعم
الرمله
السماع
الصب
الصفاه
العسواىى
العطار
العطمه
المحمل
المرببط
المعفور
المناطره
المنحه
الموحاب
النافل
الىورانىوم
انعكس
انهن
بالانصمام
بالبفا
بالبواصل
بالكباب
بامكانىه
بحدىدها
بحطواب
بحطىم
بدكرب
بدوف
بصمىمها
بعبد
بعبرص
بعوىصاب
بكىفىه
بلعارىا
بندفىه
حاهده
حبها
حطاباب
حملبها
حموع
رعببها
رهىبه
طرىفهم
عاىلى
فابلىه
فاعد
فطرى
فوحى
كارب
كرىسبىان
للمنبحاب
للوصع
لمسافه
لمنصب
لىفول
مبلهم
مساعى
موكىب
نروح
هندسىه
والاحانب
والامهاب
والبلفرىون
والدور
والساعر
واللعب
والمسوولىن
وبنسبه
وبىف
وسمو
وعرفب
ومس
وهامه
وىسارك
ىمب
ىملكها
ىهمه
##ححب
##صانع
##صوص
##صىا
##طبىف
##عرىب
##عرىه
##فاص
##فاوصاب
##كال
##كسل
##كىل
##لدىه
##مرون
##هالى
##وانىه
##وطا
##ىلم
##ىىب
ارسلها
اسببناىى
اعبماده
الاحاباب
البحارنه
البسطا
الدحىل
الدرح
الدف
الدىك
الرهرانى
السراىع
الففص
الكنور
اللصوص
المحراب
المدربه
المردوح
المسبفه
المعصىه
المنفده
الموصوعى
انفا
باببا
بالدفاع
ببف
بحبرف
بحطوه
برعى
بعصب
بمكببه
بمنا
بمواحهه
بورى
بورىه
حدو
حراىرىه
حركبه
حولب
دلب
سنها
صوربها
صوفىا
صوم
عساىر
عىاداب
فسرا
فلبىه
فىو
كاى
كنعان
لامراص
لبعوىص
لبوسىع
لسىاسه
لطبىعه
لعلكم
لكلمه
للاردن
للبعرىف
للحلف
مبسبىه
مسفه
معافبه
مومنه
ناد
نبعلم
نسببها
واهداف
وبحوىلها
وحط
ودا
وىدعم
وىعىس
ىدا
ىكفر
##احم
##افىا
##بارىاب
##بمبل
##دفاع
##روعه
##سباحه
##سباىن
##عصلاب
##كبم
##كص
##لبفا
##ندس
##وربها
ابداعىه
ابفان
اسبولى
الابلاع
الباحى
البحاوراب
الحا
الحرحه
الحمىه
الرواىا
الطاهرى
العحاىب
العمران
العىط
الكامىرون
الكس
اللامع
اللمساب
اللوحسبىه
المركره
المساكن
المسبفىد
المعلى
المنال
النسور
الوحوس
امارابى
اوعندا
بالارهاب
بالعنف
بحبك
بداعى
بسبرك
بسدىده
بسرفه
بصاب
بوفره
بونى
بىانها
دوابسه
راصى
رسولا
سعورا
سموح
سودانىر
صام
طفره
عاىدا
عرىفاب
كىا
لاندرى
للمال
للمناطف
لىنه
مراح
مفابلىن
هواىىه
وابف
والاربعىن
والبصدى
والحىواناب
والربىر
والطرىف
والفاهره
والكفاه
واللوا
والمنبدىاب
والىك
وانفاد
واهلها
وبا
وبحاول
وبسعر
وبعىىن
وراس
ورىاره
وسبعىن
وسفط
وعمرو
وىحدد
وىكىبىدىا
ىفرح
ىلبس
##ببمار
##بحىه
##دبا
##ربون
##سبىا
##سكب
##سىره
##صمام
##طىاب
##وود
ارادبه
ارر
اسباىل
الاحبىاط
الاعطال
البىولوحىه
الرلرال
الرواىىه
السمكه
الطهى
الطوسى
الفلاحىه
الفمار
اللعنه
المارونىه
المحدره
المحففه
المرسل
المهمله
الموسسىه
الوحس
باحبار
ببطلع
ببعرىر
بحرىف
بدرحاب
بصحم
بلرم
بنصب
بوبا
بىرا
حنوبىه
درسا
سارىه
سببم
سلب
سهىب
عبدك
عموص
فربه
فلفا
كناىس
للامر
للفلب
مبكرر
مربب
مربفعا
نبدكر
ندى
واسلوب
والمواصىع
ودولىه
وسار
وسطا
وصفا
ىرن
ىرول
ىعودوا
ىمىنا
##البربىب
##بحصص
##حادىب
##دراك
##سابه
##ساىر
##سحص
##عحر
##فراد
##فىده
##نحب
##وردى
##ورف
##وفدم
##ىبىه
اسبحاب
اسهمب
الاسبرلىنى
الاسبعمارى
الاكادىب
الحالىاب
الحبىل
الحعفرى
الحلط
الحوهره
الحىط
الرحاحىه
الطبف
العوالى
العىنه
الفط
الكبابىه
الكبرونىاب
المالكىه
المبدربىن
المبصل
المحرده
الموح
المورد
المىل
الهدم
الوفاىىه
اموالا
اوروبى
بالانبحاباب
بالدكرى
بالفلف
بالولاىه
ببمنى
بحطه
بحلط
بعرفب
بفرصه
بنساط
حصارى
حلفهم
حهر
حىلا
دباباب
دىالى
سرطا
سلالاب
سىلفا
صفىه
صمود
عطل
عندكم
فالامر
فلاح
لروحها
لمسبسفى
محففه
مدح
مفصود
مكلف
ملىسىا
موطفىها
مىفاب
مىلاده
نسو
نومه
هولىوود
وابنى
والاردهار
والسلطاب
والسىاساب
والموبمراب
والولاده
وسلام
وصنع
وورد
ىببنى
ىسمىه
##اسىس
##بام
##بىح
##حاولاب
##دراىىه
##روابط
##ساع
##سلف
##صرىن
##طاط
##طلفب
##طىس
##فالاب
##ماه
##موس
##نسل
##نىل
##وبداب
##ولفبب
##ىسر
ارالبها
اسوف
اعببرها
الاحىرهمببب
الاربودكس
البال
البدوى
البروىر
البلف
البىصاوى
الحالد
الحصره
الحىاد
الدبلوم
الرارف
الرفاهىه
السبكى
السعدى
الصاعده
العناىى
العنكبوبىه
العنىفه
الفرصاوى
الفسام
الكباباب
المبنفله
المحمىه
المرعوم
المنعفد
الناىبه
الوباىفى
الوففه
انبراع
اهبماماب
اىما
بارىحنا
بالنىابه
ببحنب
بحرببها
برحمبك
بروىره
بسلسل
بلاحط
بنفىدىه
بون
حدها
حدىبها
حصورها
دسبورى
دورهم
دولا
رمصانىه
سىاسبها
سىلاب
صدفى
طاهرا
عاىفا
عبدالعنى
عسبه
عصن
عوالم
عودبهم
فادرون
فره
كافبىرىا
لامه
لبولى
لحرىه
للصحافىىن
للفبال
لىعود
مسابه
مسبودع
مسوولىبها
معادن
ملموس
موهله
نافله
نبرك
واعلاف
والباكىد
والحرف
والسحن
واولاده
وبمحرد
ورعبه
وسكر
وصرح
وصوحا
وعلومه
وفعالىاب
وكلنا
ومدن
ونفد
ىبرحم
ىبىم
ىسعدنا
##ااا
##ادف
##اصره
##اعب
##بحاناب
##بنكر
##حانب
##حداب
##حنون
##ساده
##صحم
##صمون
##طفاب
##عمى
##فاهىم
##لوحى
##ناصر
##هوله
##وابهم
##واىد
اراى
اسبحداما
الارسال
الاسلاك
البلاك
البمدىد
الحبرىه
الحبهاب
الحكىمه
الدبلوماب
الدوافع
الدىرل
الرصىد
الصوابط
العارمه
اللاب
المبورطىن
المحباره
المففودىن
الممابله
الود
الىبىم
انبفا
اورده
بالمواد
بالوافع
ببحصىص
بحكومه
بطىىه
بفسىط
بفىاس
بمرىن
بمفبصى
بمواصفاب
بوعوىه
حوارا
دهس
رساد
رفى
رىنو
سنبه
سىفام
فرااب
فسنطىنه
فكرىا
لارسال
للبعدىل
محاطبه
مطالباب
موباىلى
ناىمه
نحا
نعبر
نفدبها
هبط
وابر
واسكال
وافرب
والعملىاب
والمراحعه
والمنطف
وبحوده
وبفاصىل
وحرر
وسىاسىا
وكبر
وكمان
وم
ونطم
وىاحد
وىرفع
ىعحر
##ارمه
##افلام
##بفاله
##حطاط
##حهر
##رىنا
##سنى
##صراع
##عفار
##علبه
##عوىص
##فاطعه
##فىبه
##لاىه
##نوىه
##واط
##ىحار
احببم
احبىاحابك
احىان
اسلامه
اكرىلىك
الاحبكاك
الالبفاف
البونسىىن
الحسىس
الدمسفى
الدىنار
الصبعه
الطهىر
العاىدىن
الفاحر
الفاىره
الكادبه
اللولو
المحالف
المدهله
المردوحه
المعبد
المفروساب
الملحه
الموسمىه
امرىن
اوله
باررا
باسىسه
بافبباح
بالحد
بالسرطان
بالوحده
ببرعاب
ببعصها
ببوىح
بعىف
بلوىن
بمراكس
حونسون
حىوب
دفعاب
دكرا
رفىه
صلاله
عبدالسلام
عفارىه
عىابه
فرفا
فلانه
كاب
كسى
لعناصر
للفكر
مباسرمساهده
مبطرفه
مرابب
مرصه
مسبهل
مسبوىابها
ملبرمه
مواطنون
نباىحه
نسحبه
واعد
والحر
والسعرا
والمراد
والمسبسفىاب
والمعلمىن
والهوابف
وبر
ودحول
وسمع
وسىد
وىعبمد
ىحاطب
ىركب
ىسبحدمه
##اطس
##بسهد
##حبلف
##ررى
##رىو
##سنان
##صعا
##طافم
##فىبس
##كارى
##كع
##لفاب
##نفود
##وببه
##وكه
احبىاطى
الاصعده
الاوهام
البحصىراب
البدهور
البفىد
البولىفاب
الدعاوى
الراهب
السبىناب
السلعه
العافل
الفدرالى
المفدره
الهدىه
بالداحل
بالصبر
ببحرىر
بحفهم
بمكبب
بنارلاب
حافا
حدرىه
حعلنى
حىاره
رصاصه
سىرار
سىفه
صك
علط
عملىابها
فاىلىن
فنصلىه
فه
فىفال
كفى
كىر
لانحاح
لبرامح
لعلم
مامور
محابراب
مناحى
مىبه
مىنى
نحاحاب
وافوى
والحامعه
واللاحىىن
والمواصلاب
وحبره
وعود
وكلاهما
ومعهم
وممبل
وهبه
ووصعه
ىفسد
##بعاب
##دوه
##دىو
##رىص
##ساك
##سودان
##صطراب
##طافر
##طفال
##عافب
##علبىه
##كانى
##كسه
##مببب
##نىو
##هدر
##واىم
##ورىد
ابنك
اسبعلالها
اعده
اعرص
الاحران
الاصطهاد
الاعبفالاب
الاعفا
البحالىل
البدرىحى
البعرىب
البمور
السكربىر
الصاد
الطىبىن
العابر
العاملاب
الفابوره
الفاه
الكادر
الكرس
المفاربه
انببه
اىبها
اىصاح
بابرب
بالحهار
بالمدارس
بسابه
بسحىر
بصمان
بنبى
بنعكس
داع
رواحه
رورا
سبىف
صربا
صىىله
عاسوا
عصوه
فىر
كاهل
كرر
كوردسبان
لبصع
للاكسده
للفوى
للىمن
مبالىا
مربفعاب
مرفس
مساحبه
مسبوطنه
معاه
مكانبه
منفردا
مىك
نافص
نووى
هدىل
واطهرب
والاحادىب
والاراصى
والارماب
والاسبعداد
والباهىل
والبعب
والحركاب
والسروط
وباسعار
وبحعل
وبطل
وبفارىر
وبفسىر
وحدر
وحمىله
وعمره
وكره
وىروى
ىحارب
ىنفطع
ىومىاب
##بربىب
##بعود
##بمه
##بوابه
##رمر
##صمب
##صىاعه
##عمده
##فدار
##كفر
##كىس
##لوه
##لىوم
##مودح
##نحح
##وساىل
##وصىل
ابدب
احرحب
اسبعال
اطروحه
الاسبدلال
الاصناف
الاىبمانىه
الباح
البكر
البكفىرىه
الحابرىه
الحبان
الدرب
الدهسه
السفره
السىسبانى
الصلاح
الفدىسىن
الكاف
الكف
المبسابهه
المسبند
المسبوىىن
المعرول
المفروم
الملامح
المناهصه
الناحم
امنب
امواح
اىهما
اىوا
بالحكومه
ببابا
ببعرف
برببه
بروحها
بكونها
بمدى
بىرىرا
حابمه
حاربه
ححاره
حمهوره
دمى
سبحانك
سواله
سوبسى
سودان
عنوه
عىبوبه
عىرنا
فادب
فحم
فرساه
لارال
لبصنىع
لسه
للاسهم
للافامه
للالبحاف
للعاىلاب
للعمىل
للكبابه
محلها
مدروسه
مراره
مرصد
مسطح
مفدماب
مفهومه
ناصحه
واسباب
والاحلاص
والاكسسواراب
والانبفال
والبحلىل
والحصاره
والسلوك
وبببع
وبطبىفاب
وحطه
وربط
ورصد
وسىداب
ومارال
وىوسف
وىوصح
ىطرا
ىفبرح
ىهاحم
##ابار
##اربىن
##اسف
##ساعده
##كلفه
##كولا
##لنى
##لوماسىه
##وفار
##وهل
##ىصه
احببام
ارصهم
اسسها
الاحفان
البحرىب
الحراه
الرعبر
السبعىن
السكون
السماب
الصحوه
الطور
الفراوله
الكروم
الكرىهه
اللفطه
الماسنحر
المبن
المحرى
المسبرىاب
المعطى
المهحرىن
الموسسى
الهنود
الىفطه
باربع
باكىدا
بالحاىره
ببى
بحولاب
بعىىرا
بفرىب
بلدىاب
بولب
حالسا
حاماب
رفصهم
صوبك
عالمه
عرناطه
عنوانها
فلاى
فهمب
لاسك
لبحربه
لس
لعبها
للانبفال
للبنطىف
لنفسى
محباح
محدرا
مدربا
مدفوع
معاىره
معد
معرى
مفرره
مكرم
مكن
نابى
هادا
واحىا
واسهر
والادبىه
والاسبفلال
والسلم
والعىن
والفصص
والفمر
واىاكم
وببكون
وحار
وحىه
وسكه
وصعوا
وطالبب
وكانهم
وممكن
ىببعون
ىحرف
ىسع
ىكبف
##احره
##بدعا
##حامه
##حصاره
##حموع
##دوار
##رساىل
##رفام
##رفب
##سباع
##سبور
##سعور
##طىران
##فران
##فهى
##لحىن
##ىعا
##ىوىه
ابنىه
ارسفبه
اعببارها
الاسعافاب
الاوساح
البحالفاب
البداىل
البدرانى
البصحىاب
البفطب
البنس
البنكىه
الراسدىن
الصاحىه
العنىف
العواىف
الفدف
الكبان
المبرو
المطىرى
المفبلىن
المنبدب
المىبه
المىوىه
الوهمىه
امانا
انبفاله
باسىراب
بالحوف
بحلل
برون
بهبر
حاسوب
حصروا
حهارا
حهودهم
حوسب
حىحاباىب
دمر
دهبوا
سامسونع
سبىفان
سهدبه
سىنماىى
طبىبه
عبدالرحىم
عبدى
عنوانا
فهنا
كفوله
كفىل
لكبار
للصلىب
للمصرىىن
للنمو
لنحاح
محىد
مسافر
مص
ملحا
موففىن
نحبار
نطمها
هىلارى
وارىد
والبفوى
والحلف
والرىاح
والفول
وعسىل
ومارالب
وورس
وىفبل
ىبطرف
ىرام
ىسبعرص
ىلعبون
ىمبله
##احده
##ارون
##حانس
##صىعه
##طحن
##طىره
##عرىر
##علفب
##عمىد
##عنوان
##عىنا
##لحا
##نبس
##وارص
احباروا
ارحاع
اصىله
افارب
الاسناد
الالبوم
الاىدىولوحىه
البسلل
البلحىكىه
الدسم
السكوب
الصعفا
العروسه
العلنى
الفاىمون
المدمحه
المدوناب
المعاساب
الملىاراب
المهبل
النسىد
النسىم
الهوس
بالاعلان
بالرواح
باللعب
باىام
بحاصه
براوح
بسلوى
بناا
حالب
دحاح
دىال
ساكن
ساىلا
سنوده
سىطل
طالبوا
طفىف
طواهر
عساكر
فوابها
لاعبه
لسعب
لفلسطىن
للبراب
للبفا
للحل
للطب
للمسبسفى
محبمعىه
محفطه
معلمىن
منطفبى
مودىعىن
هب
هره
والبفى
والحدمه
والفلب
والفنى
والمفعلىن
وانسطه
وببرك
وبوحىد
وحدىد
وحلفاىها
ورساىل
ورعب
وساطه
وسعىد
وعبدالله
وعبمان
ومصادره
ومفاطع
ومهاراب
وىلر
ىبحدد
ىحبرف
ىحبها
ىهمنا
##الحفىفه
##امها
##انف
##اىصا
##باحه
##بدع
##بفوف
##حمعىه
##صدع
##طبىب
##طرى
##عفدب
##كبىن
##لسلام
##نطمه
##همب
##وطف
احداها
احطارا
الارمنه
الانصاف
البسدىد
البعباب
الحطابى
الحطىه
الربو
السىل
العحىب
العفده
الفامه
الفىد
اللاسلكىه
المبداول
المعبدله
الموامراب
انوار
ببركر
ببنب
بدبر
برواىه
بصاعف
بفالىد
بفلص
بكبسب
بكسب
بلبس
بمحكمه
بنرع
بهرب
حصلنا
حوهرىه
درسب
رانوسىصىانه
راها
رنا
سراره
سندى
صبى
طوف
عدوه
عراب
عىناه
فاكهه
فلدلك
لبحصل
لفعل
للبعلب
للنص
لمساكل
لىهو
ماىل
مبنها
مبواففه
محهولىن
مسىربها
معرصا
مولمه
نابولى
نبحمل
نطرهم
نمب
والاحلافىه
والافصل
والحدىر
والحلىح
والعامه
ورفافه
وفصه
ونال
ىفبفر
ىكسب
##بسلم
##حاما
##حبهم
##حدىب
##حنىن
##حونه
##رىبه
##سحون
##سلوب
##طوار
##طىفه
##عببار
##عراص
##عطا
##عىىن
##فراه
##مىراب
##نحا
##نرول
##وبان
##وولىن
الابفافاب
الاسبمنا
الافعانى
الامرىكىون
الانماط
البراوىح
البعفىد
الحصوم
الحنفى
الصانع
العراىس
الفبىح
الكوكىر
المارف
المحبرم
المحبلطه
المحمعه
المسبطاع
المفابر
المنسا
المهدىه
النىحىرى
الهلاك
الوفاىى
اهبمامها
باحسان
باركنح
باسمها
بالسعاده
بالنص
بباكد
ببعداد
بحبم
بحرىبى
بفافىا
بكفا
بمسح
بنفلك
بنوره
بىىىه
حرمب
حففبها
رم
سبابنا
سىنماىىه
صحافىه
طىبا
عارص
علاحه
عواد
فبفول
ففىره
لالبفاط
لاهالى
لداعس
لصندوف
لعملاىنا
للبسر
للحراره
للهلال
لمرص
لىبمكن
ماىواىار
مبارابىن
محافطبى
محنه
محىطه
مررب
مصدره
مطلوبا
مكافاب
نافه
نطمبه
نهبم
هكبار
واطهر
واعود
والبحارب
والبربوىه
والحبرا
والحسن
والصراع
والعصب
والفراه
والفصور
وبابىرها
وبحهىر
وبكرارا
وبلبىه
وحس
وحفص
وده
وردى
ولادبه
ولعه
ونامل
ىدفعه
##حامىن
##حصى
##راهه
##راىر
##رساب
##ساعر
##سفوط
##سكه
##طبى
##عافبه
##عسىل
##عطس
##عطىم
##عوىه
##فبله
##ففر
##فواىد
##لحان
##لعل
##للهم
##نحو
##نىم
##هىنه
##واصع
##واطهرب
##ودعب
##ولوا
ابرىا
احوانه
اراحه
الاكلاب
الاولىا
الاىدر
البباىن
الببول
البطهىر
البكبرىا
البكرار
البهرب
الحاسم
السلاله
العاىباب
المبراىده
المعطم
المنوعه
النسوىه
امكان
اىاك
بافصى
بالحفاط
ببعه
بحمال
بحمهورىه
بسحىله
بسف
بسكىلاب
بعدل
بفصه
بفطعه
بكرىما
بكونه
بلبنان
بمهمه
بنوىع
حرىص
حواص
دابىا
سبفه
سحلها
سعف
سورىىن
سىاربك
طبىبك
عحرب
فباب
فحبى
فرصبها
لاحراح
لبحاور
لحاب
لحاىره
للبروىح
للحدود
للحماىه
للسحن
للطى
محادبه
محرون
مراحع
مراففه
مرسحه
نىوبن
وارفام
واعبفال
والاعبدا
والامام
والاوعىه
والبحدىد
والحدر
والحواطر
والرحلاب
والرفص
وبحار
وبحرى
وبس
ودع
وسىاسه
وفبول
ومصالح
ومعناه
ومواصله
وىصاف
وىعلم
ىركا
##الماده
##بانه
##برداد
##برو
##بساره
##بفاده
##حىوان
##ددب
##ددىن
##رسا
##رهان
##سهىد
##صاىر
##طبها
##عادل
##عاىه
##عبرف
##عربى
##فاطع
##لىح
##نبده
##نداب
##نصب
##ورون
##وسعه
##وسم
##وصىف
##وعل
##وعود
##وهه
##ىىىل
ادعااب
الاسمده
الاصمعى
البحرىم
البمالى
الححرى
الداحله
الرافص
الروحاب
السكىنه
السمكىه
الصوىا
العواطف
المبصرره
المرروعى
المنوى
النعىمى
امرىكىا
انبسارها
انفسام
اولادهم
باطن
بالدعا
بحدماب
بحرا
بدرىحى
بسبهلك
بسىل
بصربه
بعددب
بفصله
بلوح
بنطره
بوار
بوانى
بىكوصىانه
حساربه
دحلا
دهنه
راده
رعدىه
سالىه
سىرفس
عابفه
عسكر
عفولهم
عهود
فراى
فرطاح
فسمه
فىاسا
لابنه
لاحبماع
لعمر
للانبرنب
للبلد
للدىمفراطىه
للعاىله
مانوىل
مبارىابه
مطاحن
معادىه
معرب
معطى
ممارسبها
مناسك
نسبعرص
هحرىه
هوبل
وافادب
والاسبماع
والالم
والامىن
والبمبع
والبناب
والبنىه
والسفف
والسلع
وبحاره
وصلاح
وىنصح
ىرونه
ىصعف
##بادى
##بحاور
##بعداد
##بفف
##بفىد
##بهى
##حاباب
##حرون
##حساسىه
##ساى
##سبحابه
##صدا
##صعاف
##صناع
##طباعه
##عطىاب
##عموم
##عمىف
##عوره
##عىره
##فدام
##فرون
##فىىن
##لبرم
##مبله
##هنىه
اسبحداب
اسهى
افاده
الاسبعال
البدكارىه
البرلح
البسرىباب
السفرا
الفاسمى
الفنا
المرىى
المفاحىه
المكملاب
المنببفه
الموهل
النطىفه
النفىص
امبىار
انحر
انىس
اولهما
ببببىب
ببر
بحراح
بحمس
برود
بسهىلاب
بطنه
بلافى
بلطف
بنطىماب
حارحا
حفطها
حناىىه
ساعرا
سحصىبك
سرك
سكك
سكوب
سىادبه
سىمون
عواصم
فراح
فطلب
فنرل
فىروساب
فىرى
فىلمه
لحادب
لدىده
لف
لفك
للصور
للعبور
لمبدا
لىسحل
محدب
مرىحا
مسبر
معلما
ممبلىه
منافع
مىفابى
ندرى
نساىى
نكبب
هبافاب
هحمه
هلك
هوك
وافبصادىا
والاعلامىىن
والبابىر
والباطل
والبوسع
والسوف
والمرح
والمفصود
وانسد
وبحمع
وبربىب
وبروح
وحكمه
ورادب
وعاىلبه
وفدربه
ومبله
وهنالك
ىبحدى
ىحبدى
ىطمح
ىنصم
##افص
##الاماراب
##السىح
##بدرب
##بصاعد
##حمب
##رارع
##روان
##سارىه
##صعر
##صهر
##طعمه
##طوس
##علو
##عما
##عنون
##فسى
##فما
##كرار
##كىم
##ننى
##هحر
##هرى
##هك
##واعط
##وسبف
##ومما
احباب
احدبه
اسرا
اسعل
الابباب
الاحبلاط
البدر
البروبىناب
الحارطه
الدافىه
الدروه
الركود
السلبىاب
السمرا
الطلال
العفافىر
الفدسى
المبكامل
المبىنه
الموده
المودىلاب
النادر
انحرب
بارىحا
باسرب
بالحركه
بالكبابه
ببوحه
برول
بسعىلها
بعالم
بفك
بمناطف
حلمه
رامر
روىدا
سحناب
سعبا
سلال
صلصه
طابعا
عرباب
فوحدب
فىرور
كراهىه
كلىباب
كنانه
كىمىا
لبحمل
لعرف
للاسبساراب
للباكىد
للبعلم
للدموع
للعالمىن
لمسارىع
محصول
مسلمون
مصرعهم
مطلل
معبدل
معدله
نصه
نوعان
هدان
والعنا
والمحالس
والمنافسه
والنصر
والنهوص
وبفه
وبواصل
ومصادر
ىسبحفون
##باى
##بوكل
##حادباب
##حرىمه
##حهود
##داكره
##دراحاب
##ربىع
##سابده
##ساحاب
##طبعه
##عبفل
##عحم
##فاوص
##فاىمه
##فداد
##فعد
##كافى
##كبف
##مط
##نبحاب
##نىون
##واك
##ىلها
اسبابه
اسبحدمها
افبحمب
الافبصادىىن
الانبفاع
الباكسبانى
البحوىلاب
البفدمى
البوابل
الصعاب
العىبه
الكىاناب
اللامركرىه
المساه
المعبدى
المفبولىن
المكالمه
المكببىه
الملالى
المنابر
الموبد
الموكىب
امبراطورىه
انبحارى
اوكد
اىلاب
ببفعىل
بحمىس
بررع
بروسىا
بصدىف
بصمب
بعصف
بعلىفه
بلدانهم
بورن
حبمىه
حىبوبى
حىسه
رمىل
روحا
رووسهم
سىحعل
طرا
طرابرون
طلاىع
عباىاب
عصور
فادبها
فاف
فبلكم
فرعم
فطاىر
فهر
فودافون
كبىفه
كدبه
لاسره
لروم
للاربفا
للاسر
للحامعاب
للففرا
للموب
لمفهوم
ماص
محبرفه
محدر
مردحاى
مصابه
مفسمه
نحوا
نعانى
هدام
هنى
واطهار
واعطم
والاسلحه
والاموال
والبطاله
والفا
والمعارف
والواحباب
وبحربه
وبىنها
وسبكه
وسوا
وطرىف
وفكره
ومحاسبه
ومدرسه
وموفف
ىبواصل
ىرعى
##افهم
##باله
##بانىه
##بوارن
##حبل
##حهد
##داره
##صدب
##عامله
##فارفه
##كبىف
##كرام
##لبنا
##ناطر
##وبىا
##ىلىن
احدابها
ارال
ارصنا
اسكاله
اصافىا
الباكسبانىه
البحسىس
البفسىط
الحابرى
الحفب
الحكاىاب
الرعىه
السبابى
السعبه
العواىل
العىنىه
اللمس
المبعاملىن
المحاسبى
المرسله
المسبفلىن
الناموس
انحارا
انساها
انفه
بارمه
باعلبىه
ببعطىه
بحاورها
بحسبا
بسند
بعسف
بفص
بكونب
بمدد
بمطهر
حاصها
حامس
حرافىك
حلفنا
رواحا
سعاىر
صربىا
عدنا
فوحىب
فىفوم
كوفى
لاحفه
لاصابه
لحدىب
للاسبهلاك
مدربىن
مرحعا
مسرفى
مسفى
مصامىن
مفداره
مهد
مورد
نام
نسىان
نوبه
نوفمبربسرىن
وادحل
والابفاف
والاعراف
والاعصا
والبعد
والبعرىف
والبهانى
والحرر
والفاكهه
والنباىح
والهدو
وببم
وبحدد
وبفدىره
وحرص
وسبىن
وصدر
ومعاىىر
وىبحدب
وىسرب
ىبطور
ىساركون
ىفابلون
##اهىم
##رسىد
##ساحناب
##سبفبل
##سنب
##صدمه
##طبوع
##عدب
##عدو
##عركه
##عسكر
##عواى
##فارنه
##فهوم
##كادىمىه
##كراب
##مسروع
##ملف
##وسىن
ابطا
احبراما
احران
احسام
ادمان
اربدب
اررار
اسبعرف
اسبىا
اسفط
افبباس
البراحم
البرارىلىه
البصىره
البنباعون
البهوىه
الحركىه
الحناه
الراسد
الربا
الربون
الرىىسىن
السلالم
الصحافىه
الصىاع
الفاصىه
الكوب
الكىماوى
اللىلى
المبسدده
المساىىه
المصنوع
المنى
النبلا
انصاره
بافىه
بالاسواف
ببرع
ببمحور
بدوىن
براحىص
بفحىراب
بفصىر
بلداب
بوادر
حبلا
حرىرانىونىو
حرىصا
حلىم
دانى
رفبه
سانبىاعو
ساىعاب
سددب
سمعوا
طلبها
عبدالملك
عمفا
فاسد
فاسده
فداىف
فلسفىه
كابول
كفاله
للمسبرى
للموسىفى
للنارحىن
لمسابفه
مبلارمه
محففا
مرىصه
ملفا
ممبلو
منافسبها
نحدها
وابفا
واربفعب
واسس
والاهلى
والبصوىر
والصعف
والمبعه
وامل
وبمكنب
وحبب
وصعوبه
وطروف
وطلباب
وعفب
وناىبه
ونحد
وىبكون
ىعبرص
ىكفل
ىملا
##المرىد
##بكمل
##دوف
##رورا
##فافه
##لود
##نافه
##واله
##وراد
##ىكىا
احبىاطىه
احماد
اسبعدادها
اسبعرفب
اصىفب
الابراهىمى
الاحوانى
البسىك
الحالىىن
الحركى
الرصد
الرملىه
الروال
العابد
الفرفان
الكىفىه
الماسىه
المامون
المانحه
المبفوفىن
المبكلم
المسبفبلى
المفدسى
الملاىم
المنار
النهارده
الىرابىب
امرك
انسطبها
انطروا
باحره
بالاعبدا
بالسرف
ببحدد
ببصفح
بدوم
بركبه
بركىبها
بسبحىب
بسبمبع
بفدىرى
بفطر
بمعرل
بىلرسون
حبن
دراسبهم
دمنهور
رحح
ساكنا
سلوكىاب
سواها
سىاربها
عاىلبى
عبصىون
عسرون
عصله
علاحاب
عودبها
عىبه
فاصر
لاسبهداف
لاسبىعاب
لافراد
لرراعه
لعلوم
للمعداب
لمكان
مداهمه
مسروعها
مفدمبهم
واسبحدامها
والاسماك
والافامه
والمعاىىر
وحع
وسبحد
وفعه
ونعمل
ونهب
وواسنطن
##برحاع
##بطىع
##بعاون
##بعرب
##حربه
##حصره
##دبهم
##دمى
##رساد
##رسون
##رهاف
##روىن
##سبدامه
##صابر
##صاحب
##صاعه
##صبط
##صداع
##صفحه
##طوه
##فاحا
##فاومه
##فصىه
##لوى
##مالىه
##معا
##نسح
##نىف
##هىمن
##ودىن
##وطىف
##ونحن
##ىحىن
##ىرو
##ىطه
##ىمر
اببعد
احبربه
اسبفلالىه
اسفطب
اطىاف
افبراصى
افه
الاحىرىن
الادهان
الانىفه
الباعه
البحهىر
البروسباب
الحدىبىه
الرادىو
الرهبان
السمعىه
الفدا
الفسطنطىنىه
الماسى
المحدوفه
المراحعاب
المصروفاب
النابص
النسطه
الىاهو
امنها
انبهاكا
اىسر
بالحرف
ببركه
بحبس
بكرم
بنطىمها
بنور
حاطب
حدرى
درىد
سارل
سفىرا
سوط
صبرا
طفولبه
فدرابها
فىكبورىا
كبابابه
كباببها
كرور
كلىن
كورس
لارالب
لال
لرصد
لروارنا
لسباب
للموافع
للوكاله
لمطالب
لىسمل
مبالعه
مبواصعه
مدرسى
مربعا
مردود
معبره
مواحهبه
نافسب
ناىم
وابا
واحبماعىا
والالاب
والعالمى
والممارسه
والوفا
وباكىد
وبصىف
وراىه
ورحع
وفراراب
ومبادى
ومفىده
ىحسون
ىحصص
ىسف
ىعسل
ىوبى
##اسار
##بصره
##بفسىر
##بوحه
##بىاب
##حراىم
##حساره
##دمىن
##راصى
##راىه
##سحصىاب
##صرا
##طحاب
##طفىن
##عافد
##عفاب
##علاح
##عماره
##فحره
##فوباب
##لاىىن
##لىع
##ناىب
##نفف
##نكار
##هاما
##ولبه
##ىنحا
احدبب
اراصىهم
اطفالنا
البرب
البمبال
البوطىن
البىاص
الحربىن
الحصى
الحمالى
الدوران
الرصىف
السافه
الصوىىه
الطوفان
الفعده
الكبىبه
الكىران
المحلوف
المساراب
المطروح
المنسوده
انبح
انصمب
باسبفبال
باعب
بالعبور
بالفراه
بالفصىه
بباحر
ببدلها
ببربىب
ببرح
ببصح
ببعلىم
بسلىمها
بسىىع
بطون
بعىسه
بفىروس
بنما
حببه
حسونه
حلصب
حلىله
حماهىرى
حنسىاب
حىفر
دكرناه
دواعى
ربب
رحبب
رىس
ساهدوا
سبله
سفاف
سىطهر
صلال
عرمى
عىسه
فرانا
فوصع
لالعا
لبسرىع
لفصاىا
لفىلم
للاحبار
لمدىر
لوحدها
محالفا
محاولبهم
منطفبنا
موسع
مىدانى
نحرح
نعلن
نهاىبه
وادحال
والاسبمرار
والسرور
والسىر
وبحمىع
وطرد
وفصىه
وىعرص
وىفصى
ىببعه
ىعرب
ىمارسها
##ارفه
##اهىه
##ببىن
##بحابه
##برسح
##بسن
##بوط
##بىحه
##حامعه
##ححل
##حركه
##ركون
##سمب
##كرمه
##مادى
##نبدى
##نبطر
##وافد
##ونسرب
##ووصف
##وىبدو
##ىاده
اباعسطس
ابوابه
احصا
احصاع
ارمىنىا
ارهر
اساطىر
اسبعداده
اطاله
اعدها
الابىوبى
الاسطواناب
الاملاح
الاوسع
الباىر
البكلىف
الدىمفراطىىن
الصنف
العارف
الفطور
الكربوهىدراب
اللحاف
المبمىرىن
المدهس
المرورى
المسبعمر
المصنفه
الملارم
الواح
الوداىع
اوحى
اىابه
بابعا
باحراح
بالالوان
بالحىره
بالدهاب
بالمعلوماب
بانحار
بحبره
بحبمل
براحه
بروده
بسارلر
بسكىلها
بسلف
بسلىمه
بعرىفاب
بلفور
بملف
بمنبهى
بمهام
بناسبك
حاهرىه
حصوماب
حوبا
حىبما
دىانا
رباب
عدساب
عرىفه
فس
فلورىدا
كورنىس
لبفوىه
لسحب
لسرطه
لسىاره
لفوا
للاراصى
للبحطىط
للفناه
للكوىب
مارادونا
ماسك
مسبحدمىن
مسعده
مصره
مفصلا
ملابسه
نحعل
نعومه
هوىبها
والبحرىه
والدبى
والسرعه
والفرص
والمسحد
والىهود
وبببىب
وبسرعه
وحارحه
وحمىل
وداحل
وعملا
ومفبل
ىابانىه
ىانع
ىرىدها
ىسبفر
ىسبلرم
ىفىنا
##اصدر
##اىفه
##بصحىح
##بكلفه
##بوحد
##حصن
##حمس
##رحوع
##ركم
##رلب
##سبفىد
##سراب
##سود
##صاداب
##عصى
##فاىه
##كببه
##كفا
##مالك
##محلس
##نبوس
##واربفع
##وارن
##واىه
##ورده
##وسارك
##وننى
احلافىا
ارحل
اسبعفر
اسبوعا
اسفه
اصاببها
اكبوبربسرىن
الاحنحه
الاسببمارى
الاسبىفاط
الافساط
الامسىه
البلداب
الحسناب
الحىوب
الرولىب
السرىره
السواىب
العوافب
الفصبه
الفوافى
الكحولىه
الكروىه
المحصرم
المحمدى
المدكراب
المدهبىه
المروده
المعاصرىن
المعالحاب
المعرى
المكسراب
النبر
انبما
بالمواففه
ببد
ببفاعل
براعم
برن
بكبسف
بمساهده
بورب
بوفعابنا
بوفىه
بىانابك
حدورها
حراىف
حرىحا
داله
دحنبر
دمعه
دىسمبركانون
سادب
سلا
سواهد
عربىاب
علىكى
فبانى
فولفو
كبببه
لاحرى
لعوىه
للاحبماع
للاسبماع
للدلاله
للروح
للعداله
لنهاىىاب
لىرى
مرافبون
مسبعمره
مسىولى
مطبوعه
معلمى
مفابر
مكروه
نارا
نبارك
نرهه
نسوب
هدفى
واففا
والامل
والدمار
والرفابه
والطىور
والعاداب
والمحىط
والمدنىه
والناىب
وباسىس
وبالداب
وببمبل
وحففب
وسملب
وسى
وفعل
ومكابب
ووادى
ىابانى
ىبكلمون
ىحلص
ىدىها
ىعلمه
ىفلب
ىكرر
ىهبط
##ابن
##احبر
##امس
##بهب
##حاس
##حىله
##دلى
##دوله
##ربو
##ركن
##سمنه
##صافاب
##صىره
##طبا
##عوف
##فاىل
##فىاس
##لافه
##لاوه
##لبا
##لىط
##مكان
##ههه
##واففه
احدابه
احفط
احلافى
اسانسىر
اسراىىلىىن
الاسبباك
الاسببنا
الالبفاب
الاملاك
الباسىسى
البامىناب
البان
الحبورى
الحرىى
الساىح
الساىحىن
السعبىن
السهواب
السهوه
الصاوى
العاىده
العببه
العواصم
الفسره
الفىصاناب
الكساراب
الكلاسىكى
اللوحىه
المرموفه
المرىىاب
المسابح
المصارع
المهنىىن
النحاحاب
امىل
اوبى
اوحب
اىطالىه
بالاطفال
بالانحلىرى
بالبراب
بالرىب
بالعار
ببصوىر
ببنسىف
بحوىلاب
بطوىره
بوفىعاب
حرصه
حرفىا
حلدىه
ربحىه
رسل
رمرم
سامرا
سمرا
سنىه
صاروحىه
صدرى
عاطل
فبرى
كونهم
لانهما
لبوحىه
لدن
للامراص
للحبهه
مسبحفاب
مفبدى
مملوكه
منبره
نبع
نورب
نوصى
والاحصا
والانافه
والبرحىب
والبصامىم
والسحر
والسىعه
والعرىب
والمبففىن
والمحرح
والملك
والممارساب
والىكم
واىفاف
وبفنىاب
وبوفع
وحىنها
وسوم
وطلبه
ىدىعوب
ىربكب
ىعوص
ىنببه
ىنحفص
##بحدر
##حساب
##حناب
##رافىا
##ربط
##رسل
##رىماب
##صطلاح
##طاهراب
##عربا
##فصاب
##فوبه
##كبفى
##لدىنا
##نساف
##وبىنب
##ىفع
اسبحاله
اصفا
اكادىر
الاحبىاح
الاعمده
الانسحام
البرمحىه
البسوىفىه
البىولوحى
الحناره
الحواسىب
الدوىم
الرابطندعوك
السبلاىب
السماوى
السنبىن
الفمىص
الكرم
المحاسبىه
المحب
المسىله
المفوماب
الموىد
النرعه
الهندسى
انطوان
اهدار
اىدىكم
باص
بالبوفىف
بالعملىه
بحهه
بطىر
بفاسم
بفره
بلمىع
بمواد
حامى
حعلهم
حلىمه
درمان
رحالى
رىحبر
سابى
سبوبنىك
سىحا
سىحد
سىكل
صحره
طعمه
طلوع
طموحه
عادرب
عبواب
عرال
عصبى
علنى
عواطف
عىاص
فادها
فبراىرسباط
فبىنما
فطىعه
فىاسىا
كلاسىكىه
لكلا
للحوبىىن
للفوه
لمسبوىاب
مابىو
مبرحممساهده
مبمىرا
مبناهىه
مساركبهم
مسلحا
مسىولىبها
مفاحاب
مناف
منفرده
مىورك
نىبه
والبموىل
والحراىم
والمالى
وبفالىد
وسحلب
وعرل
وعمال
وفبلوا
وفمب
وكلىه
ىاكلون
ىحرو
ىسبحىل
ىملكه
##احنه
##ارىعىه
##اهمه
##برفب
##بسوىه
##بوك
##بوكىل
##حاراب
##حنوب
##سوىف
##طهى
##عفود
##عفىم
##فصور
##فلما
##لمى
##مرب
##منع
##موفف
##ناسب
##هاره
ابلاف
ارساداب
اسبوعىه
اسربها
اسفى
اسماىهم
اعحب
افكارا
الاصافى
الامنا
الاوانى
البدعه
البعرىفاب
الحالص
الحرفى
الحسور
الحىطه
الرصع
السربىنى
العادىىن
اللدىده
المصارىف
المصاىب
المصدافىه
المطلمه
الموبراب
الموروب
المىدىا
الوكالاب
امدرمان
انساىها
انفحرب
بارا
بالحطا
بالدول
بالعلافاب
بالفساد
بالكاد
بالكره
بالمسبوى
بحلىلىه
بدورهم
بسحصىه
بسرىعىه
بطاهر
بعبىره
بعرفى
بعى
بمفدم
بوربو
حاسما
حاهدا
حبفهم
حدىا
حرىىاب
حنابه
رافصه
رعرعه
رفه
سنحار
سىصل
صدفب
طافبه
عرابى
عروف
عسكرىىن
عفلا
فاعلا
فبحاب
فرانىه
فرنا
فرىدا
كارفور
للاوفىه
للبرحمه
للبنىن
للسماح
للطن
للمسحد
لنصره
لىسبر
مح
مربرفه
مسبفلا
معانىها
معبمدا
مكونابه
موبر
نبفى
واسبفبال
والاعبراف
والعىر
والكراهىه
والمصرىىن
وحاولب
وحطط
وحماس
وسفوط
وصرف
وطالباب
وفرف
ومصى
ونطىره
ونعود
وىسمح
ىرحمه
ىصعون
ىنبفد
##اربى
##ارل
##اسىر
##باعه
##بعبه
##بفرب
##حطوه
##حمارك
##حموعاب
##دمح
##سبعمار
##صارىس
##صالون
##صده
##طلى
##عامه
##فراطىه
##كرىن
##نمىه
##وعند
##ىبال
##ىحبوى
##ىرىا
##ىنر
اسبانا
اسبحلاص
اسبىحار
اعبرص
افالىم
افران
الامببال
الانحىار
البفرىط
البكرى
البوصىح
البولىه
البىطرى
الحده
الحطىىه
الحمه
الرىاصالرىاص
السوسى
العدىر
المحبلف
المسنىن
المعوفاب
المفدساب
المنافسىن
المواسى
بالحوع
بالفرنسىه
بالوفب
بالوناب
بببعها
ببركىب
ببفدىر
بحوم
بدمىره
بربكب
بسحر
بسحىلها
بسرىح
بسمىبها
بصماب
بفصىلى
بفلباب
بفولها
بكبفى
بمكافحه
بنبهك
بنسح
بوكل
حىط
رافعه
ررىف
رف
رووف
سلطانه
سىعىه
صاحبنا
صرىحا
طاعبه
عالفه
عرور
لابحاب
لدىن
لعساف
لفبول
للاحابه
لموافع
محلصا
مسحدا
مسحعى
مفدسه
مكالماب
مكببى
ملعبه
مهبمه
هاىبر
واعاد
واعرف
والحرام
والسلاح
والفومىه
وحمامىن
وحوس
ودعمها
وسعاده
وسم
وصندوف
وعرصه
ومصعد
ىرب
ىعامل
ىعبمدون
ىفكرون
ىمبلكها
ىنفسم
##احرى
##انون
##براس
##بمان
##حاسبه
##رحمن
##ررع
##رفف
##صادفه
##طلوب
##عباد
##عصر
##عفبه
##فطر
##كاىه
##لطاب
##واحب
##وسراب
##وىده
اصح
افبراص
افراىم
البحاعىد
البحاور
البراه
البهمىس
الحصىه
الدمه
الراحله
السبىبه
السلوكىاب
السىادىه
الصحر
الطعاه
العاح
العحىبه
العصلىه
العمالفه
الكارىبى
الكىلو
اللحىه
اللهو
المحنون
المطرىه
المعونه
المفاصد
الهىاكل
اهدافا
اىلون
باعبفال
بالبسر
بالبوره
بالحنه
بالحوار
ببحدىب
ببدى
بدره
برافف
براىه
بسدد
بسلىما
بصادف
بصرىحه
بفاعده
بفدموا
بواصلب
حلابه
حمامه
دكروا
راهر
رسمب
رملا
ساهدنا
سرعاب
سنكون
طراب
فابلا
فارع
فدىفه
كوبىه
لبصفىه
للملابس
للنىابه
للوفب
مبهمه
مبوارنه
مسبوهه
مطبعه
معفد
ملال
ناححا
نسمح
نهاىبها
همسه
وارا
وافىه
والادوىه
والبصامن
والبمسك
والحاصر
والحىال
والدراسه
والطرىفه
والفرر
والكسف
وحاىره
وحبل
وحدان
وسعبها
وسىاده
وفابل
وكلماب
ونور
ىحرن
ىرافب
ىسكو
ىعببره
ىفطر
ىكسر
##ابده
##ابفه
##افد
##افول
##الفسم
##انك
##بدوا
##بعىد
##حاهد
##حدىد
##داىف
##دبنا
##رحح
##رصد
##سطح
##سمنب
##صطفى
##صك
##طلام
##فهر
##كباف
##نبسر
##نصح
##ورهم
ارسله
اسبرابىحىا
اسبطعنا
اسبلم
اسلوبه
اسهرها
اصلح
اكانب
الاحساب
الارهرىه
الاناحىل
الانحىلىه
الانفال
البراحىص
البفدىرىه
البها
الحمىره
الحىب
الدارسىن
السلطانى
السمولىه
السىبانى
الصربى
العراب
الفدرالىه
الكوره
المبواصعه
المحابر
المعبدل
المفاصه
المفطوعه
المناصلىن
المورحون
الناصرىه
الناىىه
الهلالى
الهمه
اىطالى
باساب
باطله
بالامراص
بالحدىد
بالحى
بالصوب
بالمحكمه
بالمرىد
باما
ببكلىف
ببها
برلمانى
بسنه
بصنعا
بلاىم
بلىع
بنوعب
حاصنه
حسنىن
حكومبنا
درهما
رواحها
رىاربك
سافى
سىرب
طالع
علنىه
عىنها
فبعص
فكنب
فولك
فىامها
فىهن
كوىس
لاسبىناف
لاكمال
لبافى
لبببىب
للاحىال
للحمله
للفدس
للفىس
للمساكل
ماكولاب
مبراىده
مبكىا
محبر
مدمره
مرببطا
مفاده
نحفف
نفودها
واساد
والبنوك
والمهبمىن
والندواب
والنساىى
وحدىفه
وحسد
ودراساب
وسىاراب
وعاس
وعلاوه
وعلىهم
وفرح
وفره
ونسرها
وىحد
وىحصل
ىباع
ىربى
ىرىل
ىعارص
ىعرى
##افطه
##اكىن
##بافاب
##بصب
##بلف
##حلها
##درر
##دكا
##دكم
##دما
##صعىد
##صلىه
##صىحه
##طالما
##فحه
##لاحه
##لبن
##نطار
##هرىه
##هىد
##واهب
##ودها
##ىىف
ابارا
احبرف
احواص
ارصىاب
اسبادنا
اسبعاد
اعا
اعبفالاب
الاحاراب
الانعاس
الاوكرانىه
البحفط
البوابب
الحدع
الحناف
الدعوىه
الطلىعه
العروب
الفحمه
المدبر
المرعومه
المسبوهه
الملوبه
المولفاب
بابكر
بالاردن
باىر
ببامىن
ببصدر
ببفوف
بربوى
بلفوا
بنطىمىه
بنوبه
بهحىر
ححىم
حوهرى
دارىا
رومانسى
سبوه
سفبك
سفرىاب
سهدها
سوفا
صاروا
صباحى
طلبنا
عبدربه
عناصره
عنصرى
عىنا
فدرى
فراف
كالابى
كبف
لاسبعلال
لببلع
لبسحل
لسىاراب
لكىفىه
للحب
لمنبحاب
لهب
ماوى
محدراب
مرحب
مرموفه
مساره
مسلحون
معنوىه
مفررا
مكسوره
موانى
موسعه
نحاد
نرفص
هدار
وافعنا
واكل
والعدوان
والمدرسه
والملفاب
والىونان
واهبمام
وبحرىن
وبرفع
وبصدر
وبعىدا
وبنرىل
وحالاب
وراف
وسحر
وطنا
وعملوا
ومسابفاب
ومىاه
ووفب
وىرداد
ىحرحون
ىعدل
ىفبله
ىنسط
ىوسس
##احىرا
##الحمد
##بعلىف
##بلب
##بنان
##بنىه
##حلون
##راهىم
##راىد
##رىاص
##رىدى
##سفب
##صحف
##صىله
##طاوله
##عربىه
##عرو
##عوان
##كبباب
##كود
##لحم
##لكىه
##نبهى
##نفلاب
##ولىا
##ونوه
##ىماب
ادنب
ادنه
اسبكى
اسبملب
اسكالا
افبباحه
الاساففه
الاعلانى
الانفس
الداعى
الدرامى
الرمرىه
الصىنىىن
الطلا
العىناب
الفارىه
الكاكاو
المبواحد
المحبوىاب
المسال
المسببمرون
المصاعفاب
المفصوره
المفوله
المفىاس
النحر
الهحمه
امواله
انحىلا
اىامنا
بالفرىف
بحرىره
برحا
بطابف
بعحر
بعسر
بعفل
بفكىره
بمعلوماب
بملكه
بنرىمه
بنسوا
بهر
بىمور
حلود
رفىب
سابىن
سح
صر
عوس
عىنك
فاولىك
فصوا
كمىن
لاس
لحس
لحوالى
للام
لمنح
لنباىح
مباع
مبحدبا
مبدع
مرورىه
مسافاب
مسىرىن
مصافه
مفروس
مكىفه
نعرفه
والبانوىه
والمعلماب
والىا
وامانه
وامى
وبانى
ورعاه
وسال
وىدل
ىسمب
ىصحى
ىصعها
ىعسف
ىعول
ىهبمون
ىوارى
##الصفحه
##بسكل
##حصوصىه
##رنس
##صابون
##صحر
##صحىه
##طىسىه
##عاحم
##عدك
##عوام
##فاعه
##كافح
##لعا
##مانه
##مىك
##ندف
##نهار
##هوه
##واص
##ىلىا
ابانى
ابىك
احبفلب
احبىارى
ارهابىا
اسبحداماب
اسبىفط
اعمالك
الاسعرى
الاوطان
البسبان
البعاونىاب
البفرفه
الحرانىب
الدلبا
الررع
الرهد
الطبفى
الفاىص
المبببه
المبرر
المحكم
المصاحف
المطالم
الموحر
الموهلاب
النفع
امبنع
اوردبه
بالحدمه
بالسىح
بالعدل
بالمره
بانواع
ببماسى
بحىا
بحىبه
بسبحدمه
بسرىعاب
بمرافبه
بناها
بناىها
بىكون
حداره
حدعلى
حدمبه
حسى
حصولها
حفك
دوو
راص
ساىفى
سبودى
سنحد
طوابف
عكاسه
فصاىده
فعالىابه
فنحد
كانك
كسك
كع
لاسحاص
لبحلىل
لحمل
لسروط
لطرىفه
لعباده
للحراىر
للحصور
لوحط
محارر
محطوطاب
مسعول
مسكىن
مسىىه
مفدره
والببرىكاب
والبطوراب
والكدب
والمبانى
والمسىحىه
وحان
وفسل
وكن
ولدها
ونفى
وواحد
ىحىل
ىسبعىد
ىسبوعب
ىفنه
ىمىنه
ىنفف
##ابىع
##الدىن
##بحسب
##بدكر
##بسام
##بكساف
##حاحاب
##حانه
##رابى
##رره
##سلمىن
##صابط
##طباب
##طحىه
##عادره
##فبهم
##فسنا
##فلام
##كاه
##كلب
##لبهاباب
##مكافحه
##وحان
##وحر
##وسوم
##ولىم
احطاب
احلس
اسبابها
اعلانها
اكملب
الاحبمال
الاسطوانه
البحفىر
البرامه
البسامى
البسحىع
الحداول
الحطاىا
الحلوكور
الحوافر
الحوهرىه
الرومان
السبلى
السكندرى
العبرى
العرال
الفه
الفوران
الكولسبرول
الماوس
المحبرفه
المسبلرماب
المطور
المعاىنه
المنبمىن
المنسوراب
المنطفىه
الموطفون
الهحرىه
امارابىه
اىدا
باعىادهم
بالبفه
بالحبس
بالسبع
ببراكم
بربح
بفال
بفصىلا
بلابون
بمىره
حارحىا
حافل
حدفه
حرود
حولبه
دفنه
سهوه
سوسه
سىفدم
طالم
طلىعه
ففامب
كاراحسبان
كعكه
كىفما
لسلسله
لعالم
لعر
لفبب
للاح
للوحه
مبفدما
محاهدى
مرمنه
مساه
مسبعله
مصىرها
معادربه
مناحىم
مودرىبس
مىسره
نبىله
نحىل
نفطبىن
نواحه
هاىلا
هوندا
واسبكمال
واطن
والحان
والححر
والحعرافىا
وباسم
وحال
وسرداب
ومواففه
ونفله
ىاحدون
ىبارك
ىربكر
ىسمون
ىعطىها
ىكبسب
ىكرم
ىنحر
##ابان
##افبك
##باباب
##برس
##برون
##برىن
##بعا
##بكبر
##بوند
##حبارىه
##حسىد
##حصىه
##حلفه
##دساب
##دكبور
##دورى
##رامى
##روساب
##سبوك
##صراحه
##طربه
##طهىر
##فدمب
##فدىن
##فمب
##كوىن
##لانه
##لكبرونىاب
##لنطر
##نانه
##نبا
##نفوس
##ورر
احبىارك
اصافبها
اطلفه
اعداده
افرع
الاحفاف
الادعااب
الاطلس
البانىا
البفىب
الحرسانه
الحطوبه
الحلطه
الحنوبىىن
الحهادىىن
الحود
الحوس
السل
الصىاد
الطهران
الفصىح
اللاحىون
المبنبى
المحارن
المحاطره
المدىرىن
المصىفه
الهحومىه
بالاحر
بالاساره
ببفاصىل
ببنىه
بحعلنا
بحفل
بسرىباب
بسكىن
بصناعه
بعالوا
بعلو
بكمىه
بلاعب
بلوك
بمبدا
بمحص
بىرىر
حاحبها
حاصله
حالهم
حدوبها
حمهورها
حىسا
داى
دمب
روف
ساع
سبراب
سماعاب
سىاسىىن
صفى
صنعها
طعاما
طهىر
عرعره
عرفبى
عرىربى
عفدىن
فا
فبوله
فحاب
فلوبكم
فناع
فوافل
فىص
كاببها
كابىبال
كاداه
لاحبار
لامىر
لاىام
لبوحىد
لمحبى
لمفابله
مباعب
مبباىنه
مبساىلا
مسطحه
مصافا
معلومابك
مفره
مكىف
ندر
وارسو
واسرع
وافلام
والبهدىد
والحىره
والفرار
والمبمبله
وانبفل
وبابىر
وبرعم
وبسدىد
وبعادل
وفبلها
وفناه
وكابب
وىسب
ىابىه
ىبصف
ىسبفىم
##اصدرب
##اعف
##اكسى
##امب
##بحسن
##بدعىن
##بىها
##دعب
##سادى
##طلال
##طهار
##طوىل
##عفاراب
##فعال
##فهل
##كلمه
##لحط
##نافد
##نبحب
##نطلف
##نفاىاب
##نكم
##هبىن
##وطىن
##ووب
##ىانا
ابعادها
احبمعوا
ادانبه
اربفاعها
اسبر
اسبصافب
الاسبفلالىه
الاندونىسىه
الاولاكبوبر
البدرىسىه
البدفىه
البدوىه
البفاب
البكلم
البواصع
الدباب
الراىفه
الطرب
العصىر
الفراىص
الكولىرا
اللافب
المبفاعدىن
المراكب
المكسور
المنسىه
المولمه
الندى
الواحهاب
الوبر
اىلا
بارب
باصلاح
بالحفىفه
بالدى
بالرفص
ببحطى
ببراه
برومان
بسكر
بفرنسا
بلاعاب
بنافل
حباره
حطبها
حىنر
دالىا
رىوب
سفاه
صاف
عابر
عاسها
عروصا
عكرمه
فراها
فرعا
فمم
فىصرىه
كنبىحه
لاحدب
لبفىه
لرىال
للا
للبداول
للبعدىب
للفنادف
للمحاكمه
للمعرفه
للمنطماب
لمواكبه
لولى
لىبفى
ماحده
مبلىه
مسبحدما
معالحاب
معرفبها
معروله
مكسوفه
مكىفاب
مولر
هناحر
هونع
والبحول
والبوره
والحط
والحىوىه
والسرفىه
والفوصى
والمهنى
والوان
وداكره
وعادب
ومطلاب
ىسلط
ىسن
ىفاوم
ىلف
##اطىن
##باده
##بطلع
##بعوىص
##بكب
##بمكنب
##بىعاب
##حاعه
##ححه
##حسا
##حىاراب
##دده
##رابها
##ركىن
##سافط
##سوار
##طلا
##عسىه
##عنف
##فاراب
##فومى
##ندعوك
##نفلب
##نىوم
##وىبه
##ىبان
##ىرب
ابرىلنىسان
احفاد
احكاما
افراده
الاسراىىلىون
الاطمىنان
الاعنام
الانبوب
البحسن
البرمىم
البروبوكول
السافى
السفىره
الطباطباىى
الطراىف
العارى
العفلا
المبصدر
المعمل
المفلىه
المىرعنى
النطىر
النوادى
الهادف
الهواه
انبل
اورام
بالسى
بالفطع
بالمسروع
ببدرىب
ببدكر
ببروح
ببىىص
بساعه
بصلب
بعرىص
بفبهم
بكاملها
بمانىن
بمنحها
بهىح
بوابب
بودره
بىبس
حالكسى
حداع
حسبنا
حعلوا
حىنداك
داون
دكرهم
دىنك
رسمها
رصاص
ركاىر
رمىه
رهىب
سافرب
سبصل
سفراب
سلاحا
سىدنى
صاعب
صفابه
طىف
عاباب
عبىبه
عنره
فرانسوا
فصىبه
ففص
ففىها
فنانه
فىهو
كبابىه
كرىس
لبى
لبىك
لصاحبه
لعبنا
لعصوىه
لفمان
للبصوىب
للحهود
للمسلم
لهحه
محار
محاسب
مىر
مىسر
مىلادى
نك
واصرار
والحهل
والمسبحداب
وبحكم
وبركب
وبطرف
وبعدد
وبوبر
وبوصع
وراىها
وطول
وفوعها
وكفى
ولىكن
ومحاولاب
وواصح
ىحط
ىرحل
ىفبص
##اصاب
##افاد
##العلاماب
##باىع
##بحداب
##بطرد
##بعافى
##بناىى
##بنب
##حادل
##حاع
##حالفه
##حدم
##حسس
##حسه
##داداب
##دىك
##راحه
##ركىه
##رنك
##صىافه
##طونى
##فانا
##فسل
##لندىه
##هاداب
##وفاه
##وفها
##ووحه
احرم
احفف
احىر
اراها
اصبع
اطفالها
اكبسب
الاحنده
الاسفر
الاسهال
الاصطناعىه
الالحاد
الامبىاراب
الاموىه
البفاعلىه
الدر
الدس
السرعىىن
السمانى
الصفور
الطحىن
الطفره
العبىدى
العبىفه
العداوه
الفوبوعرافىه
الكسر
اللاىف
المحروطىه
المصباح
المكبسبه
الملىىه
الممبعه
الموبوفه
الوحسى
الولوح
انبفاح
باحرب
باف
بالاسباد
بالاهبمام
بالحدماب
بالحكمه
بالدولار
بالصدفه
بالعمله
بالعىد
بسعبىه
بعسراب
بىىر
حدرا
حصبها
حمعبهما
راسل
رسالبها
سربه
سعال
سفوطه
صىافه
طاىفى
طرىفك
عاطفىا
عراه
فابحه
فدربهم
فرحىن
فسله
ففدوا
لاربعه
لانطمه
لعلما
للبرفىه
للبنسىف
للمنارل
لوران
لوك
مسبعدون
مسوولو
ملحمه
نابان
نرعب
واحبا
وافرار
والحلوىاب
والرحا
والرسم
والسراكه
والصالحىن
والطبىه
والمسوولىه
وبل
وبمه
وحبم
وحىمه
ورارىه
وساف
وسع
وصفهم
وعلامه
وفوىه
وكلام
وكمىه
ومصدر
ونفلها
وىدهب
ىبفون
ىكببون
##ارىف
##اطلفب
##افبها
##الد
##الفاهره
##بحدىب
##بحلى
##برابىحىه
##بمىر
##حادبه
##حافه
##حروا
##حوىد
##رحىه
##رهار
##رهور
##رىده
##سبكساف
##طاه
##طحب
##طعى
##طوارى
##عىبه
##فبال
##فلها
##فونه
##كمله
##لاىن
##للى
##مطبح
##ورصه
##ومان
ابحدوا
احبىاحابهم
احوك
ارهابىىن
اسرهم
اعلنه
افرح
افى
الانساب
البرهان
البعداد
البل
البنوىر
الرسوه
الرهاىن
الرواه
السلىمانىه
السوفان
الطرابلسى
الطعم
العالمىىن
العدم
الفطرىىن
الفطىعه
اللاحى
اللحام
المباعب
المبفحره
المسوولىاب
المعافىن
المعلماب
المفسدىن
المنبهى
الموىدىن
الوافعى
الورده
الىسارىه
انفد
اواسط
اورو
اوفاف
اولادها
اوهام
اىاهم
اىناس
باطلاله
بالبرنامح
بامكانهم
ببحاهل
بحسس
براف
برامن
برىا
بطرا
بطوان
بعرىه
بعطىك
بفله
بمال
بنىوىورك
بوبىره
بىح
حرىم
حسون
حنبه
دحلنا
رافصا
رافف
رسح
سدىه
سرداب
سرىره
سوفه
صراط
عحرم
فصاىح
ففرر
فوسىا
كاسفا
لابرار
لاهداف
لاىفه
لبحد
لفواعد
للبحرىن
للكنىسه
للنحم
لموسساب
لموطفى
ماو
مبعاون
محلص
مساواه
مسلىه
مفوى
منحفصا
مورح
نعبمد
نىوب
هىروسىما
واسال
واصله
والاعلاناب
والبلدىاب
والدم
والمساعر
وباكسبان
وبرداد
وبطرىفه
وعالمىه
وفىبامىن
وكسب
وكفر
وىحل
ىبناولون
ىحفص
ىرفى
ىسمعون
ىمبنع
ىمبنعون
##احدب
##ارن
##بحسس
##بدرك
##بكا
##بوبه
##راوله
##ربكاب
##رحام
##رفىن
##سوط
##صاىف
##صدىفه
##عطر
##فانون
##فناه
##كمن
##كنى
##كوك
##لاسى
##للبىع
##مبىن
##وبره
##ورود
##وعفب
##وندى
##ىفوم
اسبحف
اسى
اصدارها
الاحواب
الاكبرىه
الاوكرانى
البفرب
الحامعىىن
الحمور
الدعاره
الرىىسىىن
السواهد
السىنىه
الصرح
الطحن
الطىره
العمده
العهود
الكىك
اللبنانىون
اللفطاب
المسبعله
الموهوبىن
انعاس
باسالىب
بالالم
بحلىص
بدرىبابه
بسبفر
بصرر
بعلافه
بعوص
بلاها
بمارها
بمل
بنفسم
بورىس
بوسس
بىونع
حافطب
حالك
حند
حوامل
دب
راىدا
رفمى
سببمبراىلول
سبسبان
سكىب
سمسىه
سودانىون
عطب
علوس
فارن
فرانك
فماب
فوارب
فىصبح
لبدحل
لبوصىح
لسبه
للامىر
للحح
للطلب
لىا
لىبدا
محارب
محبا
محرب
مرعى
مساعدا
مصحف
منسوبى
موكد
مىكرووىف
نحدد
نمبلك
هىاكل
وارص
واسبمبع
واعلب
والاحرىن
والبهاب
والحاحه
والسهدا
والطفوله
والمواصفاب
وبحارب
وبسلىم
وحسىن
وداعس
وسرىع
وسن
وسهاده
وصعا
وطىفىه
وفابها
وىطلبون
ىامن
ىحاسب
ىحبلفون
ىحعلهم
ىدهبون
ىسحر
ىعببرها
ىعلو
##اوباوا
##بحوىل
##بلىن
##بنفس
##بهرب
##بىره
##حصد
##حىبه
##رعاح
##صافب
##صحاىا
##صحب
##صطرب
##عاع
##عرفب
##عطىل
##عفران
##فاحى
##لىر
##نباىح
##نعاس
##وبىنما
##وراس
##ولك
##ىباف
##ىكو
احبفط
احرامىه
احرهم
ادفع
اراك
اسباع
اسبفرارا
اسربك
اسك
اكبسافها
اكره
الاحصاىى
الاردهار
الاسبفهام
الالمنىوم
الامىركىون
الاىمانىه
الببرا
البحمل
البسرباب
البسطىب
البففى
البكفىرى
الحسا
الرفىب
السىرنح
الصاحب
الطىبى
العلمانى
العنان
العىاداب
الفداس
الكباىر
الكسل
المباحف
المبانه
المحهر
المطلوبىن
المعىنه
الملفاه
المنارعاب
الموالىن
الموساد
النمطىه
امبىاراب
امىال
انطاكىه
باحمل
باراده
باسراىىل
بافاب
بالبوارى
بالحامعاب
بالمسحد
ببحلىل
ببورع
بحاوراب
بحماعه
بحنىف
بدفىف
بسبوعب
بسعىله
بسفر
بصامن
بطهور
بعاملب
بعبنى
بفلىدى
بكسل
بلاىر
بمىنه
بولبون
حانفى
حوابا
حوافر
حونابان
داىرى
رحمهم
رملاىى
طرىفبه
علاحىه
عندو
عىعاباىب
كبىب
لاسبكساف
لاىرال
لبفدم
لبوره
لسهوله
للصراع
لوافع
لىبى
مارسىلو
مبسابهه
مبمبله
مبىعا
مرعحه
مصرىا
مصعوطه
معرفىه
معطاه
منارع
موففهم
نفاىاب
نفوده
وافعانسبان
والاسالىب
والبلابون
والرى
والعاىله
والكبار
والمعارص
وامان
وبحفىر
وبعىد
وبفصى
ودلىل
وفن
ومصطفى
وموسسابها
ونوعىه
ىدفعون
ىررع
##اهح
##بسعر
##بفاط
##بند
##حامع
##دوب
##دىبه
##رسىه
##روسى
##سحر
##سعودى
##صاىفاب
##عفول
##فبر
##فدان
##فعى
##كرها
##مامه
##مبار
##موىه
##نامه
##وحدر
##وصلب
##وعطه
##ىنىن
احبلفوا
احلب
ادماح
الاسطول
الاعرح
الباسط
البالوناب
الببور
البفدونس
البواباب
البولىس
السحم
السعود
السكران
السىوف
العرافىون
العراوى
العسرون
العصىان
العفور
الكرىماب
المحاماه
المحبوب
المرابب
المرافب
المرىفه
المفرف
المنسوبه
المهاحرون
المهملاب
الموسسىن
الهمم
الهموم
اوم
بالبطوله
بالوطن
بامانه
ببراىد
ببصرىحاب
بصاىع
بطمح
بعىىره
بفرد
بمنطف
بنطىمه
حاولنا
حبلى
حبىل
حفافا
حموده
حوبر
دعاوى
راىس
ربطه
رعى
سبور
سعدون
سود
سىلفى
صاىم
صحما
طالبى
عموله
عناىىه
فرحان
ففالا
فىفولون
كبد
كفاره
كونح
كونوا
لاسعه
لاىصال
لحدوب
لطهور
للاباب
للاحصا
للبعافد
للفاهره
للفبىاب
لمفاومه
مابوا
ماركاب
مبدىىا
مساعره
منكر
مولده
نفره
نفلهم
هحومىه
هىهاب
وابفوا
واسرف
والبعدىه
والبمىىر
والحكوماب
والصحىح
والعبار
والعفد
واننى
وحلس
وراربى
وركوب
ورىرى
وعسراب
وكاد
وكانك
ومفرها
ونحوها
ونهاىه
ىبعاملون
ىرعمون
ىروا
ىفبلوا
##احبها
##اوىن
##بحاح
##بحصر
##برىس
##بنفىب
##حلر
##حنىد
##حىك
##رسم
##رعىه
##سحع
##صاىا
##عبدر
##عمىم
##فبون
##فعمه
##كوادر
##لادنا
##موها
##نراع
##والد
##وىبر
##ىدها
##ىروس
احاطه
احبارهم
اسببمارى
اسكركم
اصداره
الاناره
البىروفراطىه
الحسى
الحموع
الحوارىه
الرببه
الروحان
السلوكىه
الطىاره
العىسى
الفراصنه
الفرطبى
الكوفى
الماسه
المبعبره
المحبحرىن
المحمود
المسفى
المعبره
المفرب
المهاره
النافوره
الندم
الهاوىه
الوحدان
انفلب
باصرار
بالىرمو
باىحاد
ببناك
بحبسب
بدرح
برفىهى
بسفوط
بسوه
بعامله
بكى
بمعالحه
بمكنها
بمىاب
بناوه
بهوىه
بهىىح
بونسىه
حافر
حبله
حدس
حدن
حونع
دعر
راىكم
سراىها
سروف
سىول
صعدب
عبدالفادر
عداوه
عسىرى
عصوىبه
فساله
كبابك
كبابها
كروس
كلو
كورىه
كوك
كىران
لربما
للابد
للباحبىن
للدفع
مبوحها
محطوط
مدحب
مرحه
مصرفىه
مصل
مفامه
مكبمله
ممرص
منفعه
مولفابه
ناسط
ندواب
واحبلاف
واحدوا
والسمس
والصناعىه
والعلافه
والمرسلىن
والمساله
والمصالحه
والمطالبه
وبحدر
وبلاد
وحمهورىه
ورفىه
وصعد
وكرامه
ولوح
وو
وىحىى
وىسبب
وىوصع
ىحافون
ىحسم
ىحكموا
ىنبصر
ىنبفع
ىنسحم
ىنعم
##اداره
##ارو
##اعبفد
##اىنا
##بحد
##بحلف
##بسره
##بعطىه
##حصوع
##حلىل
##حواى
##دمب
##رالى
##سبحمام
##سلطنه
##طلباب
##عاطى
##عوامل
##فاره
##فارى
##فسده
##كبابورىه
##لاحطه
##لكى
##نحىل
##هرحان
##وحل
احبارا
احفاف
احوانهم
اسبادا
اسبانىه
اسبكمالا
اسبوعى
اعصار
اعطىه
الاحبفان
الارساداب
الاسبان
الانىف
البانىنوفمبر
البفل
البىنه
الحفا
الدبابه
الرفارىف
السرسه
العحل
العصوى
العواصف
الفراح
الفص
الفىب
المطوره
المعدله
المففود
الممالىك
المناحى
المهاحمىن
النطىف
الىمىنى
امداد
امورا
امورهم
انبو
انسوده
باسبعلال
باسناد
بالحهود
بالمعادى
بالهىىه
بحاكى
بدنىه
برل
بصامنا
بطلان
بفواعد
بلعى
بلمىده
بنفدها
بوصله
بىدك
ححرا
حراحاب
حرىس
حهده
حىالى
دعمهم
را
رمسىس
رواببهم
سانبا
سحاده
سركبه
سلس
سمعبها
سىكاعو
صعفه
عاىلبك
عبدالمنعم
عدبه
عرسال
فرىمان
فنلندا
فوابنا
فىاص
كراح
كرد
لاسبلام
لافناع
لبسوىف
لبنك
لفه
للاسلحه
للصرب
للطعام
لهوابف
لىحرح
ماندىلا
مبولى
محرحا
محلداب
مروحه
مسروعىه
معوص
مفدمى
موافعهم
مواففها
موعدها
مىامى
مىكانىكى
نحافط
نحوها
نرلا
نما
نىسانابرىل
وابررها
وارده
واصدر
وافبل
والابىص
والرعب
والعام
والفرفه
والففه
والم
والنمو
وباحد
وعحاىب
وففد
ومبطلباب
ومكانه
وهدم
وىدفع
ىبادر
ىبعمد
ىبوافر
ىحرر
ىسهدها
ىسىرون
ىصوم
ىنطمها
##ارىد
##الهم
##بسط
##بصىف
##بعافد
##بلوماسىه
##بمىره
##بوافف
##بوصل
##حببه
##حماعه
##رادىو
##رونا
##رىنه
##سادس
##ساعى
##سداد
##سورى
##صطاد
##طالىا
##عاملاب
##عدام
##عفوباب
##فندف
##كرىم
##لابه
##لطف
##لىد
##مبلا
##ناىه
##وحىاب
احمدى
احهربها
اربعا
اساسه
اسكندرىه
اصاببهم
اصعد
اعدادا
اعلنوا
اففال
اكبسفوا
الاحاله
الادواف
الاسبىطانىه
الاعابىه
الاعبىادىه
الاىوبى
البرابط
البنفسحىه
الحالدىه
الحصبه
الحمدلله
الحوره
الرماد
الساحفه
السبف
الطاهرىن
العاسف
العرى
الفاحسه
الفاروف
الفاىف
الكبابى
الكوالىس
المبعدد
المدعوم
المسىب
المعادلاب
المعطاه
المنافع
الوسطىه
الوسوم
الىابسه
انحح
بابعب
بالبوحه
بالكهربا
باللعبىن
بالوكاله
بببه
ببه
ببىب
بدما
برابه
براوحب
برىدىن
بسىاسه
بطرىرك
بكبف
بلىون
بنطىفها
بنفطع
بىرك
بىومى
حبنه
حرىلا
راع
راففب
رمادى
سبون
سرحه
سفافىه
سلىما
سمولىه
سهى
سوالى
سىن
طابف
طرطوس
طونى
عرسه
عصرى
عمرا
فافبل
فافد
فحوه
فرحاب
فلبر
فهمها
كاىناب
لبصوىر
لداىره
لراما
لكانب
لكلىه
للاسبمرار
للبىاناب
للحىواناب
للمرور
مبطور
محامىه
محدره
محلب
مسبباب
مسبوحاه
مصارعه
مطلمه
معلى
مفالىد
مفاولاب
مفىس
مهارابهم
موسمه
نطلف
هراع
هون
واسربه
والاسببداد
والسحاد
والفبال
والفصاىل
وبسرىع
وبعطىه
وحماىبها
وحوار
ورنك
ورىىسه
وعاصمبها
وفساد
ونطىفه
ىباكد
ىررف
ىسبر
ىسبعلون
ىصعط
ىفصح
##ارىاب
##اطو
##افىن
##البفى
##اىعه
##بابو
##بحصصاب
##بسهاد
##بطار
##بطوع
##بعان
##بكبىرىا
##بىكىه
##حماس
##حمله
##حهار
##داىره
##راسل
##رسب
##رماىه
##سوول
##صنىع
##طهرب
##فحص
##فلبه
##ماح
##مانىه
##نباب
##نعىم
##هدوا
##هرم
##واطو
##واناب
##ورط
##وعلىه
##ولود
##ونع
اببداا
ابوفطىره
احوابى
اراىهم
ارىبرىا
اسبحدامك
اعلانىه
افاربه
الاداعى
الارهابىون
الاعمس
الاكبباب
الالواح
الباررانى
البانىىناىر
البنوىه
الحاوىاب
الحواله
الراعىه
الربانىه
الربىعى
الرىفى
العلنىه
الفمعىه
الفناعه
الفهد
الكنر
المبسدد
المبهمه
المراسل
المساكىن
الممراب
المورع
الموىده
الناحب
النحماب
النفف
الهارىدىه
الهىبم
الواعى
الوافده
انساوها
بالبركىر
بالدعوه
باىوان
بدحلب
بدرىعه
بسببمر
بطارىاب
بعرفون
بعىىرها
بفعالىه
بكفر
بلفاها
بلفرىونى
بنسره
حاكما
حدىدىه
حدىره
حراند
حمسماىه
حملا
حمىعنا
دكه
سفىره
سكوك
سمعان
طوعا
عامره
فبالىه
فرسا
فصبها
كوبرى
لابفافىه
لروح
لسلطه
للعىر
لنمو
لىهم
مربى
مرىى
مسروباب
مسمىاب
مسوولىاب
مطلم
معاهد
معبصم
نبفف
نطرىا
نفدى
نفطىه
نلبفى
ههنا
وابباب
وارى
واسبرالىا
واسد
والافلىمى
والبامىن
والبحف
والبرحمه
والحسم
والدفه
والدهب
والمكابب
والوعى
وراربه
وطلاب
وفرار
ولىا
##ابس
##اصمه
##اطف
##الامر
##الاول
##اهره
##بانف
##ببمىر
##بصمىم
##بنوع
##حاكى
##حبنا
##حرىه
##حطب
##داحل
##دوده
##رامح
##روابب
##رواىى
##سبحدام
##سبكىه
##سرون
##سماب
##صمنه
##صمىم
##طاحه
##عاونه
##عفىن
##عكر
##علان
##فاصه
##فصح
##كونه
##مارى
##هلب
##واحببم
##وبوف
##وحهه
##وسس
##ىولوحىه
اباىهم
احبصاصاب
ادبا
اسبعرب
اسفا
افعاله
الاباحه
الاحىار
الاسبفطاب
الاسبودىو
الامارىع
البرادعى
البصمىماب
البنكى
البوصىه
الحراىىه
الحرىن
الربحىه
الرفىفه
السهرىن
الصحرىه
الصدفاب
الصدماب
الطوب
العحلاب
العوصى
الفحامه
الكارىكابىر
الكورد
اللحن
المانع
المدرىدىسبا
المدىع
المربصى
المطلم
المطهره
المفروس
المفطم
المنبحبه
المومنه
النرىف
النطاراب
النففه
الىمانى
انفراد
اورافه
اىوفى
بالبحر
بالبفافه
بالرحوع
بالمعهد
ببلىع
بححب
بحدىراب
بداىبه
بدكىر
برام
برسىم
برفه
بركابه
بسبوحب
بصوبه
بعلافاب
بمحرك
بمفهوم
بوفىعه
حاولى
حرحنا
حرنه
حىف
دحولك
راصىه
ربها
رحعه
رسامه
رىسون
سالىهاب
سباطفبراىر
سرفب
سكىنه
سنبىم
سول
صحن
طلام
عرى
عنم
عورىون
فاران
فبور
فعالا
كانهم
لاكن
لاىمكنك
لبحدىب
لبحفىر
لبطهر
لبعود
لفوانىن
للعاصمه
للمسرح
للمكبب
للىله
ماركو
محىب
مرنه
معاىا
معلماب
مىفو
مىىر
نحس
نرعه
نمره
نهاد
هسه
واباحه
وابرار
والاحبلاف
والبروىح
والدراحاب
والفور
وبربىه
وبسىطه
وبصمنب
وبهىىه
وسكون
وسلطه
ومبلها
ونبد
ونسال
وىفدر
وىفلل
ىبدى
ىحده
ىسبهلك
ىعبدون
ىعىف
ىفدموا
ىنبه
ىوكدون
##اردو
##اسىا
##السابف
##حدون
##حرىده
##دوىه
##دىكور
##ربىب
##ركص
##طىح
##عبصم
##عدر
##عفن
##فارن
##فبرح
##كىان
##نافص
##ندما
##واىر
##ىعمل
ابففنا
احار
احبىارهم
ادىن
اسمنب
اعىان
الاحمدى
الاسبعراص
الاسبفسار
الاصبع
الافاده
البنكرىاس
الحمىمه
الحوكمه
الرفعه
السفراب
السفىفىن
السلط
السمىع
السوفىبىه
الطبىبه
الطلمه
العامصه
العلوىىن
الفرعونىه
الفوارص
الكنسىه
الكونى
المحرنه
الملحفاب
الناسىىن
الىاف
انبطام
انصرف
بالاحداب
بالبوفىب
بالنفع
بالىا
ببحمع
بحرىمه
بعادر
بعام
بعدو
بفراراب
بفواب
بمفاطعه
بهامه
بواسع
بوطىفه
بىبان
حدوبه
حفصه
راىها
رسولنا
ساعده
سبعا
سبنسر
سبواصل
سحاع
سنبها
سىدفع
سىكونون
صمنهم
صن
طبىبا
طلابها
عببا
فصارب
فنفول
فوامها
فىنبعى
كامىرون
كسوف
كونا
كوىب
لافرار
لبمرىر
لسده
لصحاىا
لفاىمه
لىوسف
ماىبى
مبرراب
مبواحده
مبىرا
محاولا
مرحص
مسبحىله
مصرىىن
معاره
معنوىاب
مفنع
ملبرم
مناطفهم
مومنىن
مىعا
نافد
نبنى
نرسل
نسوه
نعطى
نوفرها
نوى
هواىه
واراده
واعببرب
والحال
والعسكرى
والفلسفه
واللواىح
والمرافبه
وبعبر
وبعلىماب
وبفافىا
وحراىم
ورساب
وسده
وفاص
وفعال
ولاكن
ولاىبى
ونس
وىعرر
ىاهو
ىبمسك
ىحدها
ىدعمه
ىرحب
ىسكرون
##ببادل
##بعدىن
##بعلف
##بفار
##بهه
##حمود
##درحاب
##ردد
##رعامه
##سدىن
##صعار
##طاعم
##طمر
##طىبه
##فبرن
##كاناب
##كروا
##موافع
##نفاط
##هدىه
##همىه
##وراراب
##وففه
##ىرىن
##ىلو
ارمله
اساففه
اعبباراب
افبراصىه
الباطنىه
البحوىد
البحىراب
البرعوبى
البرمب
البفعىل
الحارودىه
الحمسىناب
الحندف
الحواس
الدبح
السافىن
السبافاب
السحرى
السعاىر
السمسى
السومرىه
الطف
الفولىك
الكسفىه
اللبى
المبحهه
المبصفحاب
المحىطىن
المدرح
المدرحاب
المرحص
المسعل
المكلفىن
الملاحط
المندوب
اموب
انحبب
بالبرىد
ببفحىر
بحىابه
برمر
بعرصهم
بعىرها
بفاوم
بكفىرىه
بلدك
بموفف
بهاحم
بوالب
بوالى
بوحوب
حاووا
حاىف
حدوده
حىرب
دحولهم
دفىفا
دلبا
رهان
رهر
سبعفد
سبىبه
سكاىب
صباىا
طارحه
طبىعبه
طهرها
طواىف
عصى
عهدا
عى
فالدى
فبدا
فبعب
فبهنىبهم
فرصىه
فسلها
فصاىىا
كدبا
كرس
كعادبه
كفوه
لابرال
لاصحابه
لبدمىر
لحفل
للامور
للعاب
لموفف
مسبدامه
مسبعلا
مصىىه
معارف
معن
مفاىىس
مفبس
مفبصىاب
مفوص
مكبباب
مواحهبها
موصعه
مىعاد
نسبى
نسط
نصمن
هىلر
واط
واعبرف
واعدا
واعىه
والبباب
والبفارىر
والمفالاب
والنباباب
وبمانىن
وحطر
ولىام
وىرد
ىحىا
ىسكر
ىونىه
##اعل
##اعلاناب
##الىف
##انبه
##اهما
##بابورىه
##باحب
##ببار
##بحل
##بصنىع
##حصىن
##حىنه
##دماب
##راوى
##سبع
##طنا
##عصله
##عصىه
##فدره
##ففىن
##كساب
##كملب
##نىى
##هندس
##وبفدم
##ىحىه
ابوك
احاد
احكامه
احمالا
اردهار
اعبفادى
اعحابكم
اعسطساب
الاحطر
الاسبماره
الاسلامىون
الاصحاب
الاعراس
البحسىناب
البدمىر
البعافى
الحدعىه
الحدف
الدب
الرسد
الرصى
السطرنح
السعدون
الصراحه
العاصى
العربا
العلىان
الفلكى
الفناع
المالحه
المبفىن
المحففىن
المراسله
المساعى
المسىىه
المعبفد
المعىسى
المفاولون
المودىل
الموفر
النحده
الهارد
الواعده
الىوسف
بالاحرىن
بالافبصاد
بالاماراب
بالانسحاب
بالرحال
بالعرص
بالفبره
بالنبى
باىحر
ببافى
بباىن
ببرحمه
ببلحص
برمبه
بسىلى
بصاحب
بصنف
بطبىع
بعافب
بعسره
بعلبك
بفولون
بماسىا
بمسبفبل
بورىر
بىبار
حرمها
حروحها
حلما
دبر
راىا
رىاسى
صابطا
صاروحا
عبدو
عصفور
عنىا
فافول
فروا
كمصدر
كىد
كىن
لحمه
لعمله
لفرع
للعدا
للعدو
لمصالح
مبببه
محاولبه
محبرم
محموله
مران
مسبفبله
معمارى
ملىانه
منافصه
والانصار
والاوصاع
والبعمىر
والبفا
والحرافىكس
والحطط
والحهود
والسورى
والسىنما
والطاىفىه
والمسرف
وداعا
ودعمه
ودولىا
وررع
وسبكاب
وصعى
ولانها
ولدىهم
ومهمه
ونححب
وىكسف
ىببعد
ىرمر
##اسفه
##امىكىه
##اوىل
##اىك
##بحاهل
##بحىب
##بفاب
##بنادا
##بىلا
##بىوبر
##حاوره
##حدود
##حروف
##حكوماب
##حكومه
##حهل
##دحه
##ردىن
##سادىه
##سامه
##سبف
##سعودىه
##صابىن
##طماع
##طىاف
##عرىص
##عىار
##فصص
##فورى
##لىىن
##مبرى
##مفراطىه
##ملابس
##مولا
##نباط
##وبب
##وسب
##ىسا
اببداىىه
ابكى
ابىحب
احبرامى
احصااب
ارىك
اسبحواب
اسبىصال
اسرح
اسرفب
اسمرا
اصطدام
اعان
افراراب
الابفان
الاصحىه
الامصار
البراوح
البركىبه
الحكما
الحمىده
الربانى
الربب
الرسىدى
السلالاب
السىاسىون
العرام
الفصح
الكرب
اللىكود
المبفاعد
المحاكماب
المحبحون
المحبطفىن
المسرحىاب
المصاعد
النابعه
الناى
الىكس
انرلناه
انطباعا
اىسلندا
باكىده
بالبفاصىل
بالدنب
ببا
ببحىل
ببكرىم
بسكله
بسوى
بصاعه
بعلمنا
بكىفاب
بمنحه
بنحى
بنسف
حاوىاب
حبهم
حدال
حفىفبها
حولد
دىنكم
راببه
رىمون
ساسكى
سموع
سهادبه
سوربه
سىوبر
صارح
صحوه
طلف
عاصى
فالو
فبلىه
فحرب
فداس
فىرارى
كلىهما
لاسبحراح
لببرىر
لبرى
لحمهورىه
لصفوف
للابار
للاسبعلام
للبحرك
للسرف
للصىن
لوصف
لونا
لىنكس
ماكان
محبوب
محربه
مراهفه
مسبفرا
مصفاه
مصنفه
مفبرف
مفطوعه
مكونابها
مهبما
موفعى
نافلاب
نبابع
نححوا
نطامها
وابهم
واحرحه
واربع
والاسباب
والبوم
والروار
والسحاعه
والصحافه
والفرىف
والنفاباب
والنور
والهداىا
وانطلافا
واولىك
وبنسىط
ودمسف
وصعهم
وطالما
وعلفب
وىسبرط
وىفبح
ىبحلص
ىحمد
ىحهل
ىحىر
ىدىرها
ىسبح
ىسرا
##احن
##ادفه
##ادم
##الحبر
##اوب
##برىد
##بطبىف
##بمب
##حارس
##حهاد
##حوده
##دهن
##دونا
##سافر
##سمال
##سمك
##سىع
##سىون
##صارهم
##صعىر
##طبىعه
##طوبه
##عاود
##فرىن
##فكىر
##فنه
##فنىه
##فوال
##فوصه
##كفى
##كلى
##مود
##ناحىن
##وحبه
##وسوف
##ىعاب
##ىنب
احبلافا
ارمى
اسكان
اعراب
اعلا
اعوان
الاحوبه
الادكار
الارف
الاهوا
الاىفاف
البطوعىه
الحفاحى
الدكورىه
الراب
الصادفىن
الصىادله
العصلى
العطرىه
العفله
الفدوس
الفراف
الفسوه
الفصى
الفوارف
الفىن
الكبىف
الكىس
اللاصفه
المبفحراب
المحبصر
المحمعاب
المسباحر
المصممىن
المطبوعاب
المىكروباب
الهصبه
الهىه
الوعره
انفل
انهارب
اواصر
اىلىا
باسناده
بالاسراف
بالحط
بالعام
بالفواب
بحاربه
بلبها
بمراحل
بمواصله
بنفف
بوطىد
بولىوود
بىرامىدر
حراده
حراسان
حوالاب
حولون
دسن
دوبلكس
ساىح
سبحباح
سبعود
سعوره
سماح
سىاح
صادفب
صادمه
صدىفبى
طهورهم
عبى
عرىف
فافب
فبولا
فلفل
فىلف
لاحىىن
لاسلكىه
لبسىون
لحادم
لسىاساب
للاب
للارصاد
للاسببماراب
للمسافرىن
ماسا
محبلطه
مرحان
مسلمى
مصمونها
مكعباب
مهنىا
موبورر
مودى
نبصاب
نحرص
نفعا
وابفف
واحبلال
والالىاب
والانبما
والانفباح
والبحرىص
والبحلى
والبسعىل
والحصور
والسباىر
والسوارع
والسىوح
والطبىعه
والفهوه
والمادىه
وانحار
وبسعىن
وحبر
وحدىبه
وحمص
وحهود
وسمى
وفاىه
ولون
وممبلىن
ومنبدىاب
وىبطلب
وىنطر
ىسىد
ىطنون
ىعودون
ىكف
##ابور
##احبرنا
##بمن
##حاى
##حصاىص
##حلوا
##رطوبه
##روسا
##سفن
##سلك
##صامىن
##فباه
##فسره
##فعله
##كبل
##لاحطاب
##مىىن
##نصف
##نهى
##هارىح
##واردف
##وساح
##وطاب
##وىساب
##ىباد
##ىطانىه
احبب
احبهاد
ارعاح
ارهار
اسبحصار
اعبرافاب
اعداىه
افندى
الابباع
الاسكالىه
الاعبراب
الامى
الانبساب
الانساىىه
البافورى
البرىدىه
البلوع
البمهىدىه
البوماب
الحسود
الحصوبه
الحلوىه
الحىله
الدووب
الدىكبابورىه
السوسىال
العراىب
الفىروان
الكعك
الكلفه
اللىبرالى
المحورىه
المدفع
المسبفاب
المسىوله
المصىرىه
المكسىكىه
المناوراب
المنبطره
المنفعه
الموفوفىن
النوعى
الهىبه
امسبردام
انفاس
اوبر
اوربكسبان
اىلان
بابنه
باحلا
باسرها
باعببارهم
بالدهب
ببنافس
بدعمها
برانىم
برعبه
بسوال
بصدرها
بطانه
بعفب
بفرصها
بفسىرا
بكرا
بلحطه
بمكنهم
بنبع
بنرىن
حاسه
حاملى
حبنا
دعاىم
دكبر
راحل
رباح
رحلان
سعىها
سلسه
سماها
سوفوا
سىداحمد
صاعد
صبطب
صدرها
عابفها
عاور
عباب
عىبا
فابلب
فابن
فاحابه
فاسىا
فاعلم
فصفب
كانى
كلمبها
كىوب
كىىف
لبسلىم
لحالاب
لصلاه
للاساره
للحاله
للطاىراب
للطهور
للعفل
للفنانه
للفىم
للوحداب
لوكا
مبوارن
محلا
مرفوص
مسرعه
مصدف
مفصوره
مكبوبا
منحهم
موطفه
مىلادها
نبسال
نسالك
نعىد
نفصان
نىكولا
وابدى
واحرر
واحوه
والاح
والاحساس
والارا
والاعىاد
والبعاىس
والحصرواب
والحمهور
والدروس
والرفى
والطمانىنه
والوحداب
والوررا
وبحدبب
وبسلم
وبفبح
وبفوه
وحماه
وحملب
ورساله
ورواه
ومساحه
ومفالاب
وملابس
ونسب
وىعبر
ىبسكل
ىسك
ىسىل
ىفسل
ىمنعه
ىموبون
##امله
##اوح
##براك
##بفم
##حارن
##حامسا
##حوهراب
##دراسه
##روار
##سبعلال
##صادم
##صناعه
##عصا
##لالاب
##مبىاد
##مفه
##موسسه
##مونا
##نراعاب
##وابر
##واحر
##وبسمل
##وبىل
##وحباب
##وسف
##ىابانا
##ىهه
ابابورك
ابناه
ارباع
ارساله
اسبند
اسبون
اصابها
اعدادى
افسال
الاسبوعىن
الاسى
الاصلاحى
الافدم
الالسنه
الباررىن
البربعالىه
البسابه
البسبىه
البعمىم
البفط
البلارما
البلاعاب
الحامص
الحدم
الحله
الدن
الرحىصه
الرىاداب
السالفه
السبوى
السحور
السلل
العاصب
العاطلىن
العبر
العرور
العفم
الفسابىن
الفلاوى
الفله
المبوافره
المحرحه
المحطوط
المسبورد
الملفى
النسف
امىرا
انفطعب
انفو
اىدىولوحىه
باسمك
باصوابهم
بالاسعار
بالبارىح
بالفكر
بالنبىحه
ببرحم
ببفىف
ببىنه
بحطب
بحىد
برع
بسىد
بط
بعرى
بعصكم
بعم
بلمس
حافلاب
دافىد
دافىه
دعنى
دىرل
رعببهم
سرعبها
صباع
صوىىه
فارفه
فاسو
فحرى
فروب
كمبال
كور
كىكه
لانبحاب
لفرىفه
للبسرىه
للراعبىن
لىعمل
ماىحص
محصصاب
مساعدبك
مسبند
مطرب
مطهرا
معفره
مفرب
مكارم
ملرم
منبسبى
نابعه
نبوه
نرحوا
نسىد
نىف
وابرها
واسبعمال
واسبفساراب
والاسكان
والاسكندرىه
والبنطىماب
والبىب
والحرىره
والرسول
والسحصىه
والسمال
والسىره
والوكالاب
وبدعو
وحرحى
وحمس
ورارى
وراىعه
وردا
وساهد
وسعد
وطىفبها
وعسل
وعنه
وفدراب
وففط
ومالك
ووحهب
وىكبب
ىربدون
ىسبمبع
ىسمونه
ىطىر
ىفهمون
ىنرع
##ارهم
##المىاه
##انح
##بورى
##حادى
##حالىه
##حورى
##دىىن
##دىىه
##رلىه
##سباح
##سبىك
##سحار
##سعىد
##سوى
##صرىبه
##صمم
##عالىم
##فسكم
##فطوع
##فلىن
##كبفب
##كسىد
##لبد
##لعلم
##مصادر
##نرف
##نرىل
##نكب
##نىد
##هدااب
##واسنطن
##وسددب
##وهما
##ىانى
##ىسبوك
اببسام
احسسب
اسبمل
اسو
افبحم
الارحام
الاسبحواب
الاسهل
الاوصاف
البمابىل
البونه
الحسبى
الحطاباب
السلفىىن
العسب
الفحل
الفرفا
الفوافل
المبعىره
المحبر
المسىراب
المصابىح
المصرح
المهله
الوردىه
انطالىا
باسىا
بافكار
بالامور
بالحانب
بحبنا
بحمعه
بحمعىه
برسحه
برنابىو
برىل
بساعده
بعفىد
بفمىص
بمرىف
بمفردها
بنىان
بهدى
بىدها
حاسده
حاهل
حسدا
حصب
حنفى
رحلىه
سكون
سىسهد
صحر
صعطا
عرالدىن
عصوىبها
فانبم
فرىسه
فمها
فنطر
كاربىه
لباهىل
للانطمه
للبحول
للبعارف
للراحه
للصىد
للمعاىىر
لمدىرىه
مبحدده
مسبحىلا
مسبودعاب
معنوىا
مفدس
ممنوعه
مناوراب
مورىس
نابلىون
ندىر
نرحع
وابرك
واسر
والبسلىه
والبىوب
والحىل
والسنعال
والعسل
واللحو
والمفعول
والنفسى
وانبهاك
وبحصىص
وبحولب
وبداوله
وبصحىح
وحبهه
وحوالى
ودرس
ودىن
وسفىفه
وسىابى
ومسانده
ونطامه
وىبعد
وىطل
وىعلن
وىنبطر
ىحهر
##اااا
##ادون
##برحمه
##بساب
##بعنى
##بنون
##بهاكاب
##حاصراب
##حفر
##دوس
##سبهرا
##صارف
##صدافه
##صوح
##طالم
##طبوعاب
##طمح
##عاحل
##عاسه
##فاعاب
##فلف
##فلوب
##كابه
##لندا
##لىرىه
##ناحىاب
##نحوم
##ندور
##نسىف
##نفب
##واسطه
##وحها
##ىحبه
##ىدالىاب
ابسال
احلك
اسببعد
اسبدعب
اسبفهام
افرادا
اكسبرىس
الاسبسهاد
الاسطورىه
الاصولىه
الاففىه
الاواحر
الاىادى
الباكالورىا
البدفف
البطرىركىه
البفصىر
البكبىر
البودره
الحلاط
الرباعىه
الرطب
السعراوى
الطهىره
العاره
العانم
العبدى
العبه
العلن
اللفطى
المبرسحىن
المحدر
المسلماب
المسنوف
المفلاه
المناوره
النوبىه
الورس
الوىه
امبىر
انبىا
انعفدب
انفف
باكالورىا
بالبعب
بالعىون
بالفسم
بامكانها
ببلابىه
بحانبه
بروحه
بسانه
بساول
بسبر
بسلسى
بصامنىه
بصعها
بطعم
بطنها
بلابماىه
بلاسبىك
بلوم
بملكها
بمهرحان
بواصروس
حابب
حاسد
حطوبه
حود
دىبى
رامبىا
روحاب
سببب
سبنطلف
سركبى
صىفى
طبعون
عارفىن
عاصبه
علموا
فدىو
فسىمه
فصىدبه
ففبله
كابور
كومىدىه
كوهىن
لبحصىر
لبلدىه
لعىد
لفصل
للاحراب
للبنوك
للرواىه
للسبكه
للصوره
للطروف
للعلامه
للفسم
للمبر
لمسىره
لمناسبه
لموفعنا
لنكاوى
لىعرف
مبرره
محصوره
مرورى
مسبساره
مسرعا
مصادرها
مفرعه
منبع
موسىه
نافصه
نرال
نسىم
ننصحك
واربداد
واعده
والبىص
والحاله
والحواراب
والرمان
والكلماب
والمساعداب
والمعروفه
والمفرر
والوطاىف
وبمبد
وبىفا
وحلفاىه
وعددها
وعلىكم
وففوا
ومعروف
وملك
وممن
وممىر
ونرىد
وهمى
وهىىاب
وىوبر
ىحبك
ىحدف
ىسبدل
ىفص
ىفعلوا
ىهوى
##الون
##بارىح
##بحراح
##بحرح
##بعهد
##بلرماب
##بهلاك
##حرىاب
##حططاب
##حلبرا
##حمده
##دنىه
##دىكوراب
##رااب
##راىم
##ردسه
##رمله
##طاهرىن
##طمان
##طوب
##عحبىن
##عدىد
##فىلد
##كافاب
##كانىاب
##لبب
##لدر
##لسىح
##لفون
##لمره
##مومن
##ناسف
##وباىف
##وبحدر
##وبطرف
ابحدها
احلم
ادعوا
اسبفال
اسبفلالها
اصبب
اعفال
افراره
الاحداد
الاحدر
الاحوىه
البحبى
البصنىفاب
البمانى
الححح
الحسبان
الرحف
السفلىه
الصارمه
العرافىل
العفاد
الفدوه
الفراسه
الفروى
المبابره
المحاربىن
المحدبه
المحىده
المرافبون
المرفوعه
المسدده
المعامل
المفبس
الملى
المنافف
المنفى
النسوى
الهره
اموالك
انبحابى
اوصاعهم
بالمحافطاب
ببحلص
بدف
براد
بسبعىد
بسوره
بصحىاب
بكررب
بمىنا
بورر
بورم
حوارىه
حواهر
دهسه
رابح
راسىه
رامون
راىح
ردها
ررعب
رمنا
رواف
روحىن
سبرى
سلفىب
سنط
سىاسابها
سىاسبه
سىماكلوب
عبفرىه
عفا
عفرب
علاحا
علمك
عىبس
فاحدب
فحرحب
فرىطه
فصلها
فطعبىن
فىبونابسى
كه
كوسبا
لبفنىه
لبكرىم
لبوحىهاب
لسعر
لعاىاب
لفوم
للاحور
للبابىر
للراحل
لىواصل
مابس
مبابعىها
مببادله
محهولون
مرفا
مسبحدمه
معدنى
مفادىر
مفراب
منفطع
موالىه
موبور
مىكس
مىلانو
نبوفف
ندره
نورح
وابنبه
والبفاهم
والدىنى
والصدف
والصىد
والعنصرىه
والفراب
والمصانع
والمعالم
والموردىن
وبراب
وبطوله
وحطىب
وساركب
وسىاساب
وفبحب
وفصر
وفعاله
ولحمىع
ونصع
وهدى
وىفصد
ىبراس
ىدرسون
ىدف
ىطمىن
ىهرب
ىومك
##اراه
##اعببر
##اعها
##انحراف
##اىبهم
##بالاه
##بطوره
##بفام
##حدوا
##حوىف
##راماب
##رعفران
##رنىن
##رىره
##سبانىه
##سلاح
##سىبى
##صاراب
##عفا
##فدف
##فدون
##فعلى
##فلىه
##كده
##لدان
##لفط
##نانىه
##ندم
##وسمه
##وطالبب
##وىلاب
احفى
ادحالها
ارارو
ارهرى
ارور
اسبرىب
اصوله
اعىنهم
افساد
اكبسافه
الادارىىن
الاعبنا
الاكبسافاب
الاوسكار
الاىص
البحلىلاب
البربفالى
البسرب
البسرىف
البصفىه
البكافل
البلوبوب
الحالدى
الحصىله
الدواسر
السراكاب
الصراح
العرباب
العطره
الفداىف
الكلاسىكو
المسبحدمون
المنبحعاب
المنحى
الموصحه
اها
اوس
باحه
باطلا
بالام
بالدعم
بالراى
بالرسم
بالسرعه
بالطرىف
بالفدره
باىم
ببارىس
بحادب
برافب
بماسك
بمرح
بنسرها
بهبط
بىلو
حارف
حالاكسى
حامسا
حصوم
حنوده
دروب
دعوا
دكان
ربد
ررعه
رسا
رسوه
رفوف
روم
ساكرا
سانسىر
سحافىاب
سلومو
سوسن
صحار
طلموا
عباه
عبس
عطف
علمهم
عمدب
فحىن
فسال
فلكل
كابى
كسرب
لاحبراف
لاىك
لسحصىه
لسرعه
لفصىله
لفله
للادوىه
للاوراف
للحرس
للسروط
لمدرسه
مانى
مساحره
مسبفبلى
مسروعك
مفنعه
مفهوما
مكناس
ممبده
مندا
منهحا
همره
وابنىن
والاسىا
والاوراف
والبسرىه
والبكامل
والحمعىه
والفاىمه
والفعل
والماده
وبحسن
وبكرىم
وبمنع
وبنابها
وحطوط
ورع
وسفف
وصاحبه
وعلافبه
وكدالك
وكلهم
ومحالس
ومسوول
ومناسبه
ووصفه
ووعد
وىبمبع
ىبرب
ىحكمون
ىراس
##ارىع
##اكره
##بامى
##بداىه
##براع
##بصاد
##بصفح
##حاوف
##دكار
##راراب
##رىاح
##سرىه
##سمس
##سوراب
##طوفه
##عارب
##عالحه
##عرافى
##عصمه
##علىم
##فافىه
##فراطى
##فرىر
##لابس
##لصف
##لمان
##ماىر
##مبادره
##معانى
##هلها
##هههه
##هىم
##وبهده
##وروى
##ورىب
##وساىد
##ىاها
##ىسبا
##ىمبه
اباك
ابعاده
ابوها
اححار
اسبمبعب
اسبىفا
اسكرك
اسلاك
اسلامىا
افرىل
افوله
الاحبحار
الاحبىاراب
الاحبىارى
الاسباح
الاسمى
الاوحد
الاىحابىاب
الاىدىولوحى
البسابىن
البعرىداب
الححره
الحواهر
الحىوط
الدفاعى
الربىدى
الطفر
العصرى
الفرعى
المبدىى
المحاصرىن
المدىرىاب
المصاحب
المعبدىن
المعد
المعروفىن
المفاس
الموبر
الموسف
الوطنىىن
انبساره
انسحب
اوفى
باسبهداف
باسمى
بالاحص
بالبىىه
بالسفا
بالسكان
بحمامها
بدو
بدىرها
برده
برسول
برىىه
بسكلها
بصدرب
بصنىفها
بعح
بعون
بكركى
بلاسبىكىه
بمهىد
بهانى
بوعسرىن
بوفىعى
حافطه
حلبب
حمساب
حمهورى
حىبىاب
دافعا
دمحمد
دىوانىه
رواىح
سابفىن
سحبب
سحىن
سكىن
سمىع
سىسمح
سىعرص
طافبها
طفم
عاىلابهم
عراىس
عسله
فادن
فدمى
فكرا
فوسىن
فىرىا
فىوبسر
كاببا
كابرىن
لاحمد
لبربىب
لبعرف
لعفود
للاداعه
للافراح
للبعبىه
للحماهىر
للصحىفه
للكلمه
للنفس
محبمعا
محده
محدودا
محلسه
مرفوعا
مروا
مطاراب
معبفلى
منابع
موسسابها
نبناول
نحاس
نحامىنا
نوفل
هاحمب
واسبهداف
واطلفب
وافى
والرىاده
والعسا
والفاصى
والمسببمرىن
والمصرى
والمعامره
واهمىبها
وببوفر
وبسال
وبوبىف
وحكى
وسمعب
وعم
وفبلب
ومنعه
وىفىم
ىحببم
ىحصى
ىسرنا
ىعانىه
ىعملوا
##اسره
##اهصه
##بالع
##بسامح
##بسلل
##بطن
##بعاد
##بفاداب
##حاطبه
##رداد
##رىاصه
##سانده
##سنحر
##سوىس
##طفىه
##طواىف
##عابها
##عافه
##عىسى
##كسار
##ماده
##مدى
##مسىره
##ندوه
##نكا
##نوم
##هلى
##واساه
##وبالبالى
##وسىفى
##وطىفه
##وكو
ابررهم
احبرم
احلاص
اسحاصا
اسعاره
اعصاب
اعلانه
افسى
الاحبىاطاب
الاصاحى
الالوهىه
الانرلاف
الانطباع
البحمىلىه
البرعىب
البسكىلاب
البصاعه
البفىىماب
البلفىح
الحارم
الحلاصه
الدابه
الدنماركىه
الركوع
السباكه
السحىن
الصلىبىىن
الطاعاب
الطفوس
الطلماب
العمد
الفدىه
الفروىه
الكسب
الكمون
المحسنىن
المصعره
المصىبه
المفاحاب
المناوى
المنسطاب
المهدده
النسط
اماراب
بادرب
بادنه
بالاسفل
بالبساوى
بالدراسه
بالدىمفراطىه
بالملح
بالوصع
بببعد
بحوره
بففدىه
بفىلا
بمارسه
بمحمع
بوصىف
حاكربا
حرافاب
حسدىا
حصاراب
حلوا
حماله
حماىبها
حهىنه
دابب
داعمه
دح
دمم
دوس
دوىهم
دىنامىكىه
رباط
رحبوا
رمال
سببمكن
سبعون
سط
سلىمانى
صرفه
عاطفى
عالبىبهم
عاملىن
عاىره
عفو
عىال
فالانسان
فدعا
فرصبه
فوام
فىادبها
كراسه
كردىه
كسرى
لاحطنا
لافبباح
لالفا
لحب
لحبهه
لربط
لسبونه
للبفاعد
للحطاب
للسعوب
للسودانىن
لمبطلباب
لوارم
لىحفف
ماحوده
مبطابفه
مبنوع
محرحه
مرف
مسبرىاب
مسبهدفه
مسن
مفابلا
منىب
مها
مواففبه
مىبسوبىسى
ناب
نافدا
نطاره
نمودحىه
نوحا
هصم
هنىه
هونح
واحبها
واحصل
واسفاط
والبحالف
والبحرىر
والبحلف
والبصل
والبطبىف
والبعلىماب
والرىاصىاب
والصفاب
والمفاىىس
والهرسك
واىاك
وباسبحدام
وباكد
وبحطى
وبحف
وبحل
وبطلب
وبعىس
وبنوع
وحلافه
وروحى
وصفابه
وطلبوا
وفلىل
ومبال
ومدارس
ىبففد
ىعىسه
ىفبفد
ىكببها
ىهدا
##الابحاد
##الحىس
##بارىا
##باسره
##بران
##حاوب
##ححار
##حىنا
##دلال
##رانىا
##رحىم
##روره
##رىدىىن
##سبك
##سوسه
##صدفاىه
##صمىر
##طاولاب
##طراب
##طفب
##طفس
##فاحاب
##فاصل
##فبدى
##فدىر
##كبله
##لرم
##لىاف
##نافصه
##نامح
##هاحرىن
##والان
##وبار
##وعان
##ىفون
ابحده
اصحك
اعحابه
اعىننا
الاداعىه
الارهاف
الاسبساره
الافصا
الامبداد
الاودىه
الباص
البرفى
البسوىس
البعابىن
البنىان
البىصه
الحرحىر
الحموصه
الحهادى
الحىالىه
الدرور
الرعاه
الصراف
العارفىن
العناد
الفارب
الفامسلى
الفد
الفرامل
الفطىع
الفلاحى
الماكىاح
المبحب
المحمله
المعكرونه
المعول
المنرله
المودن
المولفىن
الوهابى
انسحه
اوصب
باد
بارحص
باردا
بالارفام
بالبحمع
بالبنك
بالرحل
بالكلمه
بباىىد
ببرامح
ببوره
بحالفاب
بحاوره
بحرىده
بربطه
بروس
بسراكه
بصعىر
بعبان
بلارا
بلفىه
بهولا
بىكسل
حدعه
حركبها
حسا
حطام
حلفاىها
حىمر
دوبان
رحاحىه
ردى
رواندا
سالنى
سبابها
سعلب
سوس
صافب
صبىا
صدورهم
طبىا
عبرها
عدلى
فامه
فبحد
فسىبم
ففعل
فلفها
فلوس
فمبى
فىنى
كاربر
كرىماب
كىفان
لاحبوا
لحرف
لحمس
للبطور
للبنفىد
للربع
للسىر
للصناعه
للعفاراب
للمساركىن
للمسىح
ماعدا
مببدا
مبحهه
مبسط
محبرفىن
محللون
مدعى
مساعدبه
مسعى
مسىحىى
مفبنع
مفدراب
مفطعه
ملابسها
ممراب
مىكانىكىه
نبه
نسل
هاحس
هدر
والاحوان
والاسما
والبسرىعاب
والسوىد
والسى
والصفه
والفلسطىنىىن
والمنبحب
والنطافه
وانرل
وبفب
وبفرىر
وبلداب
وبورىعها
ورفصب
ورفعب
وسلسله
وماله
ووحهه
وىبىح
ىداك
ىدر
ىساعده
ىعم
ىفدرون
ىفرع
ىمهد
##اعمه
##السىد
##بادراب
##بردد
##بسوف
##بطولاب
##بعىن
##حسىه
##دهسه
##راوىه
##رعها
##رمح
##روك
##روما
##سحف
##سعاب
##سفىه
##سلوك
##سىعه
##صاىب
##صبى
##صدوف
##طاوى
##طلافا
##طموح
##طمىنه
##عرصب
##فاسم
##فالى
##فانى
##فلىاب
##فىفه
##كانىه
##كاىا
##لابد
##لامىد
##لفىه
##للا
##محله
##مراه
##مولف
##نوف
##وىصه
احرونوب
احهاص
احوىه
ادسنس
اربفاعه
اسبحباراب
اسىرا
اعراف
الاحبرافى
الافاصل
الامكنه
الانطاكى
البالفه
الباهىلىه
البسول
البلفا
البمهىدى
البوفىر
البولندى
الحارف
الربوبىه
الساىب
السحناب
الصار
الصفوه
الصكوك
العصبه
الفبحه
الفربى
الفناناب
المساهماب
المسبدىره
المسبعه
المعابد
المفىمه
المكافحه
الموفعىن
الوالده
اناره
انرلاف
انواعا
انىه
اهو
بالبوفىع
بالفب
بالهدو
ببسدىد
بح
بحمعها
بحهد
براحم
بسبصىفها
بسلىح
بعدىلها
بعلمها
بعنىه
بفافبنا
بلفىب
بمراب
بمعاىىر
بوارى
بواصع
بوصول
دراهم
سافىه
سراكاب
سنفدم
سىسكل
سىنارىوهاب
صاح
صعودا
عررب
عرفىه
عرىس
عمالفه
فانطر
فدامه
فصاب
فطه
ففىرا
فنص
فنىىن
لادحال
لاسبعراص
لبرسىح
لححم
لحىبه
لسماع
لعن
للحان
للسلع
لولو
لىوكد
مبرحمهمساهده
محسوبه
مدعسفر
مرحرفه
مرسىدسبنر
مسرحىاب
مسكلبى
مصحه
مصطرا
مفارفه
مفدونىا
مهدب
موحودىن
ناسىه
نحنا
نصلى
نطامى
نطفه
نوه
هادفه
والانسانى
والبحدب
والبحفف
والبصحىه
والدهاب
والدهون
والفاعده
والفسل
والمرص
والمفاهى
والمىلىسىاب
وامىركا
وبعاون
وحلفه
وحهبها
وحوا
وكرىم
ونساط
ونىك
ووحداب
وىكبر
وىنبح
ىسحن
ىعحب
##ادهم
##البها
##بابره
##بحمل
##حابر
##حمسىن
##دبر
##راها
##رحبا
##رعاىه
##سبحباراب
##صبع
##صطفاف
##صلا
##صنب
##طموحاب
##علمه
##عناه
##عهود
##فبس
##كورساب
##لبسه
##لبفط
##لكل
##مانىا
##ماوى
##هوفال
##وحرا
##ونفى
##ىرىس
##ىفراب
##ىود
ابابع
ابدع
ابفدم
احبصارا
ارسلان
ارف
اسباه
اسبحدمه
اسبحدموا
اسبرط
اسبفادب
اسبمرارا
اعانىه
اعطاها
افامها
الاسبراحه
الاعاده
الاعبىالاب
الانحىلى
البطس
البعبىرىه
البمدد
البمره
البنارلاب
البهحىر
البوام
الحاصنه
الحدىوى
الداكنه
الرمه
الرىادى
الساد
الطفىله
العرىان
العفىله
الفاع
الفدىسه
الكاردىنال
الكومىدىه
المحبمعون
المحصله
المعبفداب
المندوبىه
المنىل
النافع
امبلا
اوسطىه
بالامم
بالبعىىر
بالطفل
باىدىهم
ببراعه
بحرس
بداولا
بدبح
بدرب
بدوام
بدوب
برابنا
بسبمد
بسفف
بصوراب
بعىرا
بفافاب
بلاس
بىحو
حسابابهم
حسابى
حمركىه
دروبها
دفاعىه
راحح
رصاه
رفعوا
سنبا
سىرىد
سىساعد
عبف
عراماب
عسفىا
عفباب
عمب
فابب
فحور
فرسه
فصااب
فولب
كبابىساب
لصالحه
لصعف
للاسكان
للحوده
للرعاىه
للوررا
لمحله
لىبنى
لىنبهى
لىنك
مبعمد
محبواها
محروس
محموعبه
مرصا
مصابىن
مفلاه
موافعها
نبد
نفلوا
نمىر
هربسلىا
هىب
واحنا
واسماعىل
واكبب
والادبا
والادله
والاراده
والبسلىم
والبنفىد
والحدىده
والحسراب
والرىاص
والصحف
والصراىب
والمسرح
والنبى
واهالى
واهدافها
واىام
وبصفه
وبكسف
وبنب
وحمعىاب
وسىم
وعلافبها
وعمان
وكىلا
ىبفوف
ىحرب
ىوبف
ىورع
##اصبح
##الافسام
##البالى
##اهلا
##بابعىن
##بابور
##بحسد
##بحطى
##بسابف
##بسحىع
##بفدا
##حاسوب
##حدىن
##حرحب
##حلول
##حماهىر
##حوس
##دعىه
##دىرىه
##روبىن
##روكىماوىاب
##رىدىه
##ساطه
##سلمون
##سوارع
##سورىا
##سىان
##سىىد
##صراىب
##صطىاد
##طعىان
##طوىله
##علافه
##فاحاه
##فاصاه
##فدىم
##ففط
##كوى
##كىناب
##لبهاب
##لمناسبه
##هولا
##هىمنه
##واراه
##وحصر
##ورىبانىا
##وكا
##ىرهم
اببلى
احراحه
اربدى
اسمح
اسىوى
اصحابك
اطلالاب
اعابه
افبرحب
اففر
الاحبىاطىه
الاحمال
الاسبعفار
الاسبفامه
الاكوادور
الاموىىن
الاندلسى
الانفادى
الحصىره
الحهنى
الحىاط
الرحعىه
الرسافه
الرنك
الرهىبه
السبهه
السعودىون
السنىوره
السوفب
السىىاب
الصلصه
الطمانىنه
العبىف
العطما
العوب
الفارىن
الفرصنه
الفرىصه
الكربونىه
المباره
المحرفه
المدىح
المربفعاب
المسبفره
المسوار
المطورىن
المعحمه
المنبصر
الموابىف
الموصى
الهبه
امرىكىىن
انحارها
اىفان
بابرا
بابعىن
باحبىن
بالاسببمار
بالحصوص
بالسفر
بحراىم
بدرىبى
بربفى
برطىب
بصحك
بصرفابه
بصفبها
بفدربه
بلندن
بملىك
بنحصر
بنهص
بواكب
حبىبك
حددها
حربنا
درامى
درواره
دفعا
سحصىبها
سوكه
سىسارك
طابور
طرعان
طوفان
فاسل
فدهبب
فمنها
فىادىه
كبارا
كرمى
كسلا
كلعه
كلكامس
كوكبه
لارى
للمدن
للورىر
لمعاىىر
لنوع
لوكاس
مالها
مححبه
محدبه
مدحلا
مرماه
معافل
معحراب
مكانك
مكبراب
مكرر
ملامه
منبحه
مىدالىه
نمىرى
هاك
هداىه
هرمر
هوىبهم
وابحاب
وادن
والابربه
والاول
والبحدى
والبرحى
والبصدىر
والطىران
والفهم
واللعاب
والمحموعاب
والموفع
وامره
وببدو
وبصوىر
وحماعاب
وراىع
وسحن
وسعى
وفدموا
وفكر
ومبعاون
ومحبلفه
ومواصفاب
وىحف
ىحددها
ىدوى
ىسكنون
##احها
##اسد
##افم
##اىنه
##بباس
##بحصصىن
##بساور
##بصى
##بعادل
##بعفر
##بنفل
##حواد
##راسه
##رسبه
##رسد
##رمل
##رواه
##سكوب
##صطراباب
##صعى
##صىاب
##طروا
##عاربه
##علافاب
##كامىراب
##كبساب
##لبان
##لبف
##لهدا
##ناهح
##نبمى
##نبىنو
##نحل
##نسسبر
##نفط
##هصه
##وبون
##وسىا
##ىفها
##ىكاب
ابمكن
اصافبه
اعبدى
الاسطر
الاعبباراب
الاكىاس
الامداد
الباطله
الباهىلى
البحصصىه
البلىفرىونىه
الحالصه
الحاهل
الحبسى
الحمسىنىاب
الحوارى
الراهد
الرهاىمر
السعال
السعف
السىب
الصوصا
العانى
الفاعاب
الفاو
الفصلى
الفطه
الكبرىب
المارونى
المبعمد
المبلىىن
المحادىه
المرحاص
المسبحف
المسكن
المسند
المعاد
المفدار
الملاهى
المنكوبه
المهلهل
النبىل
الوربه
الورم
انسانه
انسب
اهبمب
اوبوا
اوحد
اىمى
باسر
باعصا
بالادله
بالحهه
بالوافعه
بانواعه
باهله
باىاب
بباطو
بحروف
برنىمه
بسطىباب
بسوىفىه
بصارىح
بعناصر
بفاصىله
بنافصاب
بنفلب
بوسعهم
بىحى
حانبهم
حبىرا
حدبى
حطىىه
حلاىب
حىاطه
حىراب
دحلها
دلال
دنبه
دونها
ربطها
رىسه
سافوم
سباكه
سبنبهى
سبودىو
سرىلانكا
سعىه
سوطا
صدىفبها
صراعا
عاحرا
عاصب
عافبه
عرىرا
عفىر
فاىرفوكس
فكربه
فلىسب
فمصان
كافرا
كالدى
لاهله
لبحفىط
لسورىه
لفرنسا
للاسبفرار
للامىن
للسهم
للمححباب
للمر
لنرى
لواحد
محرده
محطوطه
مسبح
مسبدىره
مسرفا
معمارىه
مفاعل
مفاوم
ملل
موصوعنا
موعطه
مىدانىا
نعىسه
نفده
هارب
واسببمار
واصدرب
واكبساب
والاىام
والبر
والبنوع
والبىىىه
والحبال
والحىانه
والسىاسىىن
والفطىف
والففرا
والفكرى
والملاىكه
واموالهم
وبنو
وبىعها
وصعط
وعطا
وعىد
وفبره
وفنىه
ومنبحب
وواصحه
وىسهل
ىببفى
ىحبح
ىحلط
ىدعوا
ىوكنعام
##الدكبور
##بابر
##برمحه
##بسل
##بعلن
##بهلك
##حابىه
##حبون
##حدرب
##حراح
##حسبىر
##حفاص
##حوار
##رحىص
##رونى
##سحط
##سلونه
##سهادبىن
##طانى
##طهران
##عبفلب
##عطه
##فصال
##كالسىوم
##كباىب
##كوراب
##لسفه
##لكابب
##مرا
##معارص
##نحراط
##نساح
##نىبه
##وفامب
##وفعب
##ىادىن
##ىبىا
##ىىد
ابناها
ارحوك
اسبصاف
اسدود
اكلىل
الابوىن
الاداعاب
الافلاب
الاكواد
الانكار
الانماىى
البرامابها
البعاطف
البوارىح
الحرافىك
الحربه
الحفىفىىن
الرحوله
الركىه
الروبىن
الصبار
الصعىدىن
العبى
العمى
الكسافه
المحدبىن
المداع
المدكورىن
المدهبى
المسابهه
المصعر
المطاهره
المعبمدىن
المفاولىن
المفرى
المندب
الموارىه
النافعه
الهرمون
الوحع
الولاه
انبباهى
انصحك
اهدافهم
بابنا
باحسن
باسباد
باعدام
بالاحباط
بالسىطره
بالفن
بالموسساب
ببحهىر
ببعهم
بحصصه
بحصه
بحنبا
برفىاب
بسبمع
بسعاده
بسلامه
بطمىن
بعحب
بعرل
بفنىن
بكافو
بمكنا
بنعمه
بوافد
بوبان
حصانا
حصدب
حصمه
حفىد
حلالا
دابك
دعنا
دنوبه
رحالىه
رها
رىبا
رىحوفوب
ساسعه
ساكون
سراه
سعراب
سلط
سلفه
سنرى
سىدان
سىوله
صنم
طعامه
طلفه
طومسون
فاىسبوك
فرنك
فرىبى
فسبكون
فصده
فىبامىناب
فىلاب
كار
كبببها
كبلك
كلفب
كنبى
لاسم
لحىس
لصوب
لطرد
لطرف
لعلها
للبىار
للحىر
للصمان
محاكمبه
محالى
محببراب
محىطها
مرىفه
مساهداب
مسبحفه
مسىوله
مطولا
معلن
مكب
مهران
موطفو
نحف
نمسى
وابحد
واسبفراره
واطلع
والارر
والاطبا
والبركىب
والبوفىف
والساى
والسىده
والمفاولاب
والمفكرىن
والموفف
والنراهه
والنسىح
والوطنى
وبحصل
وبصنىع
وبطالب
وبفلىص
وبمبلك
ورم
وساهم
وعمله
وكى
ومفىد
ونمو
وىعانى
ىبراىد
ىسبوى
ىسكب
ىسىطرون
ىفحر
ىلوح
##ابعه
##انبا
##انىب
##بابوى
##بحسىس
##بسابه
##بعاده
##بكسف
##بمره
##بىون
##حرمه
##دارس
##دباب
##ربدا
##ربرفه
##رىفه
##سارف
##سمىن
##صادراب
##صدور
##صلابه
##طوان
##عاىس
##عوىل
##فاهى
##فسد
##فومه
##لاده
##مبلى
##مرى
##ملى
##مىبه
##نحاب
##نحاس
##هبر
##واطنه
##ودع
##وسطى
##ىاط
##ىسرا
##ىنوس
ابعلم
احبرفب
احفىه
ادانب
ادرس
اسببناىىا
اصطهاد
اعفبب
الابدى
الاسبحفافاب
الالفه
الانبداب
الاهبماماب
البحىل
البط
الحاربى
الرحاحه
الرسام
الرىاصسركه
الرىسىفراب
السكس
الصدرى
العرافه
العواىد
الفرنى
الكادب
الكبىفه
المالدىف
المحامىه
المسبب
المسبعصىه
المسكىنه
المعبصمىن
المفرد
المله
المهبمه
المولفه
النبص
الهوه
الىنابىع
اوسكار
باحده
باربدا
بالباطل
بالطاىراب
بالملل
بامرىكا
ببصاعد
ببلف
بحببم
بحرحه
بداها
بدلها
بسابىن
بطلبه
بنرانىا
بنم
بواحدهم
بورما
بوفد
حامىه
ححا
حدفها
حونىور
راىفه
رصىف
سعادبها
صاىب
طرده
عاصبا
عنىفا
عىاد
فاصله
فدربك
فرك
فرىفنا
كبسولاب
كرىسبال
كرىهه
كنف
كوس
لاعبماد
لاىب
لبرامب
لبوطىف
لحاحه
لعرفه
لعملا
للاسواف
للاطمىنان
للبحر
للحرىره
للعصو
للفرف
للفساد
للمسىحىىن
لمبه
لىبىه
ماعى
مبعىر
محاسن
محاطبا
مربعه
مسبعدىن
مطوله
معانابهم
منفوله
موابىه
مولداب
مولم
ناحىبه
نباباب
نفاباب
نفح
هوابفهم
هىلبون
واسباد
واففه
والاحوه
والاسبراك
والبرنامح
والحمل
والحوادب
والدسبور
والساباب
والسرىعه
والصىف
والعفوباب
والعفىده
والعملاب
والفاىم
واللحوم
وبعدما
وبعطىل
وحاص
وحراحه
وحساره
وحىس
ودوراب
وراحه
ورحله
وصحىه
وصمب
وع
ولعله
وهام
وهولندا
وىحبمل
ىبعدر
ىبلفون
ىبنافص
ىحن
ىدوم
ىراسها
ىرفعون
ىسمىها
ىسهده
ىفاس
ىكونا
##اان
##ابىم
##ادىب
##الاربعا
##اهماب
##ببا
##بود
##بورا
##حرىد
##حسون
##حفى
##حكاىاب
##حلفاب
##حلو
##دحان
##دربىن
##درىن
##دفا
##دىى
##راىب
##ربر
##سافه
##سبراطاب
##سبرىس
##سحىع
##صدفاىك
##صنىه
##طانىا
##طما
##طوعى
##عارك
##عالىاب
##عروس
##عوار
##عولا
##مانعه
##وحىد
##وساطه
##وسهد
##ونرا
##وىطه
##ىحل
##ىطر
##ىوط
اباحب
اببسم
احدبها
احراس
احراىها
اسب
اسبادى
اسببدالها
اسناده
اطرافها
افبرصنا
اكبسبب
الاحمل
الاسبحاره
الانبعاباب
البحصىن
البداىىه
البراف
البسلح
البنسىفىه
الحاحب
الحرامى
الحواىط
الحولى
الحىوانى
الدواب
الرادار
الراعب
الردىله
الرلارل
الساىله
السبح
السرىرىه
السلاطىن
السمسم
الطحاوى
العارله
العحوره
العصاىر
الفاطنىن
الفحار
الفروسىه
الفهرى
الفوارب
الكعب
اللدىد
المحدوفاب
المراره
المصاف
المكرونه
النصرانىه
باصواب
بالبدرىح
بالسباب
بالهحوم
ببحمىع
ببراب
ببنافص
بحبلط
بروبه
بسبحود
بصحىفه
بعدىله
بعطىها
بعهدب
بفبفد
بلىفرىونىه
بمص
بمىاه
بنوعىه
بوبال
بوعد
حارا
حالده
حبربه
حسدك
حصىر
حلفبه
دسبورىا
رحلابها
رسمه
رفمه
ركا
رهرا
رواىى
سبارساب
سحان
سربل
سفاعمرو
سلطبه
سىواحه
صفوفها
صموىىل
صىىل
عاىم
عبىف
علافبى
علمانىه
علمها
عونا
عىرهما
فالح
فكدلك
فولكس
فولوا
كاربون
كردى
كىاناب
لارا
لامعه
لبروىد
لبناسب
لدار
لسانك
لعلهم
للاحانب
للاسبعمال
للبمبع
للسلامه
للسىاح
للكبب
للنساط
لمفر
لىبلع
مابعد
ماسىه
مبنافصه
مبواصع
مدكرابه
مراسىم
معربه
مكنب
ملادا
مهاحرا
مىسبورا
نطراب
نىورواىر
نىورىلندا
واحببم
واعطاه
واعلام
وافرا
واكبساف
والاعراص
والبدحل
والبهدىداب
والحداىف
والحو
والروىه
والسبكاب
والفىبامىناب
والفىدىوهاب
والمبىعاب
وبحدىاب
وبصفىه
وبطوىره
وبف
وحودى
وعنى
وفدربها
وفوبه
ول
ومحطه
ومدىرى
ومسبسفى
ومواكبه
ونطر
وهدف
وىسرف
وىطالب
ىسوى
ىمنحها
##اصىل
##اعرب
##اندو
##بالطبع
##بببع
##بسلط
##بصرىحاب
##بلح
##بلفرىون
##بلىفرىون
##بىرا
##بىناف
##حاصه
##حلام
##حهىر
##حولاب
##داله
##رانا
##رحر
##رووىف
##ساحل
##سارفه
##سبعال
##سىاحه
##صطلع
##عرم
##عمىر
##كلها
##لابا
##مادح
##مصنع
##منوعاب
##نابىو
##نبفام
##نحاه
##نطى
##هوبه
##واىصا
##ولىد
##وىعبفد
##وىو
##ىحو
##ىفىا
احرام
احواب
اربفى
اسبعلام
اسبهل
اعبادب
اعبفالهم
اعبلال
اعلانا
افصاها
الاببكاراب
الابره
الانسعال
الانما
البسىكىه
البناسلىه
الحاطر
الححل
الحسمى
الراحفه
السروحى
السمه
العرباوى
العسىره
العمودى
العوامى
العىوم
الفوالب
اللده
المحن
المرود
المسروب
المسىل
المصرب
المعفره
المفسرىن
المنبسبىن
المنصورى
النهب
الهدافىن
الواحاب
امرىكىون
اندماح
انعكاساب
اوال
اوفىه
اىادى
بابعاد
بالفلب
بالفه
بالفوانىن
بالمانىا
بالوفود
ببرول
بحرىد
بدفعه
بدكارىه
بربىبها
برفب
بسمعه
بصعد
بصمىن
بطلم
بعرو
بعملها
بكمىم
بمبوسط
بمسحد
بنكر
بورف
بوفوع
حاسىه
حدوره
حدىبنا
حراكم
حصاناب
حهودنا
دلكم
دهبا
دىىعو
راف
رحلبها
رحما
رفىفا
روك
رولرروىس
رونى
سحاب
سعارا
سكانه
سكسى
سوالك
طفر
عطى
فبصبح
فسار
فسلوا
كرىما
كونبى
لابىه
لاطفال
لانطلاف
لاهاى
لاوروبا
لحلسه
لصعوط
لطف
لعبهم
للبصوىر
للبوعىه
للطبىب
للعىان
لموندىال
لنص
ماحود
مارىنا
مالطا
ماىبعلف
محموعبىن
محورىه
مدرحه
مدهسه
مرفم
مرفوع
مساكلهم
مسوره
مسىحىىن
مصحوبا
معحب
ملعفبىن
منافسبه
منبهىه
منىع
موصى
مىكى
نواصل
نوصح
وابفافىه
واسبطاعب
واسفرب
واف
والاولاد
والبرام
والحامس
والدفىف
والعباده
والعحر
والعفاراب
واللودراب
والنفس
والنفط
وبببب
وبحر
وبرحمه
وحدابه
وحفه
وففر
ومحافط
ومفهوم
وموسى
ومولانا
ونصره
ونفاط
وىبحب
وىلعب
وىمبد
ىدوب
ىسبهان
ىسحب
ىعبرون
ىعدون
ىفارن
ىنبحب
ىهمنى
##ابم
##احباب
##اسبحدام
##افببح
##بحدام
##برد
##بسرى
##بصف
##بونى
##حروح
##دفىفه
##دونه
##دوى
##رراعه
##رمب
##روبىه
##ساهل
##سلىم
##صهم
##صوىه
##طعه
##عاطف
##عبىه
##فافم
##فبصىاب
##فبنا
##فطا
##كارم
##كلىه
##لافب
##لىمان
##مبارىاب
##مىىر
##نبطار
##نبهم
##نطفه
##نوعاب
##وبلع
##وراه
##ولهم
##وىبها
ابففوا
احبلافاب
احراف
احوابك
ادعب
ادل
اسهمها
اسىد
اصدربها
اصدرها
اصم
اعحار
اعدبه
افصب
افواله
الاساده
الاسهام
الاطهار
البامر
البداحل
البداعىاب
البدكره
البردداب
البرىدى
البسع
البصمه
البعسفى
البكسىر
البكمىلىه
البلفره
الحاوىه
الحرىل
الحرىىاب
الحىناب
الدسمه
السافعىه
السكرىاب
الصدرىه
العدسه
العناىم
الفادرىن
الفىاساب
اللحمه
المانحا
المبالف
المبوبه
المبوفر
المحاسب
المحصول
المدرا
المعرصه
الملون
الممنهح
الموفوف
الوبىف
الوحدوى
امركم
انبفاما
انسحبب
انفباح
اىسب
اىمىل
بالاسبمرار
بالاسعه
بالاعبراف
بالبفدم
بالحنوب
بالسماح
بالصفه
بالصمان
بانبها
ببحفىص
ببعىه
بحالاب
بحرىص
بحكمها
بحوىد
بسداد
بفوانىن
بكرس
بكفىر
بىرل
بىكر
بىنكما
حرىمى
حسابابه
حصولهم
دعمب
راىحبه
رعىف
سعوبها
سعودىىن
سنعمل
سهما
سىاربىن
سىفا
صكوك
صهىونىه
صواب
عارىب
علانىه
علىان
عمانى
عواىل
فرارابه
فرعب
فروف
فسور
فعلىنا
كاهن
كببهم
كبفىه
كورى
لاراده
لامراه
لبربىه
لبسكل
لبفسىر
لطاهره
لعنب
للبمىر
للفمه
للناىب
لىحد
لىعلن
محافطا
محطوره
مدفعىه
مرىىاب
مسحع
مهددا
موبرا
نسبىه
نىابىه
هامىلبون
هدفهم
هلاك
والاحدىه
والادىان
والافراح
والاكادىمىه
والانفاد
والبرهىب
والبفنى
والحوع
والسهاده
والعصر
والكلىاب
والمبعلفه
والمساحد
والمسبسار
والمفبرحاب
والنصوص
وبابعب
وبصدىر
وبصر
وبهدىد
وبوصىح
وبىسىر
ودىر
ورىد
وفادره
وفدر
وفرفه
ولاحفا
ومرب
ومعلوم
وواصل
وىسعر
وىعىد
ىابا
ىبلو
ىحصلوا
ىدلى
ىرافف
ىربكبها
ىفابله
ىفبع
##ابورى
##اسىىن
##افساب
##افسه
##المهم
##اهىر
##بانىل
##ببعد
##بحام
##بحلفه
##بفرفه
##بفص
##بىفه
##حىماب
##داى
##دحر
##دراح
##دعوه
##رعوا
##رىان
##سالك
##سبوع
##صفاب
##صوبه
##طارى
##عبور
##علط
##فبراب
##فىك
##كاسل
##كاك
##كفااب
##كمام
##لامىه
##لعن
##لونى
##لىسب
##لىو
##مىدىا
##نحاع
##نكبه
##هاىى
##وارره
##وبما
##وصوح
##ولندا
##وهله
##ووم
##ىاف
##ىعىه
ابحاده
احساسا
ادرار
اعانه
افنعه
الاحوار
الاسفلب
الاسمىه
الباسىراب
البحرىح
البراما
البسدد
البسرىب
البصىىف
الحبمىه
الحبىره
الححب
الحصاد
الحكه
السبر
الصامبه
الصبىه
الصح
الطىف
العطىه
الفبىان
الفرىن
المحارم
المحاصصه
المحى
المحىطاب
المدح
المدهل
المسهود
المعسكراب
الموسىفار
الموصلى
الناسفه
النطاره
الهىكلىه
الىسارى
اىسكو
بالبحرىن
بالسارع
[...]
